#version: 0.2 - Trained by `huggingface/tokenizers`
Ġ t
Ġ a
h e
i n
r e
o n
Ġt he
a t
Ġ s
e r
Ġ o
e n
Ġ c
a l
e s
e d
n d
Ġo f
Ġ in
i t
Ġ w
a n
i c
i on
o r
i s
Ġ f
Ġ d
a r
Ġ p
Ġ b
Ġ m
Ġa nd
r o
a s
en t
in g
Ġ re
Ġt o
Ġ l
Ġ e
c t
at ion
i m
e l
Ġt h
Ġ T
u r
u s
l e
c e
l y
Ġ h
o l
o m
o s
e t
Ġ n
u t
u l
i d
i v
Ġ is
i g
Ġ S
o w
i l
Ġ A
Ġ 1
r a
Ġc on
Ġ g
o t
Ġf or
i f
Ġs t
it h
Ġ v
ĠT he
e re
t er
Ġ C
a m
re s
Ġa re
e c
Ġa s
Ġw ith
o d
u m
s t
Ġ on
at e
i es
a c
ro m
Ġb e
o c
e m
Ġ M
Ġa l
Ġ P
he r
Ġth at
u n
Ġf rom
Ġ I
it y
Ġb y
Ġ 2
Ġp ro
g e
Ġa n
a b
v er
e ct
Ġd e
Ġa t
Ġe x
at ed
or t
es t
Ġs p
Ġ r
u nd
i r
o p
Ġs u
Ġ ,
at er
u d
is t
Ġ B
Ġc om
an t
o g
r i
a y
ic al
v e
s e
Ġs e
o re
Ġ F
p l
q u
c h
u re
Ġw ere
Ġo r
p er
ation s
i al
h ic
m ent
Ġw as
Ġs h
Ġ N
Ġc h
t h
a in
Ġ E
Ġc o
Ġ D
ig h
0 0
iv e
a nd
a g
in e
ion s
Ġre s
er s
as t
es s
Ġ H
a d
Ġ L
Ġ R
Ġcom p
Ġin c
ar i
c c
Ġ G
Ġ O
a ct
Ġth is
Ġa b
u p
Ġ us
Ġcon t
el l
n t
Ġ 3
u ct
Ġsp ec
a ve
re as
p p
i z
Ġ en
im ent
ul t
el y
on g
o ut
Ġw ater
w e
Ġc l
en ce
al l
ĠI n
ar t
Ġb et
h y
a k
Ġ W
o us
if ic
Ġs am
u g
i an
os t
e ar
Ġre c
ar y
a ce
Ġn ot
Ġp re
we en
Ġin d
en s
at a
Ġde p
if f
hic h
Ġh ave
Ġbet ween
Ġin ter
Ġw hich
Ġm od
r an
Ġ 5
v el
ol og
Ġas s
Ġp er
ed iment
as s
ur ing
at es
f f
Ġ 0
ĠT h
Ġf l
Ġ it
it ion
Ġo b
er v
Ġre l
t her
Ġ im
an g
e p
an ce
Ġs ediment
or m
ab le
ri b
a p
p ort
Ġl e
ug h
Ġd iff
i p
Ġst ud
Ġ 4
Ġspec ies
Ġv ari
s o
Ġe v
Ġl ow
il l
i b
ro p
Ġre g
ter n
Ġp res
Ġv al
Ġs ur
it e
Ġp l
ra p
Ġm e
or d
Ġd uring
ar d
Ġd ata
Ġw he
Ġp art
i a
Ġ k
ig n
Ġin t
Ġb as
c es
ut ion
Ġw e
Ġst r
Ġ y
Ġsh ow
Ġf o
Ġh igh
Ġc or
al y
Ġc an
Ġd is
Ġinc reas
a ge
ac h
Ġth an
Ġval u
Ġb i
igh t
Ġ U
Ġt im
Ġal so
Ġdiff ere
Ġd i
us t
Ġbe en
Ġ un
Ġt em
Ġsu b
u al
Ġa d
ce an
Ġ up
Ġd ist
s erv
d uct
ĠTh is
f ace
Ġm ar
ent r
ul d
y st
Ġo ver
a x
Ġmod el
a e
en e
al e
Ġthe se
e w
ent s
re d
ran s
Ġ1 9
p t
Ġl ar
an ge
Ġcon s
Ġg ro
Ġc ol
at ure
Ġsam pl
ar b
Ġ he
Ġh as
os s
Ġs c
b er
Ġres ult
Ġs im
Ġa pp
on e
Ġob serv
i ed
Ġal l
er m
Ġcon c
Ġb ot
id e
Ġan aly
Ġs ign
Ġ 6
Ġse a
Ġtem per
Ġt rans
at ive
y p
c ed
Ġm ore
ir on
cc ur
Ġind ic
Ġ est
an k
Ġc al
Ġm ay
o b
e ver
arb on
g g
Ġs o
il ity
Ġd ec
Ġin f
Ġsur face
Ġb ut
e a
ra d
Ġg en
Ġg l
Ġvalu es
Ġ K
r ic
en d
ol l
Ġtim e
ment s
w o
Ġo ther
ang es
Ġex t
on t
ct ion
l l
v iron
v i
u e
er al
Ġd et
yst em
Ġ2 0
Ġl oc
e g
ff ect
ro ugh
on d
im ate
Ġo ccur
er t
Ġ V
a us
act er
un t
Ġ J
ic e
olog ical
iv ely
s is
re e
Ġstud y
c ul
Ġus ed
ort h
it ions
p h
Ġle vel
Ġ und
Ġt wo
g an
i od
Ġrec ord
am in
Ġm et
p le
or s
om e
Ġcon d
b l
Ġ z
is h
Ġres p
her n
ow ever
Ġthe ir
ar ly
os e
t on
Ġab und
Ġc arbon
Ġ 7
oc ene
res s
re nt
Ġw h
l ud
Ġfor m
Ġdep th
i le
Ġm ost
a il
Ġa m
ere d
Ġa cc
Ġ 8
u res
Ġh ig
Ġre p
in d
Ġch anges
Ġen viron
Ġconc entr
Ġcom m
Ġpres ent
Ġe t
Ġper iod
Ġ1 0
Ġus ing
os ition
ab ility
it ies
Ġdiffere nt
Ġon ly
Ġtemper ature
at ing
Ġs he
Ġsu gg
Ġsampl es
Ġsugg est
ĠS ea
Ġo cean
t ed
Ġare a
Ġthe re
st r
ect ion
Ġ qu
Ġpro duct
Ġsign ific
Ġs out
v al
Ġcond itions
Ġ 9
ra in
Ġ ro
le ct
Ġbot h
ank ton
i k
l es
Ġme as
Ġobserv ed
it es
o uld
Ġreg ion
l and
Ġd es
Ġp o
d u
i x
ac k
r y
Ġund er
m er
Ġsu ch
Ġint o
Ġdist rib
as on
a v
Ġs m
Ġp at
w ard
ĠC h
ak e
Ġa c
ĠA t
Ġsignific ant
Ġor gan
Ġn um
Ġa r
Ġex p
Ġwith in
Ġs l
Ġwhe re
Ġfo und
as e
ro s
Ġth rough
iz e
o und
w ater
Ġe ach
e ed
o unt
he d
Ġinc lud
Ġy ear
Ġo ut
Ġpart ic
o v
ag es
olog y
Ġcor re
Ġw ell
t ic
an n
c ess
Ġpro v
il ar
Ġ2 00
og rap
Ġch ar
ĠS t
om in
Ġre m
o ugh
iv ers
Ġmeas ure
y c
n ce
Ġp hy
oc i
Ġe c
f orm
Ġt re
ol ution
iv ity
iz ed
Ġp h
os it
Ġb ec
al ly
id ent
Ġe ffect
it ud
op e
Ġfl u
g en
Ġsm all
Ġlow er
Ġim p
Ġme an
Ġhig her
Ġcl imate
Ġco ast
t s
ĠA l
Ġc ur
Ġrep res
at ic
Ġenviron ment
ow n
Ġlar ge
Ġmar ine
Ġit s
Ġon e
aus e
e f
Ġa ct
ĠH owever
i o
i ent
u b
Ġchar acter
Ġsim ilar
ain ed
Ġp r
ect ed
ical ly
im um
Ġr at
Ġs ystem
f ore
is m
Ġ ice
Ġre f
e x
Ġad d
Ġch ange
em bl
Ġm ic
Ġs ome
Ġt yp
ib le
Ġresult s
Ġpro cess
Ġanaly sis
Ġ |
Ġm in
op l
el d
Ġm ain
in ed
iv er
Ġcons id
Ġm an
vel op
Ġim port
o ur
in a
Ġsediment s
ĠA r
Ġa g
if ied
Ġincreas e
he m
Ġgro w
l u
Ġl ay
id es
Ġest im
Ġl im
Ġ1 3
ic s
Ġn o
Ġdec reas
Ġstud ies
Ġm on
Ġass oci
Ġcorre l
ul ation
Ġf act
Ġde ep
Ġd ue
amin if
Ġe qu
ĠThe se
Ġt ra
Ġp ar
k s
is e
Ġse ason
er y
ĠF or
Ġass embl
Ġgl ac
Ġdistrib ution
Ġf ra
Ġde velop
Ġt ax
t al
Ġc r
he s
Ġs al
Ġpat tern
Ġo ur
Ġs et
opl ankton
ct ic
ar m
ĠA s
on s
Ġare as
i eld
oll ow
re t
Ġl ong
Ġwater s
Ġcont in
Ġapp ro
Ġbas ed
h an
x y
or y
d er
Ġ1 5
Ġfor aminif
in s
Ġs um
ent ial
Ġ1 8
Ġpre c
Ġto tal
Ġab out
al ae
Ġ er
Ġthe y
a un
al s
o od
Ġco uld
Ġs ize
Ġrepres ent
Ġgen eral
Ġabund ance
e an
ro und
Ġal ong
Ġd omin
Ġis ot
Ġ20 1
i um
Ġg re
Ġstr ong
Ġ ident
at ively
ĠM ar
Ġn ear
ĠI t
um e
it ation
y n
f ter
Ġpre d
Ġf ollow
os p
Ġa ver
Ġwhe n
ĠW e
Ġm at
Ġin v
Ġup per
Ġd o
a re
orm ation
er a
ir st
am et
h od
n ces
o ve
Ġex per
ros s
Ġm ax
Ġg e
Ġ Z
ag n
en c
ific ation
Ġorgan ic
Ġr ates
Ġa v
Ġsu pp
Ġ1 2
Ġpro b
at ures
Ġdes c
ivers ity
Ġinter val
Ġb el
iv id
Ġv ery
Ġcal cul
Ġth ree
Ġdis c
o f
l ant
Ġp oss
Ġ19 9
s h
ul ar
em ent
v ed
Ġnum ber
ĠN orth
Ġh y
Ġr ange
Ġw ould
Ġgro up
Ġcur rent
Ġc yc
ur ther
or k
t e
Ġex pl
Ġsam e
Ġcomm un
Ġconcentr ations
ĠS c
Ġb ound
Ġgrow th
oss il
Ġl ik
es tern
u ch
th ough
os ed
in ity
Ġassoci ated
ay s
Ġcons ist
lant ic
Ġth ose
on es
Ġimport ant
Ġn ort
T he
Ġ j
i re
Ġdet erm
ce pt
Ġb l
Ġflu x
Ġlar g
a j
Ġfl ow
Ġyear s
l ine
ab ly
Ġm ass
Ġe le
r ing
s c
ĠO cean
id ence
a red
Ġstr uct
on str
Ġinf lu
Ġ -
port ed
Ġw ill
Ġproduct ion
Ġr ate
Ġbec ause
ob al
Ġincreas ed
Ġf irst
itud e
Ġdi re
ĠAt lantic
Ġm ix
ĠS out
Ġc ore
ĠF ig
Ġcomp le
Ġn orth
Ġvari ability
in ce
it s
i er
Ġmic ro
Ġmet hod
Ġ ra
id s
at ely
en g
Ġtre nd
it er
ĠP l
Ġl ess
iv en
vi ous
Ġrel ative
er n
Ġl at
ur b
l f
or ph
ens ity
Ġdep osit
00 0
d ro
Ġc m
Ġcomp ar
as tern
h n
ial ly
Ġprec ip
rib ut
ic k
Ġw ind
Ġp e
ĠA n
Ġ1 4
he n
Ġs ites
Ġf ish
Ġav ail
ent hic
ent ly
Ġinter p
in ter
aj or
Ġt est
ot ential
1 0
r ont
og en
Ġloc al
Ġadd ition
c k
Ġso ur
Ġ i
Ġa fter
it ed
o ver
Ġwh ile
p ec
Ġmax imum
xy gen
Ġab ove
ivid ual
Ġrel atively
p or
Ġv ol
ain s
Ġenvironment al
res t
Ġs ection
Ġw arm
p ar
du ced
Ġ ed
ĠB as
t om
ig rap
et ic
Ġsout h
Ġexper iment
res p
us s
Ġsam ple
Ġp otential
at igrap
is s
he re
Ġdesc rib
ab it
Ġof f
Ġcon st
Ġphy t
Ġpr im
Ġk n
o x
Ġprecip itation
Ġlay er
er g
Ġaver age
Ġ u
rop hic
Ġm ajor
Ġz one
ĠThe re
Ġp op
h ip
im ens
Ġn ut
lect ed
op hy
al es
Ġresp ect
Ġind ividual
Ġd r
Ġm id
Ġtax a
Ġob t
Ġat t
at om
Ġpar amet
Ġa ut
5 0
t ing
resp ond
rad i
Ġs and
iv ed
all ow
Ġcal c
Ġcoast al
Ġ1 1
entr al
Ġsp at
Ġgl obal
o le
ĠU n
Ġdis s
Ġa ge
Ġbas in
Ġl and
Ġto p
Ġlevel s
Ġcont ro
Ġimp act
Ġa p
Ġc ell
Ġp ale
Ġc le
Ġv ert
ra m
Ġbi om
ro w
ff ic
Ġprocess es
an s
g in
Ġnort hern
Ġshow n
Ġsh allow
Ġ Y
i qu
pl ic
l or
Ġbound ary
Ġde f
Ġsum mer
i ence
Ġshow s
Ġcomp ared
Ġhy dro
Ġe m
Ġconcentr ation
re qu
Ġrel ations
Ġdiffere nces
m osp
in t
Ġo xygen
Ġreg ions
i e
Ġse qu
Ġnut ri
Ġ Ġ
Ġmodel s
abit at
ĠP ac
Ġ ;
ic t
Ġb enthic
Ġse ver
Ġ Q
ur al
Ġre ported
Ġsal inity
Ġrel ated
b r
os ystem
ent al
r on
Ġh ad
se qu
Ġex am
ĠO n
Ġf un
Ġus e
Ġt erm
Ġf aun
um n
j ect
Ġsout hern
Ġen d
Ġs il
Ġcor respond
in es
l ac
S T
Ġanaly s
Ġ3 0
Ġrelations hip
an ces
y s
Ġthe n
Ġapp ear
in k
ul ations
Ġtrans port
Ġvalu e
ust r
ater ial
Ġassembl ages
Ġe arly
id al
Ġshe lf
yn am
Ġsever al
Ġcomm on
Ġc ir
at or
w ell
Ġdi atom
Ġs ite
Ġlik ely
enc y
Ġbot tom
Ġcomp osition
Ġk m
Ġn on
Ġev ents
Ġphyt oplankton
Ġcarbon ate
Ġpre vious
Ġab s
h a
Ġo p
Ġl ine
u c
Ġco ver
iz ation
Ġec osystem
o z
Ġs er
Ġm agn
Ġdire ct
ĠPac ific
Ġindic ate
Ġ ent
Ġa round
Ġcl im
Ġcalcul ated
Ġan n
Ġh abitat
d le
Ġseason al
Ġmeasure d
Ġsupp ort
Ġw inter
Ġor der
Ġ /
Ġconsid ered
r ation
o res
ĠMar ine
rop ical
Ġeffect s
ad e
i ocene
Ġre ef
Ġcol lected
ation al
ar ctic
Ġcomp on
Ġf ield
ar k
ĠI nd
Ġb ed
Ġat mosp
2 0
Ġbel ow
if t
p ut
i ers
Ġposs ible
Ġst and
Ġ [
Ġbiom ass
Ġspat ial
ur n
1 3
ing s
Ġn ew
Ġpro f
en ces
ig in
is hed
Ġf urther
ion al
a w
ĠC O
Ġac ross
Ġf requ
Ġl ate
res h
ec ond
t en
Ġth ick
m ed
ol ved
Ġp a
Ġsh ould
Ġm uch
Ġt er
n ess
Ġpattern s
Ġinv est
Ġpres ence
Ġa ffect
g et
ual ly
Ġp oll
Ġman y
on om
Ġinclud ing
hem ical
Ġobt ained
Ġf ossil
Ġf e
x im
Ġ ~
Ġm ult
ism s
Ġl ast
Ġs ens
Ġm aterial
Ġrecord s
ar ch
Ġdescrib ed
Ġ5 0
ert ain
ol d
r m
v es
ic a
Ġs ect
as es
Ġavail able
Ġw estern
Ġor igin
y m
Ġvert ical
ĠA C
Ġre qu
Ġconsid er
Ġshow ed
Ġev idence
Ġst ations
Ġ es
Ġass ess
ĠA N
is ed
ĠD e
l im
Ġd em
ograp hic
Ġcon f
c ing
m ost
Ġd er
Ġh owever
Ġd ensity
Ġan y
ol ar
if y
l d
Ġ =
eg et
Ġmat ter
ĠI s
Ġde g
Ġc ap
it u
Ġdep osition
ul f
Ġcorrel ation
O C
ol ith
o y
Ġg r
Ġcom b
Ġn eg
st and
on se
Ġvari ations
Ġun c
c ent
ograp hy
Ġinvest ig
Ġth us
Ġdecreas e
Ġobserv ations
ĠP alae
Ġ1 00
ric h
ĠBas in
ĠP ro
sh ore
Ġsampl ing
Ġall ow
Ġ radi
Ġestim ated
Ġf ew
cc ess
Ġl ight
Ġ if
Ġann ual
Ġg ra
Ġv eget
Ġ1 6
Ġincreas ing
her ic
el s
Ġm orph
Ġc aus
Ġmeasure ments
Ġtemper atures
ĠSout h
erg y
Ġl o
Ġshe ll
eng th
Ġc ent
u ary
t le
pt ion
Ġs ince
ac ies
Ġev en
Ġso il
onstr uct
Ġstruct ure
v en
Ġspec imens
Ġtim es
o k
Ġe astern
Ġresp onse
in c
oc c
Ġinf ormation
Ġrecord ed
ĠM ed
i os
Ġpe ak
em ber
iter ran
Ġgeneral ly
Ġcir cul
Ġd own
C O
Ġdevelop ment
Ġqu ant
Ġfun ction
y r
Ġthe m
Ġt ak
Ġn it
Ġsu ccess
a u
Ġhe re
Ġref lect
Ġal g
Ġin s
i ly
Ġanalys es
Ġsc ale
Ġisot op
oc k
I S
Ġ2 5
ĠA nt
Ġprov ide
Ġfollow ing
r ast
Ġs econd
w w
iv al
Ġg rad
Ġc ar
om et
Ġcol umn
or iz
Ġdep end
Ġre t
Ġex c
re n
Ġperiod s
Ġle ad
Ġrespect ively
Ġcont ent
Ġf eed
Ġs el
Ġd iversity
ĠT o
iterran ean
Ġlarg er
r it
Ġpartic ul
duct ion
ĠSc ience
Ġmon th
Ġfo od
Ġrat io
1 8
Ġrec onstruct
Ġcont ribut
Ġforaminif era
well ing
Ġcharacter ist
Ġper form
is on
Ġphy s
Ġass um
Ġacc um
al ity
Ġfact ors
Ġinflu ence
Ġprim ary
Ġst at
Ġl ake
Ġglac ial
Ġthere fore
Ġd ynam
Ġn eed
el oc
Ġexam ple
Ġop en
Ġdeposit s
Ġh um
Ġcommun ity
Ġph ot
Ġc ase
Ġcl ass
re g
ĠF ormation
ol ocene
Ġoccur red
Ġsignificant ly
Ġad v
Ġam ong
in ation
Ġkn own
Ġg iven
Ġisot ope
ĠR es
ĠS C
re ad
Ġin it
Ġveget ation
Ġb acter
Ġser ies
Ġc entral
Ġbe ing
Ġ X
ress ion
Ġcontin ental
Ġe p
Ġstand ard
Ġn et
tic le
Ġp alae
Ġabund ant
Ġp osit
Ġev ent
Ġt r
he st
ord ing
Ġ1 7
b ers
Ġloc ated
Ġpres erv
ĠM a
u bl
ra ct
Ġal though
Ġam ount
Ġsl ope
n ing
Ġproduct ivity
o un
o ge
Ġse par
Ġprob ably
Ġident ified
in ct
Ġthe rm
ĠMed iterranean
ogen ic
Ġv eloc
iv ing
e y
ot h
ĠI P
ĠF e
Ġcont rast
Ġvari ation
Ġen ergy
Ġsour ce
Ġsh ort
re m
ul ated
ab les
Ġmain ly
Ġregion al
Ġparamet ers
ĠS p
Ġfo ur
Ġf il
Ġnutri ent
Ġcircul ation
Ġestim ates
Ġf is
Ġcomple x
Ġre se
Ġpro p
Ġw ork
ward s
Ġsp ect
Ġs itu
Ġcontin u
f l
Ġoccur re
Ġprov id
ant s
Ġre st
Ġsuggest s
Ġassembl age
Ġpoll en
lac ial
Ġr un
Ġ2 3
Ġact ivity
Ġr iver
Ġele v
Ġh oriz
Ġdet ail
Ġenviron ments
ere st
Ġpro g
atigrap hic
Ġcor al
Ġh ist
Ġm m
ain ing
ex t
ffic ient
ec hn
Ġin put
1 2
Ġacc ount
Ġhig hest
ab l
as ed
Ġfra ction
ĠAnt arctic
il es
Ġb ar
ar ies
Ġgroup s
at h
Ġex ist
Ġco res
Ġd at
Ġmod ern
Ġ4 0
Ġconsist ent
Ġ :
Ġdisc uss
Ġcontro l
c an
Ġrec ent
Ġwhe reas
Ġl ength
Ġappro xim
el ag
Ġform ation
ow er
it her
Ġpl ankton
ĠG e
ĠS ST
ĠAl though
land s
ul l
ĠA m
Ġ19 8
Ġw ave
Ġgen er
Ġ rain
ĠH olocene
Ġgre ater
Ġmar gin
oz o
ĠE u
Ġatmosp heric
Ġforaminif eral
Ġco ol
t y
el t
is c
ĠB ay
ĠV ol
ut e
ly ing
Ġappro ach
Ġsystem s
1 9
Ġinterp ret
ĠC on
o or
a pp
Ġm ight
op h
Ġco unt
Ġclim atic
ter s
ĠTh us
iv es
Ġb u
ec han
m an
ri al
Ġdeterm ined
Ġmar k
Ġper cent
l us
ap e
onom ic
Ġle ast
Ġ rap
Ġtem por
pl ied
in al
od s
ĠF ront
Ġposit ive
o id
Ġdiffere nce
Ġpop ulation
ĠE P
ing le
Ġh yp
Ġf resh
ĠL ate
Ġl ater
Ġdistrib ut
Ġindic ates
Ġ x
n al
Ġaut h
ophy ll
h ib
at ch
Ġsect ions
Ġcharacter ized
ĠT E
Ġsp ring
Ġsl ight
Ġunder stand
Ġthrough out
med i
Ġch lor
Ġder ived
om p
ĠA ll
Ġin st
Ġdepth s
Ġrap id
A R
Ġstud ied
Ġst ill
Ġ +
Ġan om
at ory
on ic
im e
at ural
Ġm es
Ġbe fore
ĠEu rop
ĠAr ctic
ap s
Ġof ten
Ġm ade
ter m
Ġcyc le
Ġsuggest ed
Ġm echan
Ġres olution
Ġer r
Ġup welling
o om
Ġdomin ated
l ed
Ġre ve
Ġst ation
Ġd id
Ġrese arch
Ġmix ed
Ġst ress
Ġlay ers
Ġs ingle
Ġ2 4
ere nce
n er
en ced
et s
Ġre le
Ġm ac
Ġbas e
Ġdo es
Ġtyp e
ĠE l
Ġsub s
Ġcommun ities
ic h
Ġcl ose
Ġneg ative
Ġcol d
er red
ast ic
Ġanaly z
ĠG l
Ġe ar
Ġor g
ver s
m s
Ġs at
Ġvari ables
ĠW h
l ig
Ġex cept
Ġtak en
Ġsur ve
ut ure
Ġrat her
u es
Ġs ol
ĠA d
Ġrat ios
Ġm ud
Ġev olution
per s
Ġext rem
Ġdevelop ed
Ġincreas es
ra c
p r
an e
Ġinter act
Ġtrend s
um ent
og n
Ġre duced
ot her
Ġph ase
Ġt echn
f t
i i
le vel
os ph
Ġse em
en se
pec ially
Ġvol ume
m on
Ġlim ited
ar ine
ĠR iver
ri ed
Ġbi ological
Ġisotop ic
du ce
Ġcompar ison
Ġstat ist
Ġer os
ĠB P
Ġe ast
Ġd ry
Ġb ack
ĠC al
s ure
re am
or n
a rent
ĠVol ume
Ġro le
Ġest imate
end ed
ch ar
r ate
Ġinclud e
ak es
ur ation
Ġfact or
Ġtyp es
ul a
ĠAr ticle
rib ution
ur rent
he l
Ġec ological
Ġw ww
Ġf ront
Ġb ur
Ġpartic ular
oc h
ot ic
Ġl it
Ġg rain
t ies
Ġw id
Ġoccur s
le y
Ġe ither
Ġapproxim ately
ĠThere fore
ol s
Ġp ast
Ġc a
Ġoccurre nce
ĠT able
ĠE n
Ġdist inct
Ġdem onstr
Ġpresent ed
ace ous
w ay
m et
Ġfis her
Ġ2 2
Ġes pecially
Ġdomin ant
ur face
sc ale
1 5
ass ic
f all
Ġinterval s
Ġsediment ation
Ġsea water
Ġman ag
Ġexperiment s
N A
l ing
Ġfe atures
pl es
elag ic
er ing
ac hes
ore d
Ġest abl
Ġn atural
Ġv i
Ġb ro
Ġcle ar
ell a
n ow
Ġn orm
Ġbl oom
Ġparticul arly
Ġed d
ate g
f ul
r ated
ha vi
ĠF urther
Ġmix ing
Ġexp ected
Ġw est
Ġpo ly
y nt
Ġsmall er
Ġpartic les
Ġresult ing
he sis
in o
Ġhigh ly
O M
Ġgro und
Ġveloc ity
Ġp ubl
Ġst able
ĠFront iers
Ġk a
Ġvari able
Ġbe havi
Ġf oc
ĠI I
Ġvari ous
og ene
ot rophic
Ġspec ific
Ġt ropical
at ors
Ġp osition
Ġpred ict
Ġy ield
Ġsediment ary
Ġl ith
Ġf uture
Ġpro port
av es
ĠM iocene
Ġwe ak
ĠD uring
iff iff
Ġext ens
Ġhe at
Ġf acies
ĠL ake
ang ing
Ġmid dle
Ġprovid ed
ot s
3 0
Ġflux es
Ġl oss
Ġt idal
Ġpro t
ann el
ĠS e
an y
ro gen
Ġorgan isms
Ġl ab
Ġpo int
Ġt urb
r al
Ġperform ed
uct u
ĠThe y
Ġtempor al
Ġaccum ulation
ĠQ u
Ġinclud ed
Ġsequ ence
Ġwarm ing
Ġd ay
Ġre d
Ġindividual s
4 0
I C
ĠC l
Ġunc ertain
Ġindic ated
Ġdis pl
Ġw or
Ġag ain
w est
ĠCh ina
or ing
is ion
Ġd ays
Ġcaus ed
Ġm ed
ĠS h
us p
Ġabund ances
d ay
Ġresp ons
a f
Ġ6 0
Ġb re
ost r
itud es
Ġad j
i red
Ġl ink
Ġa ir
Ġtrans ition
Ġy r
Ġcon duct
Ġl ack
im al
Ġ2 7
Ġco e
Ġn e
ep end
en ari
Ġcl os
Ġent ire
ir d
Ġmethod s
vi ew
1 1
Ġfl ood
Ġcell s
an c
Ġc ross
al u
6 0
ac hed
Ġsour ces
Ġac id
Ġterm s
o u
ment al
Ġm ov
ĠE x
Ġsens it
Ġchlor ophyll
Ġmin eral
st one
Ġcharacterist ics
ĠG re
so on
Ġcompon ent
Ġh ow
g lacial
Ġreve al
Ġpro per
Ġint eg
Ġpop ulations
Ġslight ly
iqu e
am m
ar p
Ġo pt
Ġdynam ics
t il
Ġev alu
Ġfoc us
ri or
Ġap plied
Ġconst ant
le t
Ġrec ogn
Ġfaun a
oc hemical
Ġloc ation
ur s
ustr al
Ġst e
ĠC or
L A
ep t
Ġind ex
Ġstr at
v ent
Ġb al
ra b
Ġpo in
Ġinit ial
ĠN e
ĠP le
Ġv ary
occ olith
ĠSout hern
l ik
Ġposs ib
Ġimp ro
Ġex hib
Ġsc enari
Ġgre at
Ġen c
re ted
Ġp ost
ic ult
Ġdef ined
se a
ear ch
Ġlim it
Ġf a
Ġnum er
Ġun it
Ġre ason
Ġe l
Ġhyp ot
Ġ ir
Ġcompon ents
on ian
ag ell
Ġacc ording
Ġst ate
rest rial
Ġmin imum
Ġfrequ ency
un e
Ġmicro b
ĠS ub
Ġdiss olved
Ġ2 1
ĠG ulf
Ġocean ic
Ġw et
ĠM ore
Ġm ig
ĠM id
Ġpa per
ĠU S
ect s
e per
' s
Ġs k
ĠRes earch
g er
Ġbet ter
ot e
ĠA f
Ġ19 7
ĠA mer
Ġz ones
Ġfra g
Ġsub st
Ġex amin
at her
Ġth ough
Ġtre at
Ġmanag ement
Ġwe ight
ograp h
en n
Ġa gg
m ore
Ġrem ains
t ered
Ġsc ales
Ġra re
Ġpres sure
r u
id ge
Ġmac ro
Ġfollow ed
Ġprob le
Ġthick ness
i ation
Ġ2 8
Ġform ed
Ġf ind
Ġb od
Ġpro duced
Ġcurrent s
Ġext ent
Ġeros ion
ĠUn iversity
Ġd oc
Ġphys ical
ĠE ast
il d
ot yp
t o
ari ly
is ing
Ġindic ating
Ġh al
ĠW ater
Ġcon n
Ġl if
Ġrepresent ed
Ġv is
Ġvol can
Ġprevious ly
o ff
s et
Ġg ood
Ġd el
ist ocene
ip le
ĠE arly
Ġover all
Ġcorrel ated
Ġr ise
Ġo x
Ġsign al
Ġcont ribution
Ġfor cing
ĠS ite
am p
b y
Ġen han
ĠP A
y l
Ġstrong ly
Ġear l
Ġfo rest
pl oy
ĠS im
Ġloc ations
ĠZ one
ĠR e
Ġhabitat s
i or
Ġd in
Ġappear s
ozo ic
Ġbas ins
Ġanalyz ed
Ġm ust
Ġst orm
Ġdis char
Ġag re
Ġter restrial
Ġa ccur
Ġinterp reted
Ġcol on
ĠO ur
os a
Ġvi ew
Ġrep ro
ĠAf ric
Ġrain fall
Ġcorrespond ing
Ġsub t
Ġprof iles
ĠN ew
Ġun til
Ġanom al
Ġ ill
ac ed
Ġcon sequ
us c
Ġdiff icult
Ġline ar
Ġf all
Ġcl ay
are ous
ur y
M S
Ġgrad ient
1 4
c hes
Ġst art
re l
Ġre ach
ĠC om
Ġfresh water
Ġal most
Ġp ers
ret aceous
Ġbed s
Ġp rior
Ġpart s
Ġt e
Ġfl uctu
Ġbro ad
ĠB l
a z
g es
Ġre duction
is es
Ġparamet er
Ġdecreas ed
Ġglac ier
E S
Ġm o
Ġdirect ly
Ġmagn itude
Ġaddition al
Ġo cc
Ġse en
ol ic
Ġpre f
Ġecosystem s
ang ed
Ġst age
Ġcal ib
b ased
ag ed
ĠO r
Ġnorm al
Ġde eper
Ġmon it
Ġplankton ic
Ġnit rogen
Ġdoc ument
ist ic
rain ed
Ġsampl ed
t ure
Ġdiatom s
Ġunderstand ing
Ġto wards
Ġdat as
Ġsum m
Ġo pp
ag en
Ġsh ore
ens is
Ġrepres ents
ac es
Ġcle arly
n ot
he ast
ĠC o
Ġn ec
ar c
Ġmon soon
p s
Ġ3 5
c ks
at hy
o oplankton
Ġc ult
Ġcyc les
it ic
medi ate
Ġam pl
Ġreg ard
Ġimport ance
ĠC urrent
ap or
ĠP ale
in ing
Ġth in
ĠM ic
str uct
Ġst ep
o ec
Ġdeterm ine
Ġl a
Ġauth ors
ic hn
Ġaffect ed
ĠI f
in ium
Ġfish ing
Ġcontro ll
ress ed
ce ed
Ġ2 9
C M
Ġsp eed
Ġc ases
Ġc op
Ġl ag
Ġre al
Ġres our
Ġimpact s
2 5
ĠA ustral
ĠW ith
Ġsh ift
w ork
Ġwh ole
Ġcontinu ous
Ġhoriz ont
ent ion
Ġwith out
oc lim
Ġgr id
Ġto get
Ġpo or
Ġtoget her
ct ions
oc l
Ġsel ected
Ġ2 6
Ġpre y
Ġform s
Ġatt ribut
Ġsub sequ
Ġapp arent
Ġnec ess
u ced
Ġkn ow
ĠIs land
w ays
Ġstr atigraphic
Ġequ ator
2 00
at us
Ġd iver
Ġc re
Ġsuggest ing
b ed
ĠS am
ri pt
Ġhum an
ere nt
Ġstruct ures
Ġun its
l er
Ġlit tle
Ġdire ction
Ġset ting
iv ities
Ġcan not
ĠPle istocene
Ġc occolith
Ġtyp ical
ĠC retaceous
up t
Ġoff shore
in ction
ist s
Ġint erest
epend ent
Ġdetail ed
ĠU p
ĠN A
Ġwor ld
or atory
Ġ200 0
p ite
a h
ffic i
Ġb ra
Ġprov ides
i pp
is p
Ġhe ter
l og
Ġsim ulations
Ġfeed ing
Ġsub str
Ġd ust
r ig
Ġcar ried
if er
Ġsequ ences
Ġt urn
Ġrest ric
Ġavail ability
Ġinterpret ation
Ġcalc areous
Ġprop osed
Ġsupp ly
Ġw ide
if orm
Ġc atch
Ġover l
Ġenhan ced
Ġpl ant
Ġh and
of l
Ġad ap
Ġf ar
Ġnum bers
Ġdistribut ions
Ġhe ight
Ġag es
g ed
Ġfra m
im a
Ġf ine
Ġdist ance
at form
ĠP C
Ġt rap
Ġqu est
led ge
Ġcons um
Ġlim est
Ġproper ties
Ġdeposit ed
Ġdiscuss ed
Ġpro ject
Ġele ments
ĠL e
v ial
Ġcomp ut
Ġlif e
Ġwhe ther
1 6
Ġpoin ts
Ġpreserv ed
ell ite
ros c
Ġconduct ed
Ġp ort
9 0
Ġident ify
Ġnutri ents
Ġdiss olution
Ġhist ory
od e
ar s
Ġd a
Ġbacter ia
Ġc hemical
Ġco v
Ġsurve y
Ġl iving
Ġsil ic
os ynt
atigrap hy
Ġs now
ofl agell
ign ed
Ġrelationship s
u pl
Ġa qu
ĠInd ian
ĠS S
Ġph osph
Ġext end
ĠM A
ro up
Ġlat ter
u k
ĠB al
am e
Ġal tern
Ġbal ance
Ġco inc
ra g
Ġerr or
Ġhorizont al
Ġe ver
it ative
Ġo per
Ġmark ed
Ġbas is
ĠM ay
Ġap plic
Ġp rom
Ġhe l
Ġb est
Ġqu ality
Ġpred ic
u x
Ġmonth s
ĠC a
Ġcl us
Ġst ages
Ġest u
Ġl og
v ae
ĠC an
ĠM IS
Ġreef s
Ġcool ing
Ġtest s
Ġpl ace
Ġs ide
w ith
Ġus ually
Ġint ensity
Ġt end
ace ae
Ġmean s
Ġcomp r
Ġconf ir
Ġ8 0
ĠWh ile
Ġact ive
er c
Ġtrans f
Ġv ers
Ġco upl
Ġs w
8 0
Ġc yst
ĠR ec
Ġpat h
ect ive
Ġe ff
Ġn ann
Ġr anges
and s
ĠMid dle
T h
Ġp H
Ġf ive
ĠPl iocene
Ġcomb ined
or gan
ak ing
Ġseem s
at s
Ġref erence
Ġp ass
Ġcor als
Ġcyc l
ar se
Ġj ust
Ġbod y
Ġ4 5
ĠFurther more
Ġlik e
Ġrel i
Ġsubst ant
ĠP h
Ġedd y
Ġt ect
ult s
an ian
Ġnot ed
Ġf in
ate au
a i
Ġdischar ge
Ġmult iple
ĠA b
le ction
oc line
Ġinter nal
et hy
Ġbacter ial
E O
Ġabs ence
Ġdis pers
ple ment
ĠT ri
viron mental
Ġmicrob ial
Ġprof ile
Ġdeg ree
Ġd ens
r im
ren g
Ġp elagic
Ġrequ ire
Ġlow est
em b
Ġcon serv
Ġ "
Ġsh if
Ġa x
et y
ĠP re
t t
on al
Ġc ertain
Ġshell s
Ġact ivities
Ġlo ad
Ġl amin
Ġl akes
c o
Ġk ey
Ġw aves
Ġf it
Ġexpl ain
Ġse e
Ġis ol
ch i
Ġmost ly
u ven
Ġf ix
od el
Ġn ow
as h
lik e
Ġpreserv ation
1 7
ĠP o
Ġwind s
or a
ĠB ec
ul ate
s on
ĠD es
Ġtra ce
Ġst reng
or ies
m it
Ġresult ed
Ġsp p
Ġd om
w estern
Ġb ul
I n
Ġpale o
Ġar ch
Ġf ree
oge ography
Ġcont ain
Ġcr u
Ġtyp ically
Ġ )
Ġprog ram
ĠP ar
ĠS ince
Ġo st
Ġch annel
Ġs usp
Ġassum ed
as ter
Ġlar vae
Ġearl ier
Ġlong er
ing u
Ġ3 3
Ġcr ust
Ġalg ae
ov ered
Ġbas al
Ġbi ot
t ical
Ġd en
Ġlarg est
id ity
erm ian
Ġhal f
ĠGre en
Ġpl ot
Ġanomal ies
um p
ort un
Ġdec ad
over y
ĠL ower
Ġshow ing
Ġexpl ained
r ass
Ġrequ ired
Ġ3 2
Ġh om
Ġ7 0
at ter
ĠF in
ĠP er
Ġelev ation
Ġsur f
Ġc ause
ĠEurop e
Ġsat ellite
ox ic
Ġ3 4
Ġz ooplankton
ĠS uch
Ġdet ected
Ġmo ist
Ġreg ression
ĠGl ob
am b
id ae
g rap
Ġs em
Ġill ustr
Ġf av
h al
Ġpl atform
Ġestabl ished
Ġknow ledge
Ġpl ants
Ġ iron
Ġsupport ed
ĠOn e
ra it
Ġglac iers
ra y
Ġc ost
ag ing
Ġproport ion
ere nces
ater n
Ġexamin ed
ĠS ch
Ġinflu enced
Ġch ron
Ġext ract
Ġb athy
Ġcomb ination
fl ow
it ical
os c
Ġro ck
od es
ĠL a
d en
D P
er o
ĠN ort
Ġbec ome
Ġagre ement
rad ation
em ents
ot al
ĠDe ep
ĠF rom
E R
Ġsuccess ion
Ġexp osed
Ġinvestig ated
u ly
Ġwe ather
Ġinter mediate
ym b
Ġde vi
Ġb ene
ĠM ost
Ġext inction
ĠUp per
Ġt rophic
Ġn ature
Ġo l
Ġexp os
Ġw ay
ĠA cc
Ġ her
Ġ9 0
Ġint ens
Ġv ia
ig er
ĠBec ause
ac ent
k a
iz es
Ġbehavi or
th rop
Ġcalc ite
v ing
st ones
ĠFig ure
Ġmonit oring
ic ity
im es
om es
av ing
Ġcol l
Ġinclud es
el et
ĠE ocene
Ġpercent age
Ġ ut
atern ary
Ġsur round
oc ks
ug ust
Ġlarg ely
Ġextrem e
il ib
Ġeff ort
Ġre view
Ġcomple te
f ish
Ġan other
Ġreveal ed
ĠG u
Ġ5 00
Ġpred omin
an a
hel ess
Ġis s
Ġp olar
Ġg as
Ġj uven
ĠS ome
ĠB oth
Ġsur v
Ġre port
Ġm ount
br is
Ġcommon ly
ĠEurop ean
l ight
Ġs olution
Ġfluctu ations
Ġev apor
ast s
Ġex ceed
Ġw ar
Ġcond ition
z ing
Ġlat itudes
Ġtherm al
ĠS E
Ġd ark
ist ry
ef ul
Ġint ro
Ġ 00
Ġgen us
2 2
Ġb ival
iss ion
ar th
d e
Ġcomp osed
Ġar g
Ġcon struct
of ossil
Ġpossib ly
Ġus eful
Ġagg reg
it al
Ġda ily
Ġp hen
Ġpartic le
Ġhypot hesis
pr il
ul es
Ġal t
Ġin ver
Ġassess ment
Ġrestric ted
y ear
Ġinc or
Ġso ft
ol ari
Ġphot osynt
aun al
ĠMore over
t es
ann ual
ĠIn ter
Ġsim ulation
Ġmass es
o ber
Ġm ill
Ġdemonstr ated
Ġdiff us
v ant
Ġre act
id ation
Ġro cks
Ġpro xy
Ġbul k
Ġt ide
Ġex ch
Ġlink ed
Ġmet ab
C E
Ġfisher ies
ont in
Ġproble m
Ġadj acent
Ġbe gin
m in
d ed
ĠJ an
Ġinteract ions
ĠC entral
Ġstatist ical
Ġdocument ed
Ġmechan isms
ĠN o
ĠA fter
ĠJ une
Ġvolcan ic
t ake
er ate
Ġ3 00
e ad
Ġre ached
id a
Ġpubl ished
Ġcon ver
at ology
Ġcompar able
Ġsc ient
Ġfaun al
lud ed
Ġcent ury
Ġatmosp here
ĠP ermian
ri x
7 0
Ġtax onomic
Ġpl ay
ept ember
Ġde bris
read y
ure d
Ġprim arily
ĠW hen
Ġdecreas ing
Ġlab oratory
n e
ĠAmer ica
Ġf inal
et er
Ġbi oge
ĠB i
Ġhydro log
Ġres id
s pec
ri um
du cing
Ġbi o
Ġdecreas es
b s
Ġost rac
ĠA ugust
ic es
Ġs ulf
Ġr anging
e or
m e
Ġ1 000
Ġindic ators
Ġrem ov
ĠAfric a
p ro
Ġp ur
ill ed
ĠS pec
ib ility
Ġsh ape
R E
g round
Ġinc ub
ab il
C a
Ġpr inc
Ġcorre ct
Ġan t
Ġu pl
Ġbl ack
Ġever y
Ġup take
Ġrec ently
Ġfaun as
Ġal ready
Ġy oun
Ġdec line
en ing
2 3
ĠQu aternary
Ġsc hem
ĠMar ch
ĠCh l
ar get
Ġhel p
ri er
Ġm ot
om m
Ġpro ced
iqu es
form ation
LA EO
ri ent
Ġmonth ly
Ġtra ck
Ġ3 6
c ence
i res
ĠTri assic
ĠR eg
g l
Ġs yn
Ġocean s
ĠD ep
Ġo w
Ġcharacterist ic
ar a
ĠAs s
0 3
Ġconsist s
Ġmoist ure
Ġwh o
Ġbur row
Ġd uration
Ġsim ple
ĠSt rait
ĠPA LAEO
em per
Ġrel ation
ĠA pril
Ġdispl ay
Ġwh at
Ġcontroll ed
ĠN ov
Ġequ ation
ostr atigraphic
Ġagain st
Ġc y
s er
sc ill
Ġr ivers
Ġmet han
Ġincor por
Ġm ang
ra w
Ġpro duce
elt a
hem istry
out h
aly n
b b
ane ous
2 1
Ġbe ach
ew ork
ad a
Ġflow s
Ġdin oflagell
os itions
ic o
Ġgre en
Ġsp aw
Ġvari ance
Ġto ward
Ġpredic ted
Ġlat itude
ol ation
Ġuncertain ty
Ġattribut ed
Ġorigin al
Ġv ir
Ġstr ateg
Ġ %
Ġelev ated
Ġrem ain
ĠA c
l ow
ĠC ol
Ġdatas et
Ġsp ace
Ġab le
Ġrun off
ĠS A
Ġt rad
t idal
cul ar
u ous
ĠH igh
Ġm ort
Ġsim ulated
ĠP en
Ġequator ial
o ides
Ġdist urb
ĠAcc ording
Ġdist ingu
ĠIn st
ra ction
ĠBas ed
vi er
Ġcorrespond s
0 2
Ġmic rosc
Ġb o
Ġ #
Ġmin or
Ġextens ive
er os
Ġep is
Ġcur ve
ĠS he
Ġreconstruct ion
Ġs ix
Ġex port
Ġinf erred
Ġtrans ect
ir ation
Ġsubsequ ent
ap an
Ġst ream
Ġsal t
Ġnit rate
ĠGreen land
ĠS eptember
Ġf ore
Ġbre ak
radi ents
Ġe gg
row n
rough t
Ġres erv
ĠJ uly
e qu
Ġan g
Ġnecess ary
ĠAustral ia
Ġv e
Ġl iter
ĠE arth
ĠM S
Ġpeak s
if orn
Ġgen era
al g
ress ive
Ġsubt ropical
b ack
Ġsu per
ĠN O
s l
ound s
he astern
amet er
ĠN or
Ġmain t
ant ly
Ġdens ities
ĠV al
Ġdi agen
Ġ ess
Ġgr ass
Ġg radients
Ġc ateg
Ġnann ofossil
se ud
Ġconc lus
ĠH ere
aun a
Ġconst rain
Ġ15 0
Ġout c
Ġcorrel ations
Ġcr itical
Ġd am
Ġneed ed
g ence
Ġm ake
ĠO ther
Ġtreat ment
br uary
Ġt arget
Ġresour ces
Ġc at
Ġlater al
Ġfossil s
I I
% .
Ġcont ains
Ġobserv ation
Ġstrat ification
os ite
Ġ201 7
is k
Ġvari ed
il ation
ĠJan uary
ĠO ct
Ġrespons es
Ġnear ly
Ġ rough
ĠW est
ber g
Ġs ink
s p
Ġoccur ring
olog ies
re at
Ġcov ered
Ġturb ul
Ġco arse
Ġo v
Ġconc ern
Ġcoupl ed
Ġadap t
s ide
Ġmig ration
Ġdeposition al
ar row
Ġsu fficient
Ġm uss
r upt
Ġas p
ĠCal iforn
Ġf ull
oec ology
yp e
Ġest uary
ĠJ apan
: /
Ġdi et
Ġpers ist
Ġf ac
ĠAd d
Ġy et
ce m
Ġsensit ivity
Ġl ed
ĠN E
Ġl ines
d r
Ġcoe fficient
Ġalg al
Ġscenari o
S O
Ġto o
Ġg o
Ġdet rit
Ġequ ilib
Ġdistribut ed
w ise
ĠB a
ĠD i
g ian
Ġequ ival
Ġim plic
k n
at um
Ġup on
Ġt ree
Ġch am
ins ula
Ġlead ing
I P
Ġwar mer
Ġexhib it
Ġmult i
u el
ac y
resh old
all ed
Ġexpos ure
Ġde ploy
al ing
Ġk yr
Ġinter glacial
yc l
Ġ3 7
ie ved
Ġgener ated
Ġliter ature
ĠCaliforn ia
Ġfield s
Ġreg ime
Ġsil t
Ġsk elet
ĠB y
Ġpotential ly
om orph
ic ation
ever t
evert heless
Ġed ge
iz ing
Ġgrain s
Ġamount s
b o
im als
ell ing
Ġan throp
r ies
Ġhist or
Ġcont ents
m arine
Ġmat rix
Ġpl ank
anc y
Ġfrag ments
Ġtransf er
Ġd ate
Ġbi ogenic
Ġdec l
Ġ3 8
r ust
iffiff iffiff
ĠE c
ol ute
Ġf und
Ġcont ext
Ġ ]
ĠFe bruary
z e
Ġset s
Ġmagn etic
Ġe as
Ġob ject
ĠC R
Ġw ood
Ġmorph ology
g o
ĠC en
Ġal ter
Ġadd ed
Ġtect onic
Ġev ident
Ġth reshold
Ġre ad
Ġmorph ological
Ġin ner
Ġm ole
over n
Ġo il
Ġon set
Ġ >
Ġess ential
Ġt ub
Ġappro aches
Ġ7 5
Ġclus ter
Ġstreng th
Ġbegin ning
Ġam mon
Ġbi od
Ġrapid ly
ĠI m
:/ /
ot rop
ĠNort hern
Ġh tt
u le
Ġexch ange
st ream
ivid ed
ĠA D
ĠO ver
Ġsepar ated
Ġrecogn ized
Ġv ent
er id
Ġd ig
Ġexperiment al
Ġfe ature
od ont
y a
il arly
he tic
ĠOct ober
Ġaver aged
Ġf am
Ġsp read
Ġtop ography
pl ies
Ġrec overy
ens ion
Ġmechan ism
s ing
Ġmodel ing
Ġabs or
g ing
1 00
Ġp en
Ġ5 5
Ġfo res
Ġs ust
ĠPl ateau
Ġim ages
Ġph ases
ari a
ann ing
Ġ ic
Ġan imals
ĠPalae oclim
Ġcont aining
Ġfl at
Ġsl ow
Ġh ard
C P
w as
Ġcop ep
ĠAdd ition
g ins
Ġt ri
Ġind ependent
2 6
o on
Ġa ch
2 4
Ġocc up
Ġconserv ation
Ġmort ality
ag rass
Ġsu it
Ġtechn iques
c al
op es
ob acter
ĠH e
il i
Ġd ating
Ġout er
Ġmang ro
Ġampl itude
rop ri
3 1
all el
Ġsurf aces
Ġut il
nd om
in ated
Ġparticul ate
Ġwid ely
Ġcon cept
j ected
ĠC T
isp here
Ġpro te
ĠFin ally
Ġsurve ys
ism ic
s he
ĠC ar
ĠM e
ĠT wo
Ġfram ework
Ġscenari os
al k
Ġ ide
Ġd ates
Ġdet ect
ĠBal tic
op y
Ġt iss
Ġfollow s
Ġp alyn
Ġphys i
Ġradi ation
Ġcol lection
ĠPalae ogeography
Ġg y
Ġsensit ive
cem ber
Ġmod e
Ġdiver se
kn own
ĠR ed
Ġexp ans
ograph ical
Ġshif ts
Ġ9 5
Ġassoci ation
fl oor
ĠG roup
Ġp CO
Ġestabl ish
Ġrespons ible
Ġm amm
it ute
Ġcarbon ates
Ġcap ture
Ġo lig
Ġhe m
Ġqu ite
Ġbel ong
m al
Ġerr ors
ut ions
ĠNov ember
r um
Ġsurround ing
itud inal
k e
Ġclos ely
R A
Ġcan y
j ord
Ġ *
al og
Ġdi ameter
Ġradi olari
Ġn arrow
Ġallow s
ĠS P
d ep
Ġindic es
Ġanthrop ogenic
Ġremov ed
olog ic
organ ic
Ġa im
Ġb ore
lig ocene
t les
Ġgrow ing
Ġra ndom
A s
Ġcalib ration
ont ology
Ġrec ru
Ġunder lying
l at
ĠA nd
ĠD ata
Ġnumer ical
Ġin str
is ation
Ġdes ign
Ġdr iven
Ġp ower
or ith
ul ly
S C
Ġh aving
ĠA R
f or
Ġdecad es
Ġe lect
Ġp ack
Ġtrans g
Ġcont amin
Ġcon v
Ġbound aries
Ġr ight
Ġtemper ate
ap h
Ġplank tic
Ġcap ac
Ġcharacter ised
Ġse agrass
o ids
Ġch anging
Ġ3 1
Ġf em
Ġinteg rated
Ġh ost
r as
ĠC H
g est
Ġs erv
i ated
Ġal ways
ĠM g
Ġ19 6
Ġindic ator
S W
ea red
Ġdomin ance
Ġs om
ĠL ab
Ġ rad
Ġdeg radation
Ġp ig
Ġtim ing
ĠS ediment
Ġcomp are
Ġp ore
oc yst
Ġport ion
Ġtrans ported
Ġs qu
A T
ĠĠ ĠĠ
Ġnumer ous
Ġequival ent
Ġspaw ning
Ġl ip
es is
Ġquest ion
ĠW estern
Ġth ird
Ġstr ata
Ġm oll
r us
Ġg u
ro c
Ġexpl an
Ġreconstruct ions
ĠP T
otyp es
ro b
ĠS i
ĠBl ack
spec ific
ĠPen insula
2 7
ic an
Ġproduct s
rop ale
Ġabs olute
Ġapp ropri
Ġadd ress
Ġobt ain
Ġ q
ill ing
Ġquant itative
Ġfil ter
Ġother s
ire ct
or al
ĠUS A
Ġse as
Ġar t
ĠDe cember
Ġt w
Ġre duce
Ġe mer
w are
Ġ199 0
Ġexp ressed
Ġsem i
ĠA g
Ġsand y
s al
Ġm elt
Ġpoor ly
s urface
Ġ4 8
Ġ &
Ġrem aining
Ġident ification
Ġopp ortun
ĠS m
i ences
ĠB ra
Ġhigh light
Ġb ran
om en
Ġlimest one
Ġpercent ages
Ġch all
O N
se vier
Ġd rop
ĠD OC
ĠG en
Ġax is
Ġto day
Ġdom ain
Ġcomput ed
un g
Ġinter tidal
Ġcontribut e
ĠN P
enc ies
Ġnorth ward
in us
aly sis
Ġol der
Ġpalae o
Ġresp ond
Ġrem ained
Ġvari ety
ĠN evertheless
Ġalg orith
ol ian
ichn ess
Ġabs ent
Ġlar val
Ġflu vial
Ġre pl
Ġanalys ed
Ġinteract ion
ores cence
ri ption
op od
im en
b ust
Ġs izes
Ġrec overed
ĠG erm
Ġwid th
Ġp p
ian ce
Ġsignific ance
a er
A M
em por
ĠS T
Ġst ri
Ġsubstant ial
w here
Ġfl o
Ġexpans ion
sequ ently
Ġrele vant
Ġtra w
3 5
Ġbloom s
oun ced
9 8
in ary
Ġgen etic
Ġ '
Ġconsider able
Ġh a
Ġsil ica
Ġrepresent ing
Ġinput s
Ġsubstr ate
Ġto x
ĠM P
l o
ous e
Ġtest ed
Ġequilib rium
Ġseason s
ĠO M
Ġr ichness
ĠN ational
Ġdynam ic
er ation
Ġcol lect
Ġam b
l s
Ġ ult
ud get
Ġmagn et
Ġeffect ive
Ġ201 6
a et
Ġin organic
G M
O S
Ġw all
ant h
Ġim plement
Ġd ated
Ġmed ium
ĠSam ples
Ġsetting s
r at
Ġ4 00
2 8
im et
Ġo rient
ĠM et
en ous
ĠB e
Ġisol ated
l ess
Ġpre v
os en
i ra
Ġret urn
Ġupl ift
Ġpo ol
Ġv aries
Ġbathy met
ĠS ection
Ġcomp et
Ġhe nce
Ġupper most
in ian
te br
I N
Ġmethan e
E D
Ġmajor ity
Ġtherm ocline
Ġadj ust
ĠS al
ĠJ ur
p read
Ġsh ip
ĠE N
Ġedd ies
Ġcapac ity
Ġpr on
Ġab ility
Ġcontribut ed
Ġpe at
Ġinv olved
% ,
ides pread
Ġd rain
Ġfunction al
Ġl ist
Ġstrong er
Ġf ully
Ġhydro grap
Ġpl aced
Ġpron ounced
Ġge ochemical
Ġr anged
Ġestu arine
em bers
ĠS r
tern al
Ġav oid
Ġsh arp
Ġcir c
Ġz ero
Ġbu oy
Ġsubs urface
ĠC ent
ric hed
9 5
ĠOn ly
Ġbec ame
Ġ ^
ĠD NA
Ġl ac
our nal
ĠM ount
Ġc ut
Ġre ce
Ġis land
Ġdis app
Ġveloc ities
ank s
Ġpl an
Ġacc ess
Ġbene f
Ġdat ab
v ere
is ons
Ġse ismic
4 5
ustr ine
p os
Ġexcept ion
Ġinv ol
em pt
ĠP S
Ġhtt p
Ġextrem ely
ie ve
of acies
Ġbi as
Ġrele ase
ĠS W
ĠI nt
h at
Ġvary ing
I G
Ġpro x
um b
Ġpar allel
o ir
Ġge ological
Ġo scill
Ġtax on
Ġprop ag
Ġext ended
Ġcr iter
Ġbehavi our
ever al
Ġd raw
Ġfores ts
i ous
Ġis lands
ĠIs lands
Ġsub ject
Ġpl astic
Ġper t
Ġ200 3
Ġv ess
ĠAl so
Ġanom aly
Ġappropri ate
or ous
Ġsea floor
f ossil
c er
Ġb udget
Ġbiod iversity
Ġmeasure ment
Ġt ake
Ġ <
C C
emper ature
Ġset t
A S
en vironmental
ĠC E
3 7
Ġgra zing
o ud
Ġsoil s
ord er
e v
Ġl ive
Ġshe ar
Ġen rich
Ġa ff
res olution
ĠP hy
Ġe ffici
Ġs ymb
ĠDes pite
Ġ199 8
Ġclass es
ĠF ran
Ġo ys
Ġdevi ation
omet ric
Ġallow ed
Ġm ap
Ġcru ise
agn etic
Ġsecond ary
Ġcyst s
Ġout side
Ġsm o
ol es
Ġout put
Ġw idespread
Ġsimilar ity
Ġequ al
ĠR idge
in ate
Ġover lying
Ġro bust
Ġper m
le ts
Ġmet eor
Ġ200 2
g ent
Ġb r
Ġshe et
Ġdepend ent
ĠB ar
Ġrepresent ative
w ide
en ed
Ġevalu ate
Ġbu ild
ogene ous
Ġt a
Ġpl ume
w ere
Ġst ock
Ġinvestig ate
rel ated
Ġfix ed
Ġp olic
Ġaut umn
g rained
re p
medi ately
9 9
ĠN W
Ġ201 0
it r
ĠE st
otyp e
Ġconn ect
enc ing
D W
Ġisotop es
Ġo ld
Ġadv ection
S ea
ĠA rab
Ġm ention
ent h
oc arbon
Ġpro xim
ĠH ence
Ġapplic ation
Ġproced ure
Ġfac il
ropale ontology
Ġnot e
Ġ6 5
ffici ents
Ġback ground
Ġen ough
Ġstat us
O P
Ġexc urs
Ġmeas ures
Ġcomple t
3 4
ĠT OC
ĠO ligocene
Ġaccur acy
Ġg overn
T M
Ġass igned
I A
Ġle ft
Ġdes pite
Ġar ticle
Ġcur ves
imens ional
Ġform er
Ġinter annual
Ġprovid ing
Ġprox ies
ar v
ĠPalae oecology
A P
b e
Ġm g
ĠI ce
m a
ĠEl sevier
ip al
c arbon
us cept
ult ure
Ġreflect s
Ġint ense
av y
du ces
ic ul
Ġse g
Ġconsum ption
E M
a vel
Ġb ox
ĠAs ia
Ġatt empt
Ġimplic ations
Ġdispers al
Ġn am
Ġd il
Ġtreat ments
ell ow
Ġsepar ate
ĠGl obal
Ġcoe fficients
Ġbec omes
ethy s
Ġrequ ires
Ġm aps
Ġd one
Ġ4 6
Ġauth or
ĠC arbon
Ġweather ing
Ġspec imen
Ġch osen
Ġre aches
Ġsl opes
Ġun iform
up h
ĠL ag
Ġse vere
erest im
Ġd ol
Ġst ability
Ġrep e
ĠR oss
ĠZ e
Ġfind ings
Ġass im
Ġstr atigraphy
Ġ5 4
Ġse ep
Ġgra v
es ter
Ġd ivided
Ġspec ial
Ġdef in
Ġsuit able
Ġsuccess ful
Ġlead s
Ġcaus es
Ġreach ing
Ġconsequ ence
Ġcomp ounds
ut rophic
osp here
Ġgl ob
Ġsom ew
Ġem ploy
o cean
ap rop
Ġmov ement
Ġhistor ical
Ġtechn ique
O D
Ġch anged
Ġbra chi
ĠUn it
ĠT rans
ĠR h
ĠJur assic
p o
Ġob vious
ĠPalaeoclim atology
Ġ ion
Ġtre es
Ġdescrib e
m ar
Ġrecru it
Ġan oxic
Ġdi erent
Ġevapor ation
Ġs uscept
Ġfa ult
Ġshallow er
c l
ĠH em
Ġexist ing
Ġac cept
Ġab rupt
ĠU sing
Ġextract ed
Ġele ment
Ġsign ic
ĠE qu
ĠM on
Ġtr ue
ĠS everal
Ġjuven ile
ĠAntarctic a
Ġset tle
Ġ4 4
Ġcont ained
Ġspect ral
Ġmod erate
c el
op ods
Ġassum ption
Ġr ich
ri e
Ġfrequ ently
Ġhydrolog ical
Ġinf low
Ġd rought
Ġsign als
at ically
form ed
Ġor d
Ġ3 9
ĠM AR
ĠSt ation
Ġcover age
Ġlocal ities
Ġan tic
Ġsect or
ynam ic
Ġim mediately
Ġreserv oir
art ment
ĠF irst
le x
Ġ5 3
Ġdiff er
Ġphen omen
Ġdepend ing
Ġre plic
i j
Ġse ab
Ġind uced
ep h
ĠCo ast
Ġreli able
oc ial
Ġthough t
it ive
r uct
Ġcr yst
Ġshe l
Ġn ext
Ġspect ra
Ġinst ance
O V
2 9
ĠM c
os ter
ch in
Ġec onomic
Ġuncertain ties
le ted
Ġcount ed
Ġt ext
h aps
Ġt ur
Ġstatist ically
et h
ĠC C
Ġindic ative
m ing
ro st
ret e
Ġ201 4
Ġprob ability
Ġwe e
Ġg ive
Ġst ocks
Ġbival ves
Ġfrag ment
Ġnorth west
Ġprev ail
Ġcomplet ely
Ġmangro ve
um es
Ġbe y
ĠP OC
ill s
Ġ199 7
Ġbey ond
Ġolig otrophic
3 3
Ġ199 9
L E
] .
Ġeffici ency
Ġproble ms
Ġon es
Ġter ra
as c
oc y
Ġinter n
Ġn m
Ġim plies
Ġun known
ut h
Ġ4 7
ify ing
Ġsu p
ast rop
s ical
P S
Ġr isk
A l
Ġex cess
m m
Ġch o
Ġpart ly
Ġexper i
ĠM D
Ġscient ific
Ġschem e
us h
Ġmineral s
Ġocean ographic
Ġexam ine
el f
ĠL GM
Ġdet ection
ĠP R
Ġad ult
Ġan alog
Ġmax ima
Ġnort heast
ĠS w
Ġd elta
Ġex ternal
Ġal k
bed ded
il t
Ġflu orescence
Ġto ler
Ġresp iration
Ġs omet
Ġher b
ann els
Ġresid ual
ĠRec ent
ĠP art
Ġcontribut ions
Ġre work
ri an
ĠS o
W e
m ic
ib er
Ġpale os
ĠSim ilar
Ġcl oud
Ġec ology
ph as
app ing
Ġun ique
Ġcompar isons
Ġ200 5
Ġcalcul ate
Ġreconstruct ed
t ian
ĠM ont
Ġge ographic
ĠI N
Ġinver tebr
vers ion
ĠPl an
Ġsomew hat
p ir
our s
Ġs ynt
Ġk g
al th
Ġe utrophic
ĠD S
Ġcurrent ly
ĠAn other
Ġac qu
Ġb one
om er
Ġdatab ase
der ived
ĠM odel
ĠH y
Ġste ad
Ġmole cular
A N
Ġor b
ĠIn c
Ġs aprop
Ġins ight
Ġacc el
Ġb and
ĠM od
Ġ200 9
Ġfil tered
Ġequ ations
Ġfun ctions
ad i
ĠG lac
art z
Ġvis ible
ĠM es
Ġref lected
Ġlim its
Ġfocus ed
ĠE ach
ĠE astern
Ġinter face
Ġro t
Ġsouth ward
Ġdepend s
Ġenrich ment
Ġ201 8
Ġground water
Ġ200 1
ĠE v
Ġmar gins
Ġoutc rop
Ġde ad
Ġcoccolith oph
Ġn od
Ġ5 6
Ġm embers
Ġ200 4
Ġ201 5
Ġsusp ended
Ġan c
Ġ2 50
r id
Ġaccur ate
Ġtr ig
it ut
ĠCon sequently
Ġfrequ ent
Ġconsider ing
o val
ch ron
u f
or age
ĠA pp
Ġcont act
Ġmention ed
ĠP ort
Ġacc omp
Ġfeed back
Ġste ep
at ur
ĠM ex
Ġocc as
lud e
obacter ia
Ġst ra
ĠM n
ies t
Ġmod ified
ostr atigraphy
or ation
ec h
Ġphosph ate
Ġhy d
urb ation
ic ian
ach ing
ĠK u
Ġag ric
Ġdesc ription
Ġeas ily
S S
Ġmargin al
alg ae
an ced
rig enous
in i
Ġlimest ones
0 1
c he
Ġval id
Ġlac ustrine
Ġrecruit ment
l it
Ġpossib ility
Ġim age
ĠM ember
ace ment
Ġmar sh
Ġm outh
Ġinvestig ation
Ġphy l
Ġsust ain
ino ides
Ġmass ive
Ġs ocial
Ġact ual
Ġconfir med
ĠA M
us e
usc ript
z ed
line ar
Ġ200 7
Ġfra ctions
hen s
Ġappear ance
Ġperform ance
Ġhoriz on
Ġst ored
ist ance
in ent
Ġhoriz ons
Ġar id
Ġexp and
Ġdi ag
Ġimpro ve
h ance
Ġe uph
ĠL ar
ĠAddition ally
U RE
ĠB el
lat itude
al and
Ġto w
z one
ĠU nd
Ġm aking
Ġland sc
Ġt i
b re
ĠAmer ican
ĠMic ropaleontology
Ġbur ial
ver se
Ġhe ad
Ġval ley
Ġassess ed
Ġconsider ably
ĠSim ilarly
ĠCan ada
Ġch annels
Ġin h
an es
Ġman uscript
t ime
Ġ200 8
Ġcalcul ations
Ġaqu atic
d omin
9 6
Ġquest ions
or g
Ġloc ally
re c
Ġ4 3
Ġpen et
on form
ĠGlob iger
ro l
Ġp el
Ġ19 5
Ġhe avy
ĠSc ot
ub le
Ġextens ion
Ġv ul
Ġimpro ved
Ġestim ation
id ed
ĠL im
Ġd u
Ġref erred
Ġem phas
c ast
ast rich
ĠEN SO
Ġabsor ption
l ay
ĠE D
Ġpre vent
Ġestu aries
ĠC ari
ĠAfric an
Ġhypot hes
Ġd ense
Ġon to
Ġspect rum
osc ale
ind uced
Ġsitu ation
Ġsink ing
Ġen hance
ap ed
ĠM ean
Ġasp ects
Ġiss ues
ĠCh annel
Ġa way
Ġ201 1
Ġoccurre nces
Ġen s
Ġlat est
Ġst orage
in n
ĠArab ian
el i
an o
Ġdr ift
Ġfacil it
Ġter rigenous
s el
Ġapp eared
ĠCom par
Ġrough ly
Ġp ul
on n
Ġsouth west
ĠN ote
ĠD ue
Ġtrap s
Ġp ed
Ġto ol
ĠAs ian
Ġ198 0
Ġamb ient
ĠS ystem
ther mal
ition al
Ġw avel
g al
Ġm el
ĠO b
Ġfis hes
ĠCl imate
Ġdiscuss ion
Ġins ide
4 4
i otic
Ġfl oor
A r
Ġr s
op sis
ĠV ari
Ġheter otrophic
ress ions
Ġradi ocarbon
Ġforaminif ers
Ġphysi ological
ot tom
astrich tian
Ġthe ory
Ġg ene
Ġinter ior
ĠE q
Ġnet work
Ġs oci
if ically
Ġcompar ing
I R
Ġcomm erc
ch ing
duct ive
Ġo t
ĠP E
her s
d y
Ġox idation
Ġyoun ger
t a
ax imum
Ġpredomin antly
in ities
Ġsh ales
Ġdatas ets
c hed
Ġind ust
Ġrem oval
Ġpa ir
Ġass ume
- -
Ġf ail
ĠCen ozoic
ic it
Ġcolon ies
Ġcatch ment
ig en
am a
Ġprog ress
ĠThe ir
omet ry
Ġadv ant
Ġbioge ochemical
Ġplot ted
ĠSt ud
ĠA p
k i
l ation
Ġdemonstr ate
i pl
Ġclass ification
ĠG iven
Ġm iss
Ġc he
Ġ4 1
Ġmount ain
Ġl y
ĠM any
4 8
ĠF IG
7 5
Ġlo ess
Ġdiagen etic
Ġsal ine
Ġcontrol s
ĠO f
Ġvers us
Ġen riched
Ġcalcul ation
Ġle af
Ġcany on
Ġ12 0
ĠD r
ox ia
a ut
Ġdr if
am s
Ġconf idence
Ġ200 6
Ġde v
rom at
Ġre vers
Ġz onal
Ġrem ote
Ġco ur
Ġtimes c
ĠOr d
ĠMex ico
C l
Ġsurv ival
Ġn est
ad r
ĠM al
Ġsoft ware
Ġfisher y
ogen etic
Ġgener ation
Ġcount s
ĠFIG URE
Ġsumm ari
Ġm or
Ġf ig
hy d
Ġcorre ction
Ġre v
Ġexpl o
a era
Ġd est
ult aneous
Ġs olar
Ġlim itation
Ġexperi enced
Ġinst ead
Ġexc lus
Ġdinoflagell ate
ĠP r
Ġsel ection
Ġcalib rated
Ġshore line
Ġel se
Ġear th
Ġt s
Ġinvestig ations
I M
il le
Ġtiss ue
ĠC ont
ĠCT D
Ġr idge
Ġch l
emb le
Ġcy an
atigrap h
h s
Ġd ivers
Ġyield ed
Ġsand stone
it ing
od inium
Ġphotosynt hetic
Ġm oor
Ġper haps
Ġst ates
Ġ5 8
Ġpl ots
Ġresour ce
a ir
Ġret reat
Ġsitu ated
or us
el e
Ġexplan ation
pp ed
Ġpl ate
Ġneed s
u ber
Ġcalc ification
ĠC omp
Ġaltern ative
Ġexist ence
ul ating
Ġwh ose
Ġmig r
Ġc od
Ġem pir
Ġpat ch
3 6
on ia
ĠS up
ĠO DP
z en
he rent
um ents
Ġregard ing
3 2
at ives
pp ing
Ġp ract
Ġchall eng
ĠL o
olith s
ĠS O
Ġprinc ipal
A B
Ġflu id
g ram
Ġmetab olic
Ġdrain age
Ġan imal
Ġconcentr ated
os m
Ġpred ators
or p
ifer ous
Ġsomet imes
ĠI ber
c ol
Ġ4 2
Ġbra ck
Ġdiag ram
Ġmaterial s
Ġmod elling
Ġtrans ects
8 6
Ġto ok
ov ician
Ġstrateg ies
op ic
in ations
as k
Ġa e
Ġstruct ural
Ġgreat ly
ous tic
3 9
Ġlag oon
Ġdetail s
Ġcon odont
Ġsc atter
ĠHem isphere
ĠEn vironmental
ĠC D
Ġprom inent
Ġdisturb ance
am ount
oc occ
Ġqu artz
Ġh i
am ent
Ġg astrop
ĠB et
ĠM L
ĠWith in
uc le
ĠL ow
Ġg ives
Ġrepe ated
ear ing
Ġnorth western
Ġconc luded
Ġ id
Ġdistingu ish
ĠM or
ĠT ur
Ġup ward
Ġmet al
on ite
Ġgrad ual
f auna
Ġm akes
Th is
omet er
Ġmetab ol
o rest
ĠI R
Ġc rab
ell ed
ĠD et
ĠInst itute
Ġcontinu ed
Ġcriter ia
c ore
Ġin gest
Ġg rap
Ġk in
Ġgre y
Ġn i
Ġ8 7
Ġco ord
Ġgra vel
ĠCa CO
bb ean
ul ina
Ġcol or
ot es
l ong
ĠC amp
Ġspect rom
ĠS M
Ġmuss el
ĠS u
ĠC u
ĠE ven
ĠD iff
Ġk e
Ġbl ue
ĠE m
u ed
un ter
ĠMa astrichtian
Ġ8 5
Ġ199 6
Ġevalu ated
Ġc hem
ĠC ons
Ġrepro duction
Ġmicrosc ope
Ġradiolari an
ĠC F
ĠZe aland
Ġ199 5
Ġintro duced
Ġdomin ate
Ġ201 2
Ġgy re
Ġconn ected
Ġcopep ods
Ġf arm
Ġdes ert
Ġvers ion
Ġim m
du c
Ġexp ression
Ġc e
ĠM in
lik ely
ĠS er
Ġir reg
Ġpubl ic
Ġb rown
ri ef
Ġsh ale
ul ative
ow s
Ġstorm s
ird s
i ol
ĠB ut
ĠB io
ĠDep artment
Ġvis ual
Ġre ducing
Ġe ight
Ġcent er
ĠC ore
Ġpred ation
ĠS ur
Ġcomplex ity
Ġ ichn
Ġsout heast
os ity
ĠInd eed
Ġcomp ositions
ĠCh anges
Ġsett ling
ĠT otal
we gian
ĠF lor
Ġtop ographic
Ġprocess ing
Ġstrat ified
Ġlamin ated
e in
Ġun likely
ast ics
Ġcour se
Ġallow ing
Ġd ram
Ġmill ion
Ġd iv
Ġp ump
Ġapparent ly
Ġcru ises
Ġsol utions
Ġqu al
CE P
Ġiss ue
t ype
c m
ĠP olar
Ġincub ation
ac c
Ġsmo oth
Ġsim ultaneous
Ġ6 3
Ġse ven
Ġle aves
t ion
Ġsh r
Ġstead y
Ġex act
ific ations
d own
Ġgrad ually
Ġpredict ions
om ic
Ġrele ased
ing ly
ĠR ep
Ġpres um
ĠB r
Ġdec omp
Ġf ast
Ġdec ay
Ġsubs idence
ĠS an
Ġmin im
ĠInd ia
Ġvul ner
Ġad op
ĠAl b
ĠB ering
ian s
ĠP at
m ark
ĠBra z
l ines
et ary
ĠO k
i us
ĠB o
el ine
Ġh is
Ġv ort
Ġelse where
m od
m ail
Ġm erid
Ġhydrograp hic
Ġelect ron
Ġgreat est
Ġfrequ encies
Ġassum ing
cel and
Ġs ul
Ġdeterm ination
Ġstart ed
Ġ199 3
Ġproport ions
Ġp ac
Ġv er
ĠJ ournal
ret ion
Ġexhib ited
ym met
ĠII I
Ġdisapp ear
Ġt aph
Ġsubsequ ently
Ġalgorith m
Ġs ort
or ter
Ġinflu ences
Ġt un
Ġcl osed
Ġext raction
Ġassoci ations
Ġexam ples
Ġsepar ation
Ġopt ical
Ġopp osite
ĠS a
Ġits elf
Ġro ot
am pl
Ġst rain
Ġcost s
ĠP P
Ġfem ales
Ġa er
Ġ197 0
ign ific
Ġ ur
Ġgrav ity
Ġrem ark
Ġbl ock
Ġm ob
Ġob ser
Ġeffort s
Ġexp ect
Ġturbul ence
Ġintern ational
ĠOrd ovician
Ġreg imes
Ġins olation
Ġyield s
ĠF A
ĠS urface
Ġpart ially
Ġext inct
ĠNA O
Ġevolution ary
Ġrem ove
Ġbi ostratigraphic
C h
Ġassim ilation
am ples
Ġdeterm ining
8 5
ad al
Ġa eros
Ġper man
Ġphotosynt hesis
Ġhydro thermal
ĠS il
re hens
Ġres ol
ĠD E
Ġsout heastern
Ġge ographical
i ary
Ġno ise
I W
d ing
Ġr id
r ill
Ġhe alth
Ġaccomp an
Ġst om
ĠM o
ogene ity
Ġnear by
ĠPale ocene
domin ated
let ion
ĠUnd er
ĠTh ree
Ġpig ment
it z
om ing
Ġspat ially
Ġcateg ories
iss ions
Ġexc luded
ĠNor wegian
ĠI celand
ain e
Ġr i
Ġfa ir
Ġal one
Ġsp ores
Ġ6 7
Ġp seud
a res
Ġ io
E N
Ġseasonal ity
Ġm ol
et her
Ġon ce
Ġ9 6
is her
Ġ201 3
onom y
Ġcontroll ing
Ġsuscept ibility
Ġturb id
Ġconsequ ences
Ġc hemistry
ĠP seud
Ġr st
Ġpre p
ĠTh al
ip ation
amb rian
Ġ199 4
en u
at t
ĠC ape
Ġinterest ing
S r
Ġcount ries
Ġmeteor ological
Ġlandsc ape
h ouse
oc al
Ġdinoflagell ates
Ġegg s
Ġm l
Ġconclus ion
ĠCari bbean
Ġir rad
oc hemistry
Ġcool er
Ġind irect
Ġprote in
ĠP a
Ġhum id
Ġsettle ment
Ġconsist ently
Ġcle an
p ine
Ġrepro ductive
ĠCh ange
ĠP F
ĠMount ains
Ġm it
Ġquant ify
ĠBraz il
e b
Ġexcurs ion
ĠS econd
Ġar tic
Ġeast ward
Ġdetrit al
Ġob l
ĠSpec ies
Ġm om
Ġlip id
Ġcover ing
Ġhe a
f ield
Ġ2 10
Ġf jord
Ġl ig
Ġaffect ing
Ġbar rier
Ġs in
ĠJ o
Ġ199 2
Ġcult ure
Ġanaly tical
ĠIn tern
Ġjuven iles
s es
Ġt ides
Ġ5 7
Ġfil ters
Ġcham ber
Ġl ob
w an
Ġturbul ent
Ġaccompan ied
ĠM ass
Ġsupport s
Ġcham bers
Ġbi otic
k en
Ġp ositions
d i
hal ine
Ġextend s
Ġmes oscale
Ġn or
Ġillustr ated
Ġt eph
Ġ5 2
O F
f ord
Ġreason s
h u
Ġd ried
Ġdef ine
Ġ6 8
Ġgra y
Ġto ols
Ġmod es
Ġwh ite
rel ation
oll en
ĠL and
plement ary
ococc us
arv est
) .
Ġsc ience
ed d
op le
Ġbival ve
Ġc rop
Ġgl ass
Ġsilic ic
Ġreve als
Ġco unter
Ġen g
Ġwe b
Ġv s
Ġwh ales
Ġburrow s
ard s
Ġro und
r is
Ġhydro d
ĠA ct
Ġbas ic
Ġemploy ed
i en
or ks
ari ate
Ġbe gan
er ve
Ġd imens
c rib
s s
Ġgen es
dr iven
Ġ6 00
ch aet
ĠGerm any
Ġrequire ments
Ġb ay
un c
erm ost
b earing
om agnetic
Ġsw im
Ġon line
ian g
Ġempir ical
vers ely
emb ran
ro ck
Ġtra cer
Ġearl iest
Ġsubstant ially
in ic
Ġcomp rehens
Ġreason able
Ġconstrain ts
Ġunc onform
Ġclass ified
p ly
iv ation
ĠR el
Ġmodel ed
orm al
Ġturn over
Ġdam age
Ġcommerc ial
Ġl ies
Ġ5 1
ĠU K
Ġsub d
p olar
Ġc are
Ġz on
l ut
ĠS and
Ġlat itudinal
ĠGlac ier
b as
Ġsh orter
Ġus es
ri atic
ĠGre at
4 6
Ġbuoy ancy
S L
ob ic
Ġreflect ing
ĠDe v
Ġel ong
ap se
Ġepis odes
ĠSc iences
d imensional
on ge
M E
s ch
Ġ ?
ult ural
Ġhom ogeneous
Ġunder st
Ġsystem atic
Ġcre ated
she lf
ĠThal ass
Ġcoccolith s
C S
ĠD ist
Ġform ing
Ġident ical
Ġpolic y
Ġdistingu ished
Ġstep s
ĠShe lf
er ated
Ġmerid ional
Ġatt ention
4 7
em at
Ġchron ology
Ġconst rained
3 8
ĠB ed
ac ing
d ependent
l ob
ĠH ole
Ġ4 9
ert iary
Ġme g
Ġt rop
Ġfraction ation
Ġcorrect ed
l a
Ġa rag
ĠD isc
Ġsand s
as ka
ww w
ĠRes ults
ĠC A
res ent
t oplankton
Ġg ran
Ġsim pl
Ġdep letion
Ġglac iation
r ary
Ġl in
Ġclos er
Ġc um
am i
Ġtra ject
Ġatt ached
sl ope
Ġoys ter
Ġcom plic
ĠM ac
ian a
Ġdes igned
Ġin hib
Ġen sure
Ġadap ted
Ġdisc rep
6 5
enth os
Ġthe ore
Ġform ations
urn al
Ġdiffus ion
Ġfam ily
Ġdist ances
C A
F e
Ġs ec
Ġdep leted
Ġconstruct ed
t op
Ġae olian
on ous
an us
is ions
Ġskelet al
Ġ !
ĠOver all
ic ular
Ġret rie
m ission
ĠS k
ĠAr ch
af rost
Ġv ic
ĠB ul
Ġmamm als
ĠUn ited
ad den
Ġrepresent ation
Ġnort heastern
Ġac oustic
m ann
ĠS R
ĠSt r
ĠGen eral
arent s
m odel
Ġirrad iance
l astic
Ġf ert
Ġad equ
ĠG lacial
Ġdesc ript
ost rophic
Ġcorrel ate
ĠEn g
v a
edd ell
Ġclus ters
Ġaccount ed
Ġmed ian
go ing
ugh t
Ġpres ents
Ġpath ways
Ġmom ent
Ġmuss els
Ġconv ection
ik e
Ġach ieved
Ġmoll usc
Ġc alled
Ġb ones
op ro
osa ur
c on
ĠL O
ophy tes
ys sal
ĠIntern ational
un ction
mit ted
ĠAm ong
Ġeuph otic
ĠH a
Ġtak ing
Ġsat uration
Ġfix ation
S M
Ġe fficient
Ġwh ale
ĠNe ogene
viron ment
Ġaccum ulated
ĠL ong
Ġtre ated
re a
et t
Ġem issions
ophy sical
Ġv ect
ĠN a
id er
ic us
z ym
Ġbe aches
Ġherb iv
m ax
i as
p ose
Ġlocal ity
ĠN io
Ġmet als
Ġinf aunal
Ġirreg ular
b ur
ĠC any
Ġdist al
lay er
hic k
ĠSp ain
Ġpa pers
Ġregard ed
Ġextend ing
Ġconfir m
al ed
ĠPo ly
Ġlist ed
ĠCoast al
h old
ro zen
Ġbrack ish
Ġd im
Ġsubstr ates
Ġconclus ions
f old
ak en
Ġbene ath
Ġsignic ant
A t
Ġc ry
ĠF l
Ġsign ature
Ġexist s
ĠB arents
qu e
Ġmot ion
Ġnear shore
Ġtraw l
ĠN H
ĠR o
ĠSe as
ĠPre vious
Ġoscill ations
ĠE d
Ġexp on
c y
Ġmov ements
h io
ĠSt ates
und red
ĠAm az
ĠN on
Ġval ves
Ġ9 8
Ġwavel ength
iz ations
re en
Ġcyc ling
I T
ar ing
Ġthere by
osph aera
Ġbu ff
ocl imate
Ġfor ced
ib et
e br
s w
Ġn ight
Ġund ert
Ġsol id
Ġrare ly
Ġinterpret ations
Ġbot tles
ĠFran ce
ĠS ant
Ġstart ing
Ġas h
Ġche ck
Ġmiss ing
requ ency
r ite
Ġadvant age
Ġox id
Ġ9 9
Ġreport s
Ġmel ting
ore al
Ġh arvest
O T
ut ed
Ġanomal ous
or otal
Ġcomp osite
Ġfav or
Ġb rief
et ro
est one
ip h
Ġprec ise
Ġn ic
Ġstrateg y
Ġem b
ignific ant
h ood
ĠP D
ĠCon c
ol ated
ĠY oun
Ġanc ient
Ġfor aging
ĠR uss
Ġprec ision
C s
Ġturb idity
on a
Ġp ra
ĠAd riatic
Ġelev ations
u vial
ĠAustral ian
Ġse x
Ġgener ate
Ġorb ital
Ġcomprehens ive
pt ions
Ġinf er
Ġproduct ive
n iv
s um
rop h
Ġrespect ive
ay a
Ġrid ges
oc ation
Ġsand stones
Ġperm afrost
it a
Ġb le
Ġr ing
it an
Ġp yr
ĠD OM
ol a
ĠA P
Ġ0 1
Ġreg ular
Ġ6 6
f lu
ree k
Ġdig est
Ġsim ply
och th
Ġseab ed
ĠCany on
u an
Ġs i
Ġcr uc
Ġreact ion
Ġm embran
Ġh undred
Ġop al
ĠD IC
t he
Ġbe h
Ġmes h
ĠCal c
R IP
ĠS iber
ĠD ry
Ġlimit ing
ĠT er
Ġsh o
w ave
Ġcontin ent
Ġagg lut
ot ope
Ġout l
Ġsens ing
Ġconver ted
f ree
Ġsp lit
Ġpat ches
Ġmicro pl
id ing
Ġer upt
app ed
ur a
Ġdeploy ed
ĠM aximum
Ġrec omm
em s
Ġsusp ension
t oral
ollow ing
ĠI T
u a
in eral
Ġac ids
Ġmar ks
ĠEx t
Ġserv ices
erm a
Ġevalu ation
9 7
iv ariate
row th
sc atter
il st
Ġro ut
Ġ12 5
Ġrun s
S A
aw a
ĠSC S
il ed
oclim atic
Ġmix ture
Ġis op
ĠR E
Ġam ph
Ġpoly chaet
ion ally
Ġund erestim
Ġp an
Ġcont empor
Ġpoll ution
Ġdown stream
ere n
Ġn ucle
ĠB ur
Ġmorph otypes
ĠI ts
Ġfront al
abil ities
Ġ ign
Ġn ever
Ġw hy
il ing
Ġsal inities
ĠIber ian
Ġcharacter ize
ĠPro gram
Ġincreasing ly
Ġoverl ap
ĠB u
ĠN um
Ġsens or
Ġdetrit us
en a
Ġb ull
in ts
ĠOb serv
ĠFlor ida
g roup
Ġbrachi opods
Ġpart ial
Ġvalu able
Ġb ands
ur as
Ġh ol
ot a
Ġdirect ions
Ġcaus ing
ari an
Ġalter ation
sh aped
a ver
oc er
Ġshe ets
Ġsul ph
9 3
Ġt u
s ized
ĠT ype
Ġinvertebr ates
Ġconf ig
Ġdefin ition
ĠC P
Ġpres s
Ġseason ally
Ġcon version
0 4
Ġloss es
Ġprot ection
Ġcompr ises
ĠAn alysis
ox ide
ley i
crib ed
om anian
Ġunderst ood
dep th
Ġf ec
Ġte eth
Ġadapt ation
Ġcontamin ation
orp hic
Ġs n
Ġassum ptions
Ġvic inity
Ġpl ateau
Ġpo le
Ġ0 5
Ġinit ially
Ġsyn chron
Ġsign atures
ros hio
Ġdevelop ing
Ġimp ly
Ġopen ing
Ġpredict ion
Ġfa ults
co al
id ium
Ġv ar
ĠAl aska
Ġwest ward
ĠG CM
Ġdi agn
ĠS l
Ġpro jected
yc n
Ġdisplay ed
Ġprep ared
ĠT P
ĠSST s
Ġostrac od
ĠG ra
ĠC L
ch lor
Ġbod ies
Ġostrac ods
ed ing
Ġacid ification
ount ered
am ental
em ic
Ġcomp ens
ace ans
Ġessential ly
Ġsymb ion
os is
Ġrepl aced
Ġenc ountered
c a
Ġ199 1
Ġphenomen on
Ġdin ocyst
ann er
ĠPro v
ser ies
Ġantic ycl
Ġcol der
Ġt rough
Ġres usp
Ġk ind
Ġtrig g
ĠM an
Ġarch ae
ĠW eddell
Ġd y
ĠT r
Ġen zym
Ġexhib its
iffiffiffiff iffiffiffiff
ochth onous
Ġa ction
Ġdisc rete
Ġf illed
Ġh ux
Ġsumm ary
ect ions
Ġr ising
Ġbel t
Ġwor ks
ĠKu roshio
ĠC y
Ġar r
Ġnormal ized
t ropical
Ġoccup ied
Ġtransg ression
Ġem ission
Ġorient ation
Ġcon gl
ĠB rit
hy dro
ĠB ank
Ġcoast s
ur ian
Ġh old
urn ing
Ġsaprop el
Ġref er
Ġdepend ence
Ġse amount
Ġtrad e
Ġw ester
Ġpur pose
Ġde formation
Ġclim at
Ġvess els
Ġf at
Ġal tered
ĠP al
s en
t hen
om b
Ġco ars
pr ising
Ġflood ing
or ad
Ġ1 10
Ġle g
Ġdeg lac
ĠRe ef
n a
Ġ19 60
Ġexpl icit
Ġ ity
Ġalk al
A E
Ġalt itude
Ġtak es
Ġfront s
Ġcycl onic
ĠC ir
ĠD ec
Ġnecess arily
ren ch
Ġdec ade
Ġconc lude
Ġbiot a
ect ing
Ġinteg r
rop hy
Ġvert ebr
Ġc ement
op elagic
ĠE k
Ġass ign
Ġpolar ity
eli hood
Ġl ost
Ġinstr ument
Ġs a
le ment
Ġk rill
lig ible
Ġmet ers
Ġe lim
Ġ6 4
ord s
Ġcalc ium
Ġdr iving
ĠB eng
ot t
op s
Ġinf orm
Ġj o
Ġscient ists
ol ites
Ġspeed s
Ġagric ultural
m ass
Ġpre par
ĠAl ps
Ġcum ulative
or ld
Ġp ut
ac ulture
Ġmaint ained
fossil s
Ġhux leyi
ĠE p
Ġopt imal
Ġcopep od
il ic
ap es
Ġindic ation
Ġpers p
Ġbathymet ry
] ,
c or
Ġd un
Ġind eed
Ġfair ly
Ġhydro carbon
Ġsepar ately
Ġhum idity
C H
Ġstatist ics
Ġcoinc ides
ĠN ot
Ġspec ifically
Ġsens ors
Ġdiagen esis
Ġf ire
ĠC er
Ġcoast line
Ġmov ing
Ġpl ain
T U
Ġconn ection
Ġmaint ain
s ection
et ry
ĠA ge
Ġch ain
Ġreal istic
r up
ĠPre c
k ing
Ġn ational
Ġdisc rim
Ġtect on
Ġdecad al
ĠS D
Ġdec ision
S P
rad or
5 00
Ġthan k
Ġconsist ing
Ġimpro v
Ġobject ive
b ottom
ar ks
ul ata
Ġf rozen
Ġcontinuous ly
ĠB ol
Ġpe ople
, ,
Ġmamm al
ĠM ess
Ġreg ul
Ġconsider ation
Ġmoll us
im ately
ĠB er
Ġcom e
T P
0 7
Ġpresum ably
s u
ice ous
Ġfore cast
ĠP e
Ġsh rim
Ġstand ing
Ġback scatter
Ġang le
ĠF our
Ġpre ced
ethy an
Ġwid er
Ġprot oc
ĠT ibet
Ġposit ively
Ġt en
Ġrework ed
Ġs ch
Ġ10 5
Ġchar coal
Ġcho ice
Ġp ond
Ġadv ance
Ġow n
4 3
r s
Ġpl aces
Ġobserv ational
Ġconst itut
Ġart ific
Ġplatform s
4 9
ortun ately
6 3
n es
Ġsouth western
enn ial
O W
ri a
Ġ19 50
Ġpaleo cean
Ġcat ches
f requency
ot ed
ES S
j ection
Ġforaminif er
i el
ĠF isher
h ole
ĠW adden
Ġsub marine
Ġsc ores
ĠS v
ell er
L C
ĠInc reas
P b
Ġer od
m at
ol in
il ies
ĠCor respond
Ġcoupl ing
Ġpac hyd
Ġn urs
Ġcompet ition
ĠE U
Ġp ure
Ġentire ly
Ġshel ves
Ġw ays
Ġprecip it
Ġstra ight
ic ial
og ram
Ġsulf ate
ĠC M
Ġpred ator
Ġfund amental
ĠL i
Ġup stream
Ġperman ent
Ġc am
Ġp or
Ġst im
ĠH ig
Ġconstruct ion
Ġf aster
Ġneg ligible
Ġtrad itional
ur ity
Ġweak er
Ġtrans formation
Ġdil ution
is f
as p
ĠT emperature
Ġrese arc
Ġmin imal
Ġsp an
Ġd ed
Ġm ant
Ġv an
Ġval ve
h ol
Ġp ol
Ġbelong ing
Ġr ank
Ġaggreg ates
all ine
Ġqu ick
are n
Ġbull oides
ĠF ollowing
Ġlimit ations
Ġpref erent
ĠDev onian
Ġinteg ration
Ġsilic ate
Ġcyan obacteria
Ġincorpor ated
Ġmoor ing
o haline
ĠMA N
Ġagglut inated
ad es
Ġdr ivers
c ont
re nd
os ing
Ġcl asts
Ġout flow
Ġvert ically
Ġassess ments
H olocene
Ġst abil
Ġapp ly
Ġpartic ip
Ġclim ates
le ar
Ġpro ducing
Ġ7 2
av a
Ġdown ward
Ġapplic ations
Ġeutrophic ation
Ġinflu x
ĠHy dro
Ġd une
ĠS yn
ĠM ult
ĠG y
r ical
ust atic
Ġconsequ ently
Ġst ake
Ġmud stone
A A
Ġpubl ication
Ġtransition al
Ġaccept ed
i ro
Ġf er
Ġ9 7
Ġdem and
ĠI r
Ġun us
res erv
Ġhom ogen
p osed
ĠP ass
urb an
Ġdiss ipation
Ġsummari zed
4 2
Ġres idence
s ize
Ġar ran
ĠAr gent
Ġ ia
Ġrem ineral
Ġbathymet ric
Ġpre val
Ġmelt water
Ġhi atus
Ġexper ience
Ġ5 9
ip elag
Ġdifferent ial
Ġdo uble
Ġdiver gence
ĠSam ple
ĠSup plementary
Ġst er
ĠLar ge
Ġ 000
Ġsp in
Ġsc aling
Ġlo ok
bo ard
as ure
ĠNe og
ĠFor aminif
Ġbiot urbation
Ġprocess ed
Ġteph ra
ĠB C
Ġcult ures
Ġproxim ity
Ġspread ing
Ġvess el
Ġpaleos ols
Ġt able
ĠL ast
ell ular
Ġcapture d
Ġag o
Ġgreen house
at he
Ġab yssal
Ġground s
OV A
Ġwee ks
4 1
Ġcover s
Ġcre ate
ĠG F
Ġmes oc
Ġ6 1
Ġen erg
Ġtend ency
Ġele mental
Ġdr ill
Ġstandard s
Ġinter f
U SC
Ġsc ar
lim inary
Ġcruc ial
Ġact ually
Ġinver se
Ġb ring
T ED
b i
Ġdispl acement
ĠS ound
Ġfo ot
Ġcontin ue
re ct
ĠE uras
ar o
ator ial
Ġin u
ĠGe ological
Ġs un
Ġsimilar ities
ĠAmaz on
A C
h o
ĠS um
Ġexclus ively
ĠStud ies
Ġbl ocks
F or
Ġ nd
Ġde b
Ġinc re
Ġval idation
V I
k y
Ġexpon ential
Ġp ict
om ple
Ġprot ected
8 9
S i
Ġdeg rad
ĠA B
ĠF m
Ġ10 6
Ġdeploy ment
Ġconnect ivity
ĠA z
ĠN i
Ġoff set
p iration
Ġsupport ing
Ġide al
ĠC op
ill er
ĠG r
Ġdeglac iation
Ġbiom ark
Ġtra cks
Ġc entr
cul ation
Ġmat ch
Ġvol umes
Ġexpl ore
Ġpersist ent
ĠOr gan
n ian
RIP T
Ġcontribut ing
ograph s
ĠVal ley
Ġr hy
Ġbas ement
Ġaqu aculture
Ġflow ing
at tered
Ġad ults
ĠF O
it atively
ĠG ond
Ġmar ls
Ġtheore tical
agn et
Ġso und
ar id
Ġm ember
Ġev id
duct ivity
Ġu x
D NA
ĠC arp
Ġcov ari
Ġmetabol ism
ĠG L
Ġdisc ontin
CEP TED
ĠMAN USC
ĠMANUSC RIPT
m ean
Ġbore al
0 5
Ġe a
Ġn er
ve y
Ġgroup ed
ĠAC CEPTED
Ġquant ity
isc us
Ġtransf erred
ĠMes ozoic
7 7
Ġquant ities
Ġlow ermost
Ġcoll apse
Ġ $
Ġcon vent
Ġon t
Ġpp m
Ġprov en
Ġmethod ology
bs f
Ġc ave
Ġep if
ĠL A
Ġinc lus
Ġpropag ation
Ġtaph onomic
M arine
p art
Ġinh abit
b le
ĠO C
Ġtra its
Ġinv ent
Ġdevi ations
ĠD en
ĠH u
Ġorgan ism
Ġarag onite
Ġext rap
Ġpoin ted
b a
at o
9 2
Ġlag o
Ġtimesc ales
f ortunately
Ġp y
Ġens emble
f aunal
ĠC r
Ġsediment ological
ll a
Ġobser ve
Ġfor ce
ĠM y
Ġbar ocl
Ġoverl ain
Ġlamin ae
re es
Ġp ix
ad ian
Ġge ostrophic
Ġeros ional
Ġgastrop ods
A n
Ġacc ord
ĠPort ug
ĠE r
Ġf us
pl ing
ĠWh at
Ġnannofossil s
Ġtub e
Ġ urban
ĠR ise
Ġcompr ised
ĠT rough
Ġh arm
ec k
Ġtr unc
Ġproxim al
Ġsubt idal
ĠCent er
Ġpachyd erma
Ġt rain
Ġe chin
T o
ĠT ethys
Ġcar ry
ĠCen omanian
Ġexpand ed
M P
Ġfind ing
Ġ8 00
Ġpart ition
Ġproport ional
Ġ7 00
Ġtub es
Ġdiffere d
Ġatt enu
Ġbran ch
Ġterra ce
Ġbi ocl
Ġj et
E P
as m
Ġc her
ĠN B
empor al
Ġtur tles
ĠThe n
Ġall uvial
ont ological
Ġtransg ressive
ĠC ambrian
Ġmm ol
Ġadop ted
Ġbas eline
Ġquant ified
ost ic
Ġaver ages
Ġaffect s
Ġn ine
Ġy ellow
Ġreli ef
Ġworld wide
Ġfam ilies
Ġn emat
S I
ĠD O
Ġmineral og
Ġfeed ers
Ġme et
Ġ6 2
Ġdeep est
Ġm apping
Ġmeas uring
Ġbur ied
Ġsqu are
Ġl es
ry ozo
Ġra m
il is
Ġflood s
Ġproject ions
Ġ7 6
on i
Ġint ra
Ġappro x
Ġaver aging
Ġaccount s
Ġ7 8
Ġconsist ed
ipp ed
Ġhem isphere
Ġtox ic
Ġser ve
Ġind u
s up
Ġin land
Ġover t
Ġsim ulate
yc nal
orotal ia
Ġdecomp osition
u z
re nce
Ġsp ong
Ġaccur ately
ĠAn n
otrop ic
ĠT ertiary
ĠS B
ĠPC R
ĠG o
ĠSt ate
Ġsuccess ions
Ġproced ures
Ġide a
Ġpl us
Ġaut om
och ron
oec ological
ĠEk man
b ach
w a
Ġre n
Ġexist ed
ĠMess inian
Ġsur prising
ĠA O
Ġinter cal
Ġpalyn ological
Ġs ense
Ġconst itu
c ript
ir al
ex ist
Ġir rig
ĠPlan etary
or b
ĠLab oratory
Ġres embl
Ġ15 00
Ġcirc um
Ġrece ived
il ian
Ġk ept
R S
arb o
Ġprog ressive
Ġdistinct ive
t rans
Ġm ove
em n
Ġsuccessful ly
ill i
ĠLab rador
Ġtw ice
po int
ish ing
ĠD in
Ġpur pos
Ġl iqu
Ġim ag
Ġmoment um
5 5
ar g
ĠR adi
Ġvir t
Ġtiss ues
Ġcolon y
gl ish
Ġbenef its
Ġ8 8
Ġsp onge
Ġrecogn ised
ĠGerm an
Ġo m
au ge
P C
vi ly
Ġmean ing
ten ance
Ġ23 4
omp ass
Ġdispl ays
Ġ) .
he res
Ġbar s
ra ck
Ġnam ely
Ġg ear
Ġf ed
Ġp oster
Ġr h
ipelag o
Ġresearc hers
Ġthe M
Ġso le
Ġextrem es
Ġhydrod ynamic
ĠW he
ĠTh at
Ġint rus
Ġyoun g
es ides
um in
Ġun st
Ġsil ty
ĠO TU
ason al
Ġvir us
Ġdecl ined
itr ification
er i
it ch
Ġres olved
ĠEn glish
Ġmet am
Ġcount ing
an alysis
Ġhy per
o xygen
id inium
ĠS L
ogen esis
Ġbarocl inic
Ġwaters hed
Ġcap able
Ġestablish ment
Ġglob ally
Ġd rier
form s
Ġinsight s
Ġn g
Ġg ap
Ġphosph orus
n ch
ad ed
Ġv isc
Ġhea vily
Ġsu d
ric s
yl ind
ĠNP P
D E
Ġw rit
Ġf ric
m ay
id dle
d ated
Ġstr atigraph
Ġfav our
Ġimplement ed
Ġne igh
Ġmant le
Ġz o
Ġag ree
Ġnon linear
ful ly
st ein
Ġsimultaneous ly
F S
Ġmud dy
il ization
Ġnorm ally
Ġpref erence
ĠCompar ison
) ,
k now
it ution
ĠSS S
Ġpurpos es
Ġasp ect
i able
ĠT A
Ġdi am
Ġapp lying
Ġcompr ise
m o
Ġenc ompass
Ġprepar ation
T IC
ors al
Ġinst ability
Ġble aching
ĠU V
Ġpref erences
act ion
bl es
iform is
Ġconcern ing
Ġf r
Ġpath way
Ġmark er
Ġscar ce
Ġvolcan o
ontin ental
Ġpress ures
Ġr uber
Ġobl iqu
e k
Ġdemonstr ates
Ġprote ins
ĠSm all
Ġa ustral
ro te
Ġfl ora
Ġdel ay
Ġartific ial
if era
Ġ0 9
ĠFig s
8 3
m es
Ġriver ine
Ġspectrom eter
ĠT a
Ġother wise
Ġred ox
Ġprevail ing
ĠC I
Ġcl astic
Ġstom ach
at ite
Ġstrong est
Ġinterp olation
Ġfisher s
Ġpig ments
ix ed
ĠPro ject
Ġdel iver
Ġstreng then
Ġobject ives
Ġinv as
Ġheter ogeneity
S E
ĠG P
Ġexc ell
Ġme ad
Ġqual itative
o qu
ĠP O
Ġfl ank
Ġ7 3
Ġadd ressed
Ġb ig
Ġg aps
ĠP B
per iment
ad s
Ġsect ors
Ġcateg ory
Ġnod ules
ad ial
Ġundert aken
ro ch
Ġpaleo environmental
ĠV ert
Ġsil iceous
Ġnew ly
Ġpalyn omorph
ag ement
Ġsim ilarly
Ġclim atology
Ġfit ted
ĠT ime
Ġ8 6
Ġsp arse
Ġcomple ment
en ge
ce ived
Ġdim in
ad ing
Ġac know
inter glacial
ens us
Ġwe bs
ol id
ĠF ram
Ġ7 7
ĠAn aly
ĠCh ar
Ġ3 000
olog ists
Ġseg ment
Ġoutcrop s
Ġdiff ers
Ġwee k
Ġr ings
Ġsuccess ive
Ġexamin ation
Ġts un
Ġammon ium
Ġpro duces
Ġext ant
Ġca ught
Ġme and
Ġconver gence
ĠY ang
orn e
Ġs ides
av eng
Ġtra ces
c os
ĠCh ile
Ġenc rust
ĠT echn
ĠM ag
ĠDep th
Ġtransport s
Ġalt imet
Ġpyr ite
Ġdun es
er ately
Ġsc attered
Ġincorpor ation
ul s
Ġfor ward
ĠV an
ĠOM Z
in ella
ist ant
Ġtrans formed
ound er
Ġschem es
Ġc f
ĠP OM
ĠL it
ĠPar at
Ġnurs ery
Ġt ent
ĠPl ate
Ġtend s
Ġdispers ion
Ġf an
le ys
Ġsea ward
Ġach ieve
a ice
Ġin g
Ġsub duction
Ġt ag
om a
Ġunc lear
Ġsynt hesis
Ġar ray
Ġret ained
Ġprogram s
Ġdol ph
Ġindust rial
Ġc ili
Ġconsum ed
ut ral
ide o
w hich
Ġg ave
ĠP ark
Ġar c
w orks
Ġw ild
Ġbathy al
in ates
oci ated
Ġmollusc s
Ġder ive
Ġingest ion
ĠN D
Ġbi ostratigraphy
Ġ23 0
Ġp al
il ob
Ġposs ess
Ġopt im
ĠMA T
Ġner itic
Ġsud den
sel ves
Ġchalleng es
ĠD MS
c om
Ġbeh ind
ĠA A
if e
ym n
Ġdecl ines
Ġaeros ol
Ġfat ty
ĠE T
Ġrel ate
Ġmain tenance
ĠAl t
Ġprov ince
E C
ĠC ycl
Ġbed rock
Ġcany ons
Ġpack age
Ġsl ides
t hick
od erm
Ġr ift
Ġwas hed
Ġconf ined
Ġlit ter
Ġfall s
Ġsulf ide
im eter
Ġpref erred
Ġtraject ories
Ġradiolari ans
Ġalgorith ms
Ġfacilit ate
Ġ0 2
Ġimplement ation
ing er
Ġcl ays
ĠCons id
Ġf ace
Ġcorrespond ence
ĠAm ph
ĠNor way
n ey
Ġcoinc ide
Ġold est
Ġa ce
Ġg a
g y
ĠA L
Ġseg ments
ĠO scill
Ġdraw n
Ġun p
Ġcell ular
Ġmacro algae
Ġfem ale
if ies
um ing
Ġneg atively
Ġpict ure
ol ia
oss ible
Ġbenef it
Ġh arb
ĠS ites
Ġtrans l
Ġphot ic
ig ation
Ġmod elled
Ġpel lets
R NA
Ġsel ect
ĠCorrespond ing
N O
Ġsustain able
wo od
8 7
is hes
6 1
ĠDet ail
Ġf ib
Ġopportun ity
Ġoccas ionally
F D
l as
Ġb ryozo
ul us
Ġtrans form
Ġge ometry
Ġarg ued
ĠInt erest
Ġzon ation
ĠD an
Ġgo al
d ec
Ġr ip
oge ographic
Ġphot o
u ge
Ġl aw
ĠIR D
Ġpenet ration
Ġcent re
Ġmembran e
i ate
Ġl l
ĠAn g
Ġassess ing
v is
ĠGe ology
Ġterra ces
ĠPro t
Ġmes opelagic
ĠL eg
Ġwh ilst
Ġform al
ĠT el
Ġestim ating
ĠW il
Ġbu ilt
Ġcompr ising
Ġult imately
Ġprogress ively
ĠT s
Ġdeg rees
ĠSm ith
Ġpersp ective
Ġr ud
ĠSt age
Ġclos ure
duc ers
Ġanticycl onic
Ġmar l
Ġrandom ly
Ġtoler ance
Ġcrab s
Ġcom es
Ġpl ays
or ia
Ġth ous
Ġcan opy
ĠO x
Ġpl ates
Ġ6 9
Ġsl ide
olith us
Ġweight ed
Ġcy t
Ġquick ly
Ġaccord ance
ant ed
ĠG al
Ġent rain
Ġm bsf
as i
Ġar b
Ġt io
her ly
Ġvort icity
ĠH al
Ġphyl ogenetic
Ġfra ct
ĠP ubl
Ġeffect ively
Ġconst itute
Ġwall s
Ġdram atic
Ġexcell ent
a ult
Ġsur ge
ines e
ĠO l
Ġpl aice
ĠCD OM
Ġres il
ĠCor al
iv ated
Ġes c
Ġlith ological
p ed
as er
Ġe th
os ol
Ġm anner
Ġco al
Ġbel ieved
Ġillustr ate
Ġapprox imate
Ġread ily
ĠScot ia
M A
ĠIt aly
Ġan ch
Ġmod erately
Ġperiod ic
Ġpass ive
Ġsub polar
Ġdol om
S R
Ġdis e
ĠUn fortunately
Ġincub ations
Ġremark able
ĠA e
Ġthem selves
ĠPE TM
b ar
Ġd ro
ĠN ord
w h
Ġst romat
ant arctic
Ġit ems
ĠU l
h abitat
k m
ul ates
ĠC ap
Ġorigin ally
Ġspong es
end ing
ud e
Ġtest ing
Ġfil t
ĠAddition al
ĠM aterial
ĠP an
Ġload ing
G C
Ġde ath
Ġgrass es
ĠI V
Ġov erestim
igen ic
Ġt ribut
Ġm ales
ĠM art
Ġanalyz e
Ġox ic
Ġke ep
Ġas ymmet
ip her
ĠCor g
Ġoys ters
Ġbi of
Ġhe ating
Ġopt imum
Ġden itrification
otrop hs
Ġf lex
Ġprob able
Ġdr illing
op ter
Ġ18 0
v ance
z ooplankton
ograph ically
Ġadjust ed
Ġv ast
ĠH el
Ġ13 0
l ies
o ured
ĠP or
ĠH ar
Ġproject s
ĠSP M
ro d
os es
ĠW orld
T A
Ġ uctu
om on
Ġrec yc
Ġaltern ating
Ġ198 9
Ġrest ing
osp ec
Ġreplic ate
Ġacqu ired
Ġto oth
ĠT ethyan
ip hy
Ġfunction ing
Ġepis ode
ĠAl tern
Ġshif ted
ĠSE M
Ġb irds
Ġn one
od ing
ynam ics
athe red
ĠM ur
Ġidentify ing
ĠBet ween
9 4
at ist
Ġret ention
Ġbroad er
b al
Ġcoccolithoph ore
ed ge
om al
Ġpre cess
Ġ7 1
ĠCh uk
ĠEx periment
ĠPR ESS
ar is
ĠN C
ang ular
Ġkin etic
Ġsup plied
TIC LE
Ġm ature
ĠConsid ering
Ġn ea
Ġsufficient ly
Ġpert urb
Ġgra z
Ġshr ub
Ġg auge
ĠAR TICLE
Ġbi ofacies
Ġe ch
ĠA uth
ĠO ut
Ġsc ler
Ġsc aveng
G O
ĠS I
ĠC reek
Ġsp anning
ĠG C
ĠAC C
Ġlack ing
Ġconfig uration
/ $
ĠCh inese
Ġre duct
Ġse ed
Ġdomin ates
Ġmov ed
Ġartic les
Ġ14 0
mosp heric
Ġhypothes es
Ġexc av
Ġhighlight ed
occ ur
in ids
ic le
as man
Ġth or
ĠH ist
Ġ0 3
ĠCan adian
p hy
at al
Ġresusp ension
Ġposter ior
ro t
Ġse arch
ĠInd ex
Ġbre aking
Ġbrachi opod
Ġpole ward
ĠOscill ation
Ġf old
Ġv apor
Ġres istance
iger ina
T ri
Ġacc retion
stand ing
ĠF rag
ĠY ellow
ĠW here
water s
ĠBrit ish
Ġm usc
un ct
Ġord ers
Ġlith ology
Ġcertain ly
Ġfragment ation
im ilar
ĠS ah
ĠC hen
Ġ0 8
h am
Ġp etro
ĠS y
in ces
Ġb in
Ġh ours
her ical
Ġind epend
lud ing
Ġorient ed
Ġe ustatic
Ġerod ed
Ġre duces
R M
Ġr im
ir n
Ġadv ances
ra f
o ly
und a
Ġpaleocean ographic
Ġab iotic
ĠDry as
n ormal
ĠP inus
ĠJo hn
ĠEng land
Ġmet er
Ġscatter ing
Ġliqu id
Ġb a
ĠF ax
ip s
Ġpre liminary
Ġequ ally
Ġindust ry
Ġcomplic ated
Ġwork ing
Ġmacro fauna
Ġintro duction
Ġas t
Ġsat isf
Ġ _
ĠM el
un ity
Ġtrans ient
Ġswim ming
Ġf ill
ll ed
, .
Ġvect or
S t
Ġadequ ate
b ound
ĠW ood
ind ing
s i
Ġsc ope
ĠProv ince
Ġprop ose
Ġheight s
Ġexceed ed
Ġo s
ĠL ith
act ive
Ġh ot
Ġbroad ly
ĠLim estone
ĠInterest ingly
ĠT asman
Ġport ions
oqu adr
Ġm L
ĠR em
Ġimpact ed
Ġevent ually
Ġpalaeo environmental
Ġp le
Ġlength s
Ġcrust al
Ġow ing
Ġcam era
Ġcar niv
Ġconduct ivity
Ġcoinc ident
pl ain
Ġcont rary
Ġchall enge
Ġon going
Ġcont our
Ġsub mer
1 50
Ġt ens
Ġc c
Ġet c
Ġresol ve
uk ary
ĠPh ae
ĠH ow
Ġen able
Ġequ ipped
ĠChuk chi
Ġn n
Ġan oxia
Ġbar otropic
Ġdimens ions
p reserv
Ġsu ff
Ġ7 9
Ġn an
Ġen abl
Ġbre eding
Ġcry pt
Ġsulf ur
Ġshrim p
P l
Ġh atch
ĠA MS
ĠOk h
T s
c ell
ĠTibet an
en ergy
eg rated
Ġ8 3
Ġs ac
Ġdep ic
Ġbi ases
Ġinflu encing
Ġopportun istic
Ġev ol
Ġsmall est
row s
Ġpl anning
T S
Ġge omorph
Ġmount ed
Ġev olved
Ġpoly n
Ġax es
ĠV i
Ġplay ed
Ġor th
ĠUn ivers
Ġins u
m g
w in
ĠR ock
ĠAm mon
Ġflo at
it ial
Ġl ie
ĠYoun ger
Ġnot ice
ip itation
ĠDi atom
at ial
ĠT i
et rit
ĠA qu
lim atic
ots k
mit t
ĠA ver
ĠM ad
ĠB enthic
Ġsub jected
Ġ201 9
Ġslow ly
ĠCent re
P le
plic ate
Ġg et
um ental
ĠOcean ography
0 6
a im
Ġmark ers
ĠP y
Ġmic ros
Ġ198 8
Ġsynchron ous
h op
am ple
ĠPh il
R F
Ġload s
ĠEst im
ĠC oun
ocyst is
Ġtra vel
ozo oplankton
omm od
Ġmicrosc opy
Ġrework ing
ĠT ax
ĠR ange
act or
Ġlip ids
Ġ7 4
Ġskelet ons
id el
ace an
Ġunst able
ĠGlob orotalia
ĠEqu atorial
e e
osp heric
Ġimag ery
8 8
Ġc ylind
Ġl n
ol ina
ĠB ro
ap ot
Ġstrain s
Ġcoars er
rup ted
w ind
al t
Ġar ctic
ĠReg ional
Ġp ick
ĠP AR
Ġmin ima
ha i
Ġs s
Ġext ra
Ġcontinu es
hold ers
m en
Ġst ated
ac u
ĠOcean s
ĠPer u
ĠOkh otsk
a fter
p ic
ur ies
Ġi e
Ġcryst als
it t
Ġb order
Ġe ll
Ġ9 3
Ġap art
ĠPac ic
oc on
ag er
alg al
Ġclimat ological
t est
ar st
Ġh ind
ĠCon versely
ĠCamp anian
Ġco herent
Ġdat um
ĠDS DP
ĠE le
Ġoccup y
Ġ @
or ption
ĠH imal
Ġbed ding
ios ira
Ġg yp
Ġident ied
f ect
ĠM C
ric es
Ġvent ilation
Ġtrigg ered
c arb
ĠAN D
m ol
iven ess
Ġfew er
Ġapproxim ation
ĠWh ite
Ġmarked ly
v in
Ġphot ographs
Ġpro ducers
Ġunconform ity
ol i
ĠCh lor
Ġnet works
Ġo ocy
Ġre verse
Ġn a
ĠC am
Ġinter st
Ġ4 000
z o
re y
Ġcomp ound
ĠPle ase
em a
ĠD elta
Ġnot ably
Ġtrans p
Ġne ither
Ġsilicic lastic
Ġ9 4
y le
Ġm y
Ġaggreg ation
Ġdisturb ances
Ġwester ly
Ġg ain
Ġfram e
Ġphenomen a
ĠH er
Ġextens ively
Ġfig ure
Ġless er
bed o
Ġs y
Ġv ideo
ĠG B
pp e
Ġreg ulation
ord ill
Ġmar s
Ġlik elihood
Ġutil ized
Ġin herent
ĠL ap
Ġqu ar
Ġpa rent
ract ed
al c
um ines
oc ated
Ġacc ommod
Ġ8 4
Ġlong itudinal
Ġvulner able
asure ments
Ġsh arks
Ġmult ivariate
mon th
ĠRe view
ĠDE B
ĠH Cl
Ġinvol ving
M W
v ille
Ġp i
Ġas c
ĠF lu
r yst
u y
ĠG PS
Ġrel ating
Ġsub arctic
Ġconv ective
l in
ĠT e
am el
Ġdep ression
Ġreflect ance
Ġepis od
Ġn s
Ġmud stones
Ġampl itudes
Ġexceed s
ĠInst ead
r or
oc o
ĠE OF
Ġimp lying
Ġice berg
ĠP ol
ĠP ress
Ġgrass land
ĠAnd es
Ġdiscrep ancy
2 000
ol ite
ĠO p
Ġcount ry
O H
ĠS oci
Ġinc omple
ĠThalass iosira
Ġfric tion
0 9
f eed
ĠF orm
Ġcomp iled
Ġorigin ated
aer obic
t ically
ic les
Ġp ow
Ġh our
Ġrec over
Ġcoe val
Ġdest ruct
Ġremineral ization
ordill era
m ers
ĠT L
ĠI C
Ġpro long
ist ent
i ot
ĠZ o
Ġdischar ges
Ġtrain ing
Ġc all
Ġun f
Ġcr is
Ġlater ally
Ġillustr ates
Ġexplo itation
Ġb rought
Ġdr ive
Ġorigin ating
amm ina
Ġentrain ment
k er
or ic
Ġm ut
Ġcontribut es
ut rient
Ġinf l
ann ed
Ġent er
ĠGeneral ly
ĠCarp ath
ipl inary
Ġearth qu
Ġsort ed
ĠC le
Ġdiagn ostic
Ġnot able
8 1
Ġn M
Ġexpl ored
Ġmat s
Ġinsu fficient
ĠM OD
Ġsh ared
ĠN atural
Ġdescrib es
bas in
c ation
Ġa per
Ġc arbo
ĠO xygen
ĠPo int
preserv ed
7 6
ut ch
ĠS U
ĠInd ones
t here
Ġsu ite
ist on
Ġhyp oxia
Ġintens ive
id ate
Ġfl ounder
Ġcol our
g reen
Ġse als
Ġconvent ional
P a
Ġf res
et te
Ġstake holders
l ived
ĠAr c
is ition
Ġqu adr
Ġdisc ard
Ġfin ally
ĠĠĠĠ ĠĠĠĠ
Ġattenu ation
Ġbi ology
Ġadv anced
j iang
ab s
Ġinit iated
s ter
Ġth reat
Ġinc ons
Ġsequ encing
Ġinclus ion
Ġl ens
Ġra w
Ġpra ctic
ĠFisher ies
w inter
Ġpolic ies
ĠL C
Ġhe ld
ĠZ n
Ġhydro gen
organ isms
Ġ ions
ĠGe o
Ġlith ofacies
w ana
Ġtrop ics
Ġenerg etic
Ġval leys
8 4
ge an
Ġg on
Ġcap s
Ġmount ains
A ll
ig hed
et ics
aps a
Ġin ert
Ġdeep ening
in ess
an ia
Ġcap t
Ġaff inity
Ġnea rest
Ġon shore
ĠF rench
ĠN ino
Ġsel f
Ġamph ip
c il
Ġt ill
Ġne utral
D S
Ġexceed ing
Ġbran ches
ĠEv idence
Ġlig ands
C org
Ġ umb
ĠThe rm
Ġsel ective
ump olar
ĠP ear
ĠCh ron
Ġk il
Ġinterp olated
Ġdisappear ance
Ġpl umes
Ġstr ict
amp a
Ġab lation
o ol
ar ity
ĠT yp
lob oquadr
Ġcris is
ĠO nce
Ġexpl ains
a o
Ġm apped
el ed
ot hem
Ġfor ces
ip elagic
Ġpale oclimate
Ġweak ly
ĠN ether
er ies
ĠPC A
Ġreplic ates
ĠGlobiger inoides
Ġpair s
ĠB isc
Ġ3 50
Ġper cept
Ġdry ing
Ġrock y
Ġs av
ew ise
ĠPale ogene
ĠM is
ĠP b
C D
U S
p ass
Ġdi urnal
Ġlit toral
Ġrot ation
Ġevid enced
apot rans
6 6
Ġst ret
am ents
ĠL ang
ra ce
ĠMic ro
Ġb ub
Ġsh are
Ġrun ning
uel a
Ġh az
ĠS erv
ĠF ish
Ġcalcul ating
oc or
Ġsat ur
Ġbro ken
ĠRuss ian
ĠS ol
Ġconsist ency
Ġbioge ographic
r un
it ect
ĠS el
ab or
ĠW A
Ġpl ane
Ġinstr uments
Ġd ive
ĠD o
rob ial
ĠH P
ĠL at
Ġ9 2
ov a
Ġcent ered
Ġm ounds
Ġaccount ing
Ġround ed
aver aged
ĠK e
Ġc rest
et ically
ĠN ear
Ġoutput s
ur t
Ġsaprop els
Ġtsun ami
Ġg ut
ist ered
l i
m l
Ġt et
Ġr ig
Ġun ivers
Ġrepro duce
Ġint r
ide a
ĠSt ream
atur ated
apotrans piration
t ze
ĠT ai
ig uous
ĠF am
Ġ10 3
Ġsol ub
ĠAss embl
ĠSw ed
ĠArgent ina
Ġp ycn
oc eros
igh ter
Ġcorrel ates
ĠSh ale
Ġlin ks
ĠAe gean
Ġre ect
ĠF ras
ĠO ff
ill a
Ġconcept ual
W P
d ef
Ġ0 6
Ġmicro algae
Ġdig ital
Ġb ank
Ġbe am
rast ruct
r ist
ĠP et
Ġpar as
Ġsurv ive
Ġindu ce
Ġp ic
Ġn ame
ine a
ak ers
Ġcent uries
Ġmangro ves
Ġdescript ions
h ou
il a
per m
ak er
Ġmax im
ĠNether lands
Ġg iving
Ġdi ap
Ġbuff er
os us
Ġ16 0
D A
l ic
Ġmars hes
g rad
Ġdifferent iation
Ġwind ow
Ġl aser
ib ic
Ġ8 9
ex p
Ġdescrib ing
ĠAss uming
Ġl ign
am es
Ġbel ieve
Ġvir al
ĠAr t
isc iplinary
Ġal bedo
ĠL P
ace a
ens en
Ġprinc iple
Ġacqu isition
Ġvulner ability
h as
ĠN S
Ġskelet on
ĠAN OVA
Ġtox icity
ĠYang tze
C T
ĠD W
Ġref lection
ino ids
ion e
mosp here
Ġinvertebr ate
Ġretrie ved
Ġo d
Ġsp orad
Ġep ib
ĠAccording ly
Ġexcurs ions
en ian
Ġc av
un a
Ġcontrast ing
av en
Ġradi us
Ġin n
ro y
ing ton
ĠE ll
Ġno vel
Ġcoccolithoph ores
Ple istocene
o idal
ĠS H
ĠH ad
Ġaer ial
ĠPass age
ep hy
Ġm ag
Ġme io
Ġprov inces
Ġglac i
ers on
Ġra ised
1 000
Ġconserv ative
ĠIm p
ĠSiber ian
ĠB acter
up s
Ġoff er
Ġpref er
O R
ĠE S
Ġam ino
ĠC B
ĠM B
end ix
cul es
ĠPT B
3 00
h ort
s ediment
Ġf art
id i
ĠO st
Ġgy res
Ġfavor able
n s
in qu
ac char
Ġsp ines
ĠF ound
Ġsupp lement
Ġisol ation
ĠPat ag
ĠD anian
ĠTh rough
lim ited
Ġf uel
Ġh oles
Ġpass age
Ġutil ization
ĠSyn ech
Ġdiss imilar
erest imate
a ff
Ġto ur
op ol
ĠAt mospheric
Ġtra ct
Ġovert urning
ag us
ĠK o
ich i
Ġant arctic
Ġbo ok
Ġbuild ing
u ck
Ġg i
Ġst ack
Ġreg en
Ġend emic
Ġreview ed
Ġinstr umental
ĠG ib
Ġresil ience
Ġh app
ĠG S
lu c
Ġadjust ment
c atch
he ad
ĠP ollen
ĠW ind
ĠDen mark
c alled
Ġn t
ĠB esides
ari um
ff l
ĠY et
Ġdirect ed
Ġtherm ohaline
ĠPale ozoic
Ġcentr if
Ġp ip
il s
Ġr RNA
ĠH ol
Ġcor rob
Ġcher t
Ġf re
val ues
Ġrecogn ition
Ġfin er
ĠRE E
en z
Ġirrig ation
Ġindepend ently
Ġmin ut
Ġeng ine
Ġmod ification
Ġagric ulture
Ġv ill
ob i
Ġadapt ive
Ġre analysis
ĠR ef
te v
ipp ing
Ġseep s
ĠOx ford
M IC
Ġl ib
Ġr ub
ĠU N
Ġover view
Ġhigh stand
ĠQ ue
d o
Ġgra b
Ġparameter ization
Ġsw amp
Ġev apotranspiration
Ġser ious
Ġintens ified
bach ian
ens ive
Ġ14 5
Ġnut r
Ġell ip
ĠP rim
Ġ8 1
Ġ9 00
Ġrev ised
A L
Ġin let
as hed
ĠAlb ian
Ġspec ified
Ġdis ag
ĠParat ethys
h um
Ġaggreg ate
Ġw orth
an z
Ġtax onomy
ĠEn vironment
ĠP red
Ġwet ter
Ġarg ue
Ġstream s
Ġgyp sum
p e
im posed
ĠH g
Ġpaleos ol
G E
Ġpredomin ant
Ġtimesc ale
Ġin shore
ĠE B
Ġmat urity
Ġrest oration
aster ly
ĠMet eor
Ġfilt ration
K E
k es
Ġt el
Ġv ents
Ġexp ed
Ġent ering
ĠNA DW
ĠReg ion
Ġfeedback s
b ard
Ġd red
ul i
ĠS ymb
Ġ198 2
Ġmor aine
Ġpract ice
At lantic
g u
g ar
on y
Ġar idity
arc ian
ĠT N
ĠT R
ĠT S
pl ed
Ġquant ification
ĠCl ay
ĠEc osystem
Ġnic he
ĠBol iv
Ġaltimet ry
anth in
ĠC ong
Ġtrans cript
ph a
ĠCh ang
Ġfour th
Ġgrap h
ĠDiff erences
ter ior
ĠD av
ĠW arm
Ġ198 7
Ġbiot urb
Ġoutl ined
Ġepif aunal
ĠPhae ocystis
k ary
il ities
Ġstart s
- ,
Ġf ab
ĠM H
Ġint rac
Ġmorph otype
Ġstress es
Ġfig ures
en ia
ud a
Ġlab ile
Ġaccel eration
Ġminim ize
Ġextinct ions
es e
ĠP V
Ġbec oming
Ġstri king
ĠGond wana
or f
ar an
op tic
ĠL aw
Ġmonit ored
sal inity
ĠOTU s
is otope
Ġge ologic
Ġcolon ization
Ġsust ained
Ġreservoir s
ĠLap tev
Ġcorrob or
Ġc ite
is ter
ĠCh aet
Ġhere in
Ġflo ating
Ġvertebr ate
Ġunus ual
c asts
ĠM il
form ing
Ġoper ating
ĠAltern atively
ran gian
Ġdi oxide
Ġmin ing
Ġdisc overed
ĠML D
Ġref ers
k yr
Ġbot tle
Ġact ions
Ġtechn ology
Ġdram atically
Ġseamount s
Ġst ained
str at
enc l
Ġaut otrophic
Ġpersist ence
Ġfail ure
ĠSoci ety
s ub
ĠB ea
Ġwet land
Ġdiffus ivity
at uration
ĠH S
Ġcon j
Ġun e
Ġdr illed
Ġbore hole
we ight
Ġvolcan ism
Ġinvol ves
Ġpro l
Ġor n
ust omer
Ġs well
us a
Ġ198 6
Ġtrack ing
ephy roc
v est
Ġt y
Ġres istant
ĠAl ong
b u
es c
ĠC ibic
ĠD irect
Ġspec iation
Ġf le
Ġb enthos
ĠB re
ĠR NA
ach ment
Ġpractic es
im ina
ĠT M
Ġcompar atively
Ġcriter ion
ent a
Ġl ear
Ġstudy ing
Ġoper ational
Ġcollect ions
Ġg ases
Ġex ert
ann on
Ġimprov ement
olin ite
A m
Ġper ipher
ĠRep ort
ri ers
Ġ9 1
5 1
Ġr t
Ġdi e
Ġpo ols
our n
ĠSe asonal
ĠNort heast
Ġdecl ining
ĠSynech ococcus
ec es
ers al
ĠRh iz
Ġprolong ed
ro g
ĠC d
Ġdet er
ail able
Ġlower ing
pic uous
B T
Ġform ula
Ġdom ains
Ġrecomm end
n o
ĠV er
ĠAD CP
atur ally
ass ociated
Ġprom ote
ĠMAR MIC
Ġinvent ory
Ġren ew
Ġgrow n
Ġcrust aceans
Ġpreced ing
Ġmes ozooplankton
ĠE A
Ġadd ing
Ġped ogenic
ĠSant a
Ġsubmer ged
ĠA v
ĠE s
Ġbi oz
ĠSS H
Ġpolychaet es
Ġmax imal
Ġexpl aining
Ġsol ely
Tri assic
ĠAver age
ĠFound ation
il ated
od ynamic
od etrit
Ġsp acing
ĠD iss
viron ments
Ġcond ens
Ġcre ating
Ġfree zing
Ġc osm
pt ian
ĠEc ology
Ġperturb ations
m atic
ĠC N
ĠND VI
Ġ ub
ain t
Ġcharacter ization
Ġoxygen ated
Ġsubd iv
ĠNeog loboquadr
ion ed
Ġsu c
Ġtrans itions
Ġbal anced
Ġvis it
ontin ent
ĠMOD IS
Ġb are
ĠP rior
Ġr is
Ġinc l
Ġen amel
ew ater
Ġtr ilob
ĠHig her
Ġf ax
Ġm is
Ġal ign
Ġsp herical
Ġrhy th
P ac
ĠW ash
ele othem
Ġt ong
Ġfl ats
Ġ198 5
anc ies
Ġins p
Ġintens ification
M a
i ens
ĠT ex
id uous
ĠSt and
w ent
ra k
ec ut
ĠO s
we ed
ĠPer iod
ĠSal inity
act s
ber t
Ġflu ids
Ġdef ic
Ġnam ed
E X
od us
ĠB ight
Ġcomple ted
ĠLa ure
c ers
Ġcl ade
Ġper mit
carbon ate
Ġneigh b
Ġmead ows
Ġe ld
et heless
Ġbe gins
ĠG RA
act ers
Ġ8 2
Ġ13 7
ophy te
Ġdisapp eared
Ġexplicit ly
Ġnann oplankton
Ġrough ness
Ġmob ile
Ġenc oun
Ġincub ated
ĠVert ical
T R
is ia
ran ch
ĠMont e
Ġprotoc ol
Ġreduct ions
6 2
Ġ0 7
Ġaim s
Ġpycn ocline
ĠM i
Ġup wards
Ġover c
Ġqu asi
ĠPl ain
Ġvirt ually
Ġepisod ic
ĠT u
Ġechin oderm
Ġpresent ly
Ġenc l
bur g
Ġcontempor ary
e ous
Ġd orsal
ĠB F
Ġch romat
ĠGlobiger ina
orm s
ĠDiff erent
op er
M R
ĠP L
Ġimp ossible
Ġstand s
grap hic
Ġreact ions
Ġconstitu ents
Ġincomple te
s itu
Ġter rain
Ġstandard ized
Ġcongl omer
Ġe o
ig an
Ġisot her
Ġthreshold s
ell s
Ġreg istered
e ast
Ġchar acters
Ġcontamin ants
ĠAnn ual
Ġco hort
vent ion
Ġmot ions
g a
Ġwinter s
Ġgener ic
ĠSe qu
Ġord ination
Ġpract ical
9 1
ain es
Ġmod ifications
ĠK ar
ĠBel ow
Ġerupt ion
i aceae
en vironment
Ġtra pped
omet ers
ĠPh ot
ĠNO AA
Ġlat ent
Ġarch itect
ĠOrgan ic
re i
ĠT ay
ĠD B
ĠD ay
val bard
ĠSt atist
ĠCir c
5 2
Ġgro ss
rough ts
ĠSil urian
d ent
os ms
ĠN et
Ġcomb inations
s outh
ĠSp atial
Ġhypothes ized
od a
ĠN it
velop ed
Ġheter ogeneous
ĠReg ard
Ġdegrad ed
Ġinter mitt
Ġro les
Ġsitu ations
Ġreli ability
an ol
el p
agell ates
Ġconsum ers
Ġpul se
ĠB athy
Ġd ent
ĠM at
Ġfund ed
og ether
ep hal
Ġmonit or
use um
Ġconodont s
n ers
Ġinter bedded
ran ce
Ġnet s
Ġreason ably
az o
ĠTur onian
as se
um ps
Ġman if
ĠNorth west
Ġphyt odetrit
5 6
g i
Ġp iston
Ġg ig
ĠF ield
Ġ197 9
Ġreserv es
in ata
Ġd ives
ĠT erm
oci ation
aus s
Ġland ings
Ġge ochemistry
g rowth
ĠĠ Ġ
Ġintens ities
4 00
ĠV ict
Ġsal mon
ĠAb und
Ġsubd ivided
G S
j a
it ary
Ġgovern ment
Ġlong itude
Ġtempor ary
Ġdeliver y
Ġs ill
Ġc ame
is ely
ĠN N
Ġper p
Ġsl ower
Ġenhance ment
et ric
Ġstress ors
Ġcoord inates
Ġin und
Ġre ly
od ium
ĠSt able
Ġsymbion ts
ffl ffl
Ġre in
op ulation
Ġdi el
Ġconcern s
ĠSur vey
i ac
un it
Ġtraw ling
h ing
Ġv ital
Ġmult id
bre ak
Ġl ighter
Ġ ig
ol ume
Ġr ib
Ġmet rics
Ġtechn ical
O L
Ġn ative
Ġaccum ulate
ĠRec ently
p oor
if ting
Ġout let
ĠY ork
Ġtext ure
Ġinu ence
Ġa ware
ĠS valbard
Ġsp eleothem
Ġmicro zooplankton
ĠBeng al
ĠLit tle
ĠNeogloboquadr ina
i ef
al ine
Ġv acu
ĠM E
Ġmicro fossils
Ġcycl one
Ġgovern ance
O ur
Ġs ieve
ĠCol umb
Ġd ip
ve x
ĠH o
Ġtra cers
ĠTo arcian
Ġapplic able
Ġhydrolog ic
Ġflo ats
Ġbiomark ers
Ġfart her
on ym
ĠM yr
ĠL ik
Ġfl or
Ġmicro organisms
Ġpert urbation
Ġdiagram s
es ian
ang le
ap t
Ġradi ative
Ġpreferent ially
Ġuctu ations
x ic
ur us
erg uel
Ġdynam ical
ĠCF C
C Z
Ġg ram
Ġhighlight s
m aterial
Ġd ur
Ġe cc
Ġg el
ant itative
Ġdi erences
Ġdown welling
Ġcycl ic
ĠFrag il
om erate
ĠP M
Ġauth igenic
Ġca ution
Ġeas y
Ġrad ial
Ġe ct
Ġcl iff
Ġbel emn
ict y
Ġste ppe
Ġpalynomorph s
Ġd rag
Ġg ly
Ġprov ed
Ġ12 00
ict ion
Ġfund ing
ĠEst uary
Ġgraz ers
D s
ĠC ave
Ġpale oclimatic
Ġpul ses
Ġregul arly
h l
Ġn aturally
ul um
Ġcom ments
Ġbi ased
ĠK a
Ġproblem atic
ĠMod ern
Ġf ir
ĠA F
um ber
un n
ĠR ich
ĠMP As
Ġr ins
ĠR MS
ĠIn formation
Ġalkal inity
ĠE M
Ġconfir ms
Ġoccas ional
Ġmeg af
ĠS ic
Ġr y
oflagell ates
Ġpass ed
cal c
Ġjo int
Ġt ank
om it
ĠM T
ĠSp ring
Ġcare fully
n ight
Ġmicrob es
Ġexact ly
o ul
re ated
Ġb ord
Ġtarget ed
Ġsp ite
ĠD el
Ġsequ est
ĠDe velop
Ġexamin ing
ĠA rea
Ġcom ing
ĠL E
Ġdem ersal
ĠSp in
ĠNord ic
Ġc os
Ġm a
el ly
Ġcons picuous
Ġend s
Ġan sw
Ġcl aim
Ġdimens ion
I L
Ġan aerobic
ogen y
Ġdifficult ies
Ġprevail ed
Ġrevers ed
ĠComp ared
ĠSer ies
ĠBio ge
Ġpartition ing
7 2
Ġline arly
Ġclos est
Ġcomb ining
Ġmark et
Ġt ail
Ġd roughts
im od
ĠK am
ree f
Ġar ise
W i
Ġle aving
Ġk y
ier arch
ĠCarbon iferous
Ġc t
ra ul
Ġinit iation
ĠLaure nt
Ġ4 50
ond e
ĠLag rangian
it oring
os ols
ĠL t
ĠL IA
Ġdeb ate
ĠCoun cil
ĠE vent
Ġwe ighed
Ġka olinite
Ġprecess ion
Ġcircul ar
lus ter
Ġbudget s
ĠF ossil
ĠK ey
ostr atigraph
ĠTai wan
Ġp ot
ort hy
op ing
Ġ10 4
ĠVal ues
s k
in ae
ĠR a
Ġro ots
Ġcomplex es
Ġvisc osity
Ġbiof il
Ġmonsoon al
ĠDist ribution
Ġform ulation
Ġro se
Ġcorrespond ed
Ġreal m
ephyroc apsa
ĠPhy toplankton
Ġgastrop od
ect ite
Ġoxygen ation
Ġweight s
ĠFras nian
en est
ĠO man
ink ing
ĠAss ess
dr ates
Ġintrus ion
ĠT ar
Ġlow ered
Ġgrid ded
Ġopportun ities
Ġdise ase
Ġth rust
Ġland ward
Ġaeros ols
Ġcentrif ug
ĠF uture
entr icity
Ġthick er
Ġe olian
Ġsub aer
Ġfree ze
lex and
Ġdiscrep ancies
i ples
Ġis ob
osition al
Ġcoinc ided
Ġsuper imposed
Ġpond s
Ġpreval ence
ĠServ ice
ĠH arb
Ġdist inction
Ġshe d
Ġcorre ctions
Ġmesoc osms
ĠA T
Ġprec isely
ĠBisc ay
ĠChaet oceros
h oles
in id
Ġsp erm
ĠBi ological
Ġabsor b
Ġthor ough
Ġre ct
Ġpredict or
ĠHe in
ĠTh om
sis s
ik al
U E
at ellite
Ġd t
ĠI S
ang u
I D
o ks
Ġal b
ist an
oph ores
Ġsilt stone
ecut ive
as ured
Ġst o
eld s
Ġquant itatively
Ġtempor ally
ĠPA H
ĠConc entr
Ġsymbion t
7 8
m orph
on c
ĠB ottom
Ġim mediate
Ġlow stand
val u
pec ific
Ġed ges
Ġdiet ary
umines cence
ampa ign
Ġc occ
Ġal iqu
ĠE uc
ĠD utch
Ġcent imet
Ġstream flow
Ġtur tle
Ġc and
ed iterranean
it ime
om y
Ġund ers
Ġcontin ents
Ġcovari ance
i ids
t emperature
ĠS ignificant
Ġdel ine
ĠCom m
Ġfit ting
ĠApp endix
F A
k in
ra ft
ĠGra nd
Ġb ould
Ġpor osity
Ġarran g
st ate
Ġsp ans
ĠR OV
ass es
Ġoverl apping
ĠNum er
P D
Ġ0 4
Ġinvol ve
Ġpolychaet e
0 8
it able
Ġpl aus
Ġcor alline
Ġproper ty
Ġobvious ly
Ġc ampaign
Ġl u
Ġsp ill
ist urb
Ġcont rad
Ġrevers al
Ġpan el
f acies
Ġt ab
Ġder iv
ĠSam pling
ater al
Ġpool ed
Ġpick ed
Ġm en
Ġl i
ot hed
Ġcrust s
Ġl et
ĠP u
ro id
Ġe bb
om orphic
Ġline ages
Ġclass ical
oph ora
Ġinst ant
Ġcluster ing
Ġple ase
U C
Ġpro kary
Ġun s
gen cy
Ġconst ants
Ġsyn optic
Ġcontempor aneous
Ġlago ons
y g
Ġch it
Ġconc urrent
br idge
Ġregard less
Ġt it
ad o
Ġsc ore
ann a
Ġrem n
yl v
opol itan
Ġbioturb ated
ĠC all
Ġflu or
Ġlocal ized
ĠSu per
ĠSt ep
ĠPl ankton
Ġmill ennial
dep leted
Ġm er
ĠB ot
Ġdec iduous
ĠAl pine
Ġcontrast s
Ġsurvey ed
Ġsurround ed
Ġsolub ility
6 9
en riched
Ġe luc
ĠE LA
ov ian
Ġagre es
Ġmicropl astics
Ġrecomm ended
Ġrec re
pr int
Ġbre cc
ĠSub zone
Ġpol itical
0 18
Ġc ited
ĠS ul
ĠH um
ĠK ing
ĠRel ative
Ġmanif est
Ġal pine
ĠR io
Ġacc lim
Ġgre w
Ġaccum ulations
rastruct ure
b bles
ot ted
Ġbar riers
wh ile
ĠAssembl age
d es
en vironments
ĠA ptian
ĠD ar
Ġterm inal
Ġresidual s
Ġmetam orph
siss ipp
l ar
Ġm ask
Ġsp ore
Ġsubs et
Ġattribut es
Ġisop ycnal
Ġl ic
ĠL ine
Ġhe x
Ġmicro habitat
Ġfjord s
N P
u eller
Ġs ymmet
xy l
Ġvirus es
st atic
Ġcommun ication
Ġc ro
an i
Ġe ukary
ĠT ropical
oc ha
Ġsc arc
yc le
amet ers
ĠGe or
Ġdo ub
Ġdispers ed
erid inium
ĠGy re
Ġcult ural
Ġrecyc ling
Ġsub c
Ġpale omagnetic
Ġconsider ations
ok ed
Ġhum ans
Ġantarctic a
A nt
f jord
Ġc asts
ĠT ort
oc arp
Ġr ises
Ġ198 4
Ġ ul
Ġs ess
Ġp ock
ay ment
ĠG auss
Ġcop per
orest ation
Ġindirect ly
iph on
M iocene
Ġs ieved
Ġm ale
ĠH L
ĠSp ect
Ġsystem atically
ĠSc ient
Ġinit i
Ġpredict ive
h ang
ol itic
Ġst op
ĠG IS
CO M
Ġmud fl
C carb
Ġex ported
Ġmusc le
Ġw ords
ear ly
ran ge
Ġunder water
Ġinterpret ing
Ġfavour able
Wi FS
b orne
m ium
av ed
Ġattempt s
Ġtrig ger
Ġspectrom etry
Ġwavelength s
k ins
Ġ5 000
Ġsea weed
de veloped
ĠTur k
W C
er as
Ġdiff ering
Ġrepresent atives
Ġchron ologies
Ġelong ated
Ġconstitut es
Ġmineralog y
ĠM ong
Ġsh apes
Ġdi ets
ĠB arb
ĠInd ividual
B I
Ġmole cules
Ġsuscept ible
ĠCC A
Ġhydrocarbon s
Ġace t
c urrent
Ġa u
Ġmoor ings
Ġrh iz
Ġr ule
ap ing
Ġmorph ologies
Ġremain der
Ġmaint aining
Ġl iv
ub e
Ġship s
Ġchalleng ing
d x
Ġgr ids
ĠSiber ia
Ġded uced
ĠP enn
ĠO AE
5 8
d am
in ating
Ġ2 13
Ġint act
Ġcor ing
Ġwet lands
Ġhundred s
Ġunderestim ated
ĠForaminif era
Ġproven ance
W S
a que
Ġb anks
if ers
ĠB B
Ġsc anning
Ġsharp ly
ĠAmmon ia
ra nd
Ġtecton ics
ĠPortug al
ac o
ĠG on
Ġact ively
ĠPro chlor
Ġdig it
v igerina
Ġin version
Ġh o
se y
ĠG ephyrocapsa
Ġdep ressions
Ġdef ining
Ġassum es
Ġart if
Ġpix el
Ġga ug
Ġad s
Ġro w
f it
r ons
ĠE F
Ġ10 1
Ġdo ubl
ock wise
Ġmechan ical
at mosphere
Ġc et
ĠP ic
Ġup well
Ġrecord ing
Ġarchae ological
Ġecc entricity
ĠP ost
Ġsh ark
Ġhyd rate
ampl ed
ĠEuras ian
ĠTex as
ĠColumb ia
Ġt ended
Ġf ring
ĠC occolith
Ġr c
Ġr m
ĠV ir
Ġlig and
e z
h i
in ous
Ġh ouse
Ġinter cept
6 7
Ġem pt
Ġcryst all
Ġbiocl astic
Ġperp end
it ous
ig ration
ef ore
Ġher ring
ĠWash ington
I B
it i
ĠPl atform
Ġadv ective
Ġdiffus e
it or
ly sis
Ġal ae
ĠI ran
ĠE nd
hy l
Ġsign s
opl asm
ren e
Ġsk ill
Ġdiv ision
Ġremark ably
ĠAz ores
ĠMar gin
Ġyield ing
Ġbr ine
ĠEqu ation
O r
ĠS han
ĠE ffect
Ġant i
opro ductivity
Ġfec al
ĠD IN
Ġcons ecutive
ĠSea WiFS
Ġbar ren
ĠSh annon
Ġoper ation
Ġpower ful
ĠMis sissipp
Ġf f
ig r
ac les
Ġadv ected
ĠBed s
in ia
ĠF ar
Ġdec isions
ric e
6 00
Ġphysi ology
Ġram p
and on
Ġreg ressions
ĠK ore
Ġro om
ĠBa ikal
Ġcheck ed
Ġphytodetrit us
Ġg amet
ĠD ra
Ġcateg or
Ġbackscatter ing
s ens
Ġe ect
et erm
ĠB erg
Ġpoll ut
Ġfocus ing
ĠDr illing
ric a
iod inium
ĠPalae ozoic
Ġload ings
Ġwrit ten
Ġdiam ict
Ġbound ed
Ġcompar ative
reg on
Ġdifficult y
Ġsoci o
ĠHein rich
ĠS AR
Ġg ently
Ġal igned
ĠR V
met ric
Ġbo ard
ĠGRA CE
Ġagre ements
Ġang ular
for ce
h ist
Ġat oll
Ġse w
Ġemer ged
Ġdeter ior
5 7
Ġ `
Ġs ed
Ġsp aced
Ġus ers
Ġorgan ization
Ġstra nd
E L
n ed
ĠB I
ĠD A
ĠO A
Ġup dated
Ġdes ic
Ġdown sc
elt as
Ġoper ations
Ġextract s
ĠShe et
Ġv it
ph al
ph idium
Ġevalu ating
Ġm ound
ĠH eter
Ġrel ax
Ġrele vance
Ġdil uted
il oc
ot opic
ad em
Ġlong est
Ġj ournal
Ġaccel er
ĠLo ess
Ġub iqu
Ġo u
ic ate
Ġall ochthonous
anes e
ur ric
ĠL SW
Ġorigin ate
Ġcycl ones
Ġsp ic
Ġbi ochemical
Ġaccel erated
uf ort
Ġdolph ins
imod al
Ġd ashed
Ġre tic
ĠH ill
Ġmic rop
Ġprinc iples
Ġdisturb ed
Ġpublic ations
8 2
ĠTh ough
ĠCl ark
Ġsin ks
at ium
ment ioned
Ġinc ision
Ġout line
Ġdisc ern
Ġtarget s
Ġnest ing
Ġenzym e
Ġdiscontin uous
R D
at ol
Ġland sl
ocer as
ĠVict oria
ĠE C
erm an
Ġemb ry
Ġst em
od on
Ġill ite
sp ring
Ġmigr ations
e astern
ĠProchlor ococcus
p ress
Ġo rogen
ic ed
Ġl ived
ĠA lexand
ĠIncreas ed
asp ian
Ġth r
Ġfil aments
Ġimpro ving
Ġden ed
Ġsuit ability
Ġemer ging
Ġsignic antly
Ġs ight
pl o
Ġcili ates
at ian
ĠT urb
ĠGe el
Ġb all
us hed
ĠPro f
Ġfil ament
Ġred ist
ethy l
ĠApp ro
Ġdy so
Ġast ron
Ġdestruct ion
7 3
Ġcontro vers
c entral
an aly
Ġm olar
Ġl ent
Ġbe aring
Ġcomp ute
Ġinc ident
ĠO regon
Ġrepl acement
ĠAct in
ĠWhe reas
Ġscaveng ing
ĠBea ufort
Ġinstant aneous
ĠA S
ĠB ah
Ġk elp
Ġalong shore
om ial
ĠL ocal
Ġrec ir
ĠInter mediate
ĠBe ach
Ġhyd raul
Ġinh ab
I V
Ġp unct
Ġanalyz ing
Pac ific
Ġ iv
Ġp ter
un i
Ġem bedded
Ġpredic ting
Ġright s
Ġh ierarch
ĠC ount
ĠStr ong
ĠNon etheless
ĠBeng uela
Ġhydrolog y
Ġarr ival
er ia
Ġf ur
ĠR om
end ar
ĠCh rist
ĠChlor ophyll
Ġm il
ust rial
Ġann ually
ĠGu inea
Ġsett led
ospec ies
def ined
H z
h igh
Ġdevelop ments
Ġsepar ating
Ġbryozo ans
Ġsubaer ial
Ġsto ichi
ĠS ens
ĠF acies
ĠD EM
Ġpredomin ance
dec adal
5 3
6 4
ĠA ut
ie ving
ĠInd o
Ġcent ers
Ġcar c
Ġsk ew
Ġconglomer ates
ro us
ĠC ordillera
ĠK T
Ġec onom
Ġ197 5
Ġdrop s
Ġanalog ous
1 20
Ġyoun gest
ĠEuras ia
k ed
Ġco up
ĠH F
ĠW ang
val ue
Ġrecogn ize
Ġpersist ed
ĠLt d
Ġm erg
ĠW illi
ĠMount ain
Ġth re
ĠS ph
Ġcon form
ish an
enn ian
Ġb ag
ĠG rowth
Ġen ables
Ġinter rupted
serv ation
ĠSub sequently
Ġfert ilization
Ġtong ue
en i
ĠC ast
Ġan terior
Ġflat fish
Ġcrop s
Ġont ogenetic
Ġplaus ible
ĠF und
ia z
te en
ĠSo il
Ġconj unction
Ġperpend icular
ĠC S
Ġper fect
Ġent rance
with in
Ġincorpor ate
ĠRoss by
Ġcounter part
Ġfec und
ĠLik ewise
u i
Ġto t
ĠL oc
ann onian
Ġep iphy
Ġmed ia
ĠStand ard
he ll
Ġsc re
Ġmagn itudes
Ġmicrob i
Ġbehavior al
Ġconnect ions
Ġdrif ters
Ġerupt ions
isturb ed
k o
l en
Ġdr iver
Ġgr ant
min ist
Ġgrass lands
if iable
Ġweak ening
Ġarch ives
ymn odinium
Ġass ist
ae a
ĠZ w
Ġview s
f er
Ġv entral
ĠY D
ĠArch ipelago
m b
Ġc u
ĠA V
Ġdist ant
Ġsc aled
Ġmeteor ic
y e
Ġa i
ĠO S
ĠPC B
ĠSpec ifically
Ġaim ed
D uring
c ons
Ġshallow ing
Ġenc our
ash i
g reg
Ġt ight
et ian
Ġact ing
ĠUn like
Ġlith osphere
Ġmar ly
ĠFin n
Ġd ans
Ġp ine
Ġexper t
Ġreturn ed
Ġcoord inate
Ġoff ers
Ch l
Ġrins ed
Ġf its
Ġamong st
Ġmill enn
n ic
or an
Ġcontinu ity
Ġgener ating
ĠDes ert
Ġrespond ents
g r
w id
is ian
ĠD C
ĠO pt
Ġhydrograp hy
i rab
m id
ĠC yp
Ġdepic ted
in y
ĠP od
Ġecological ly
osynt hetic
Ġmollus can
Ġcosm opolitan
ĠTort onian
ĠF er
Ġcl ar
Ġsupp osed
Ġdeterm ines
Ġdetect able
Ġsustain ability
ĠMor occ
Ġincre ments
ĠSymb iodinium
ĠTh ose
Ġfe as
Ġexpos ures
f orest
at ible
Ġs ym
Ġex erc
Ġco here
Ġhtt ps
ĠGeo B
ĠTay lor
ĠA le
Ġcont ours
Ġun able
Ġge ology
ĠMA P
Ġisob ath
Ant arctic
ĠSt e
Ġsumm ers
spec ies
rupt ion
Ġob sc
p ret
en h
Ġres erve
Ġterm ed
Ġmult ip
ĠIs otope
II I
Ġoscill ation
Ġa id
Ġr ug
ĠB ad
ĠAb ove
Ġconcern ed
ĠRh ine
ĠCI E
5 4
M g
Ġm ir
ĠP ed
ĠN d
ĠD a
Ġflood plain
Ġrequire ment
Ġburrow ing
Ġsac cul
ĠM ill
ĠB S
ak ed
ost atic
Ġapp rec
Ġregion ally
Ġcatch ments
ĠPo aceae
r hen
ĠS LA
Ġv es
Ġpar ad
Ġaut ochthonous
uc a
I F
l ife
per iod
ĠD P
Ġunder go
Ġdem agnet
Ġnit r
Ġdiscuss ions
Ġprot ect
ĠBl ue
Ġrestric t
ĠAA IW
Ġsatur ated
1 10
L s
v ity
Ġth aw
us ion
sh ip
Ġexc lude
Ġdiffus ive
Ġammon ite
mar gin
org ia
I ON
ond on
Ġmig rate
Ġcult ivation
Ġdigest ion
Ġacknow led
c her
th ly
amm a
h ab
Ġres emble
ari opsis
rit ic
Ġstress ed
otrop hy
Ġalk en
Ġrout ine
ĠN CEP
Ġch ap
Ġdeterm inations
Ġmicrosc opic
Ġanc est
ĠPhil ipp
m ode
Ġab andon
ĠK ong
Ġar ising
Ġalt itudes
Ġastron om
ĠT un
et al
Ġstation ary
Ġcop rol
Ġemer gence
ĠIT CZ
Ġdiscontin u
Pl iocene
feed ing
o aster
is iana
ĠW m
ident ified
hod es
Ġsevere ly
Ġeuph aus
Ġpreferent ial
Ġthous ands
ĠT C
ĠC luster
ob ot
Ġpalae oclimatic
ampl ing
Ġarran ged
or um
Ġsm ectite
Ġmor aines
Ġsort ing
Ġpl at
Ġbl ank
Ġworld s
Ġresid ues
awa ii
ul ose
ĠC ross
Ġtrans mission
Ġ10 8
Ġphyt oliths
char ge
ilib rium
Ġvalid ated
Ġemphas is
c overed
m L
re f
ĠR A
ak i
Ġpa ired
Ġlast ed
Ġpass ing
Ġfin ite
he t
ĠM R
Ġby catch
ĠF orest
Ġpo res
ĠOcean ic
Ġprog rad
Ġchron ological
ĠW S
col umn
Ġdolom ite
ĠC ru
und ra
ĠB oreal
ĠD u
Ġsequ ential
20 10
Ġfocus es
s ets
Ġde al
ĠW al
io ge
ĠAs ter
osa urs
rect ed
Ġintercal ated
Ġestim ations
Ġread s
G CM
on itic
Ġn om
ĠCarbon ate
Ġturbid ites
O B
ĠM t
Ġwas te
Ġ5 50
uc ing
Ġfore casts
7 9
ĠA ust
ĠM useum
ĠN ature
Ġfall ing
Ġdeploy ments
Ġnotice able
P alae
m arch
Ġ il
Ġ um
ĠT ric
ĠF ive
ĠF ault
Ġfl oc
Ġcr ater
ĠOcean ographic
Ġremov ing
Ġclean ed
ĠTechn ology
ĠE h
cul ated
Ġbl ow
Ġcap ability
Ġ198 3
Ġlith ologies
olid ated
C retaceous
Ġs af
Ġaut ocor
Ġ17 0
Ġsepar ates
Ġmac rophy
ues e
Ġfluctu ation
ĠT op
Ġinter view
ĠK iel
Ġprof ound
ĠLe e
Ġconcept s
ĠAg ain
ĠObserv ations
Ġamphip ods
Ġt ip
ĠS F
Ġst ar
Ġpl ains
ond ol
Ġman ip
Ġhea vier
er b
Ġc ephal
ol at
ĠH awaii
Ġge ographically
Ġexpl oration
Ġantic ip
l ab
Ġd amp
Ġb ays
Ġpro ceed
Ġr n
Ġattempt ed
Ġexplo ited
Ġpix els
Ġobliqu ity
Ġempt y
7 1
ĠT im
Ġsumm ar
ĠZw art
ran g
ĠU t
ĠK n
Ġ15 3
Ġtransport ation
Ġmacro faunal
Ġsqu ares
Ġcarry ing
ĠMag enta
ĠCirc umpolar
Ġthe W
ĠW ar
Ġass istance
Ġdistinct ly
Ġbasal t
emper ate
Ġpredict ors
Ġinteg ral
6 8
ĠS G
ĠP annonian
ĠEx cept
Ġcongl omerate
m ixed
Ġn av
Ġcal endar
Ġund isturbed
Ġ13 5
Ġbed ded
Ġhost s
Ġvect ors
Ġdelay ed
Ġfecund ity
v ari
ĠB aj
ĠB efore
ition ally
ew orthy
Ġshell fish
Ġresid ue
Ġtw ent
Ġtow s
Ġherbiv ores
ĠYoun g
ĠDetail ed
Ġdro pped
Ġarchitect ure
r ight
y i
ĠT H
os ymb
ĠC ya
Ġreg ulations
Ġmat hem
ĠUn ion
ĠIm port
z er
Ġt ry
oc ent
ĠL u
ep th
Ġpres cribed
Ġsew age
2 50
l amin
at ical
ig enous
ĠC ur
ĠL ondon
Ġover flow
Ġ20 8
Ġ25 00
Ġcar ap
Ġmes o
Ġclay ey
ĠMe asurements
Ġmod ify
Ġ19 0
ĠMan agement
ĠCya an
i ency
r ug
r ically
u ing
Ġo c
Ġtra ced
Ġconstrain t
Ġhistor ic
Ġingest ed
ic ated
ĠP resent
ag o
Ġinf ection
Ġocean ica
12 5
ĠGe ophysical
Ġinterglacial s
obacter ial
Ġprecipit ated
ourn als
Ġhydraul ic
E arly
iv orous
ĠA H
op or
ad or
ĠSub tropical
Ġmesoc osm
Ġeth anol
Ġanch ov
he ld
Ġin jection
Ġsp iral
ri p
ĠCor relation
ĠDra ke
Ġsaccul ifer
N e
ĠM ack
Ġdep art
Ġmet azo
ĠPl io
Ġ11 5
ĠIs ra
Ġarch ipelago
mar sh
Ġoocy tes
march icus
Ġl ys
ffect ed
ole cular
ract ing
Ġhorizont ally
cl imate
ĠH all
ass o
Ġso on
Ġgl ut
Ġglac io
ĠPortug uese
M s
p elagic
Ġh ome
Ġsol itary
ocy there
Ġt ion
ĠR CM
ĠK im
Ġunder l
ĠAs h
ĠEc ological
Ġdesign ated
Ġadequ ately
B e
Ġinter d
ĠK l
Ġmicro c
Ġstep wise
ĠSic ily
ar in
ĠM er
ĠP oll
un k
ĠU vigerina
aw i
Ġ) ,
t r
Ġf ate
ĠT D
ĠC oll
ĠIn let
Ġaccess ible
Ġtraject ory
P E
ĠM ain
ĠE RA
ĠL L
Ġcomp ilation
Ġpl ans
Ġindic ations
Ġmicro struct
Ġline age
ĠOr b
ĠM ud
Ġun like
Ġanalyz er
Ġ21 00
Ġparticip ants
m ont
on ical
ĠG H
Ġ198 1
ĠEl phidium
she et
Ġimprov ements
ilian ia
Ġstratigraph ically
Ġr g
ĠW inter
Ġ5 10
Ġampl ification
oflagell ate
Ġencoun ter
Ġse pt
ĠH oriz
Ġinter s
Ġdeterm in
old s
ĠGe orgia
Ġostrac ode
a id
le um
ot emperature
od iscus
ver t
ĠL M
int egrated
Ġmov es
ĠInter val
Ġstri ke
Ġcons ensus
Ġcore r
Ġpalae oecological
Ġexcept ions
ĠCal anus
Ġaer obic
m us
Ġf uc
uct ion
Ġcoinc iding
Ġl ava
ul ac
Ġg ill
Ġst ere
est abl
Ġconc omit
rac ks
Ġpredic ts
Ġcl ams
Ġref erences
ĠSout heast
Ġent ers
Ġann ot
for ced
Ġbran ching
Ġenabl ed
Ġ- -
Ġinvestig ating
iens bachian
it utions
et ies
ist ically
Ġhist ories
Ġopt ions
Ġadapt ations
for ward
ĠMP A
Ġtoler ant
Ġsequest ration
Ġb en
oc r
ĠB erm
ĠF ore
ĠD CM
rop ora
ret ions
oph il
Ġoverc ome
m ember
s and
Ġe ects
ĠI ll
ab olic
Ġpres erve
ĠFragil ariopsis
ic ula
ot ing
Ġim per
Ġun re
ob a
ĠSt ations
Ġmic rite
Ġhelp ed
Ġpseud o
Ġelim inate
ĠAuth ors
c ut
Ġb or
ant ian
ĠIn itial
mar ks
ĠRuss ia
Ġpreval ent
b enthic
al a
ĠB ound
Ġap ical
Ġoper ated
in um
ut a
Ġr ules
Ġsh ores
Ġ19 00
Ġperiod icity
Ġent ered
pr ints
ĠSediment s
Ġautom ated
l iving
Ġd eltas
ĠT ak
Ġh Pa
ĠH ay
ĠR y
Ġar m
Ġtechn ologies
rel ations
Ġfilter ing
ĠThom as
Ġscarc ity
Ġubiqu itous
Ġs on
is er
Ġcom pl
ĠN am
ĠR CP
Ġimp osed
our ces
Ġterm ination
Ġsubs amples
ĠM N
ĠP lant
are a
ĠHimal ay
at ul
Ġc ity
ĠT est
Ġcl am
ins ic
Ġmicro fossil
Ġfossil iferous
Ġabrupt ly
eren n
Ġb og
ir ing
Ġk arst
ry s
ores cent
otyp ic
Ġsubstr atum
ĠLe vel
Ġprogram me
Ġcircum st
D OM
Ġd end
ĠM W
ĠM orph
The re
Ġsynt hes
Ġpi eces
er ic
ac a
ĠM ajor
ĠO per
Ġanaly se
Ġbore holes
ogram s
w arm
Ġb ic
Ġm M
ĠS Y
ĠF L
Ġdisc overy
ĠCO N
Ġhem isp
Ġsmo othed
Ġinhib it
Ġintegr ating
e ffect
an ish
ĠP II
pl ant
ment ed
ivid ing
Ġlith ogenic
Ġsimpl ified
ĠPrec ipitation
n el
ul ed
ith us
Ġlow land
Ġsl ab
Ġgo als
Ġrecre ational
a ffected
Ġd ut
Ġwe athered
Ġover w
Ġmet res
Ġbehavi ors
Ġcollect ing
Ġlago onal
ĠAssess ment
n et
Ġl ept
if ted
ect onic
ort ed
ĠD is
ĠG ran
Ġins ect
Ġpalae oclimate
Ġopp osed
Ġeff lu
b ro
Ġprov ision
Ġge ophysical
eng u
Ġenzym es
Ġprol ifer
d s
Ġco exist
Ġdist illed
Ġgeneral ized
Ġnort herly
Ġ197 6
ĠPalaeoclim atol
Ġdiscard ed
ĠD F
Ġact s
Ġmagn ification
Ġgu ild
ĠPor ites
B C
Ġd well
Ġinst ances
Ġox ide
ĠLe vant
Ġoutc omes
Ġdest roy
Ġnemat ode
Ġf illing
Ġmod est
Ġexc luding
Ġsn ail
Ġshrub s
ĠB ern
ĠPl iensbachian
Ġcolumn s
Ġwork ers
erc us
Ġgovern ed
Ġnam es
Ġadvant ages
O ligocene
h oriz
s acchar
Ġo oz
ĠR i
hy nch
ĠCon servation
Ġcomput ation
Ġresembl es
n at
v as
Ġc ements
ion ts
ph i
au x
Ġposition ed
Ġintro duce
ĠStud y
Ġmit igation
5 9
d om
Ġmat rices
Ġnit rite
Ġrepro duced
Ġwood land
ĠLag oon
Ġdrif ter
Ġvolcano es
Ġinterst adial
Ġinfl ata
Ġdyso xic
g rass
u ro
Ġp it
Ġp il
od y
Ġrel ates
br id
Ġmanag ers
Ġsynt hetic
Ġpump ing
t ures
Ġn ull
iv ate
st e
ass a
Ġall ocation
Ġter rit
ĠMc M
Ġbiomark er
O p
Ġs ig
Ġh ole
Ġh uge
ax is
Ġinf rastructure
Ġcomput er
ĠPD O
Ġtour ism
ĠP han
ust ered
Ġdifferent iated
Ġenhan cing
Ġacknow ledge
Ġarb itr
Ġtribut aries
elds par
C L
E T
w et
ĠM arm
ĠM uch
ĠP res
ĠB A
ri o
Ġvis ually
Ġampl ified
Ġexch anges
o e
Ġ ib
ul aria
ra red
ĠP s
Ġdeep water
ĠPro top
ĠCom b
Ġdivers ification
Ġfert il
b ank
s qu
ĠA x
Ġsp ik
ang er
ia o
Ġair sea
ĠSpec imens
t ar
Ġo ct
ĠH aw
ass id
Ġview ed
rep resent
c us
Ġse al
Ġeven ness
ots p
ĠMet hod
Q u
m ix
w al
Ġf u
ul of
ĠL ands
Ġle gal
Ġdomin ating
pec ies
Ġcomb ust
Ġreconstruct ing
Ġrepro duc
ĠPhy sical
Ġshel tered
Ġmit ig
Ġgi ant
Ġt undra
Ġop in
au pl
ĠIP CC
Ġgener ations
ifer ites
Ġtu ff
am ell
est ic
Ġwas t
Ġit er
Ġtrans verse
Ġcur v
amet ric
ĠCon vention
Ġden otes
Ġexception ally
Ġsup ra
ĠPrim ary
w ar
in ted
Ġm uc
ĠC aspian
am an
ĠM M
ĠD ef
Ġy ou
Ġ10 9
ĠCol orad
ĠEarth s
d z
j o
ĠP G
ĠF actor
Ġch art
Ġphyt olith
Ġretrie val
i id
Ġpro jection
ch at
Ġcomp act
ĠV ery
Ġyear ly
Ġthin ner
ĠBi ology
Ġexhibit ing
Ġm ont
ĠP alyn
Ġch ains
ier ra
Ġpost ulated
Ġfin anc
ĠHP LC
ĠDevelop ment
a uc
ĠS arg
ĠN CP
Ġmain land
Ġ11 3
ĠAc ropora
Ġmigr ating
sch ia
wid th
ĠM ax
ĠD ON
Ġever green
Ġcycl icity
Ġpatch y
ĠMass if
Ġtent atively
Ġearthqu ake
in ite
oc occolith
ĠI M
ĠI tal
art ic
Ġreg ressive
Ġisotop ically
Ġrain y
agell ate
ĠCom mission
Ġattribut e
Ġpelagic us
Ġhom ogeneity
Ġbr ight
ush ing
Ġgrap t
7 4
M iddle
d iversity
lud es
Ġ15 1
Ġmult ic
Ġha pl
Ġh ab
ĠB rown
Ġpl astics
Ġmar ina
ĠJ J
Ġdominant ly
Ġammon ites
Ġestablish ing
osaur us
Ġnic hes
ulof enest
F T
ul has
ag i
ric t
Ġorgan ized
Ġtra it
Ġsouthern most
ogn ath
och ond
ord inate
Ġfragment ed
Ġdev ice
Ġnemat odes
P ermian
U T
Ġc ul
Ġf ern
Ġp ec
Ġ2 20
ĠF jord
ĠN ia
ĠH oll
Ġdown core
Ġins ignificant
Ġexplan ations
ĠMod els
ĠGCM s
Ġdissimilar ity
d ata
Ġh ous
pl ay
ĠE L
ph ase
Ġexp ress
of oid
Ġpoly g
Ġox ides
Ġfluctu ating
Ġcoll ision
Ġaggreg ations
Ġcryst al
ĠSpin iferites
s ki
z y
ĠL B
Ġnot eworthy
Ġro ute
Ġpeak ed
oph ore
rosc opic
Ġvalid ate
Ġcomplement ary
Ġvill age
: :
d ish
er ozoic
ec onomic
Ġc ode
Ġf ell
Ġm ind
ĠH N
Ġtax onom
Ġfin marchicus
Ġgig as
Ġb inding
Ġm ach
ĠC hes
ĠW at
ĠAt las
Ġ18 00
hip s
ĠTE P
Ġthin ning
angu age
f eld
t emporal
ĠT yr
ĠN an
ĠSp anish
ou pled
Ġprevent ed
Ġfail ed
Ġbrief ly
Ġchit in
Ġcon vex
ag a
ĠH irn
iz able
av ailable
Ġep ic
Ġlink ing
alk anes
be it
Ġregen eration
et e
Ġn evertheless
Ġch ose
ĠL S
Ġpr int
uc as
Ġturbid ite
d ry
ĠP N
Ġj elly
ĠVol can
emper atures
AB W
ro lled
ra e
Ġv ial
Ġcomp ares
hem eral
she ll
Ġaff inities
Ġwavel et
Ġmeaning ful
ar ith
ĠT ow
Ġn omin
Ġcl ustered
Ġval idity
Ġwarm est
Ġmud s
Ġalter ations
Ġrad io
Ġdelta ic
Ġsoci ety
Ġtrough s
Ġdoub t
ĠGauss ian
d ried
i ella
Ġs ard
ĠC at
Ġbe ar
Ġneg lected
Ġmacro fossils
ĠCar olina
ol er
ĠM aine
Ġund erestimate
ophy cos
Ġprog radation
Ġhard ly
ĠAg ulhas
Ġprotoc ols
ĠColorad o
Ġc asc
ĠF il
mon soon
Ġcolon ial
Ġcult ured
Ġcomput ational
Ġrece ive
Ġincre ment
Ġt anks
ion t
ĠL et
ĠTh ird
ĠMar k
ĠVari ations
ĠArt em
N D
Ġc ast
Ġf i
ur on
Ġdi erence
ĠSc and
ophy toplankton
arv ation
Ġcloud s
Ġdesic cation
Ġs ider
Ġc i
Ġp erenn
ot en
ers ion
Ġ15 2
18 1
CD IC
Ġepib enthic
Ġorn ament
Ġupwell ed
rom e
Ġr r
ĠB on
Ġun ch
Ġserv ice
ĠPhan erozoic
M ay
it anian
an ical
Ġm and
el in
ĠT ra
Ġst al
ast rophic
ĠSecond ly
Ġinn ov
ĠMississipp i
Ġautocor relation
ĠF P
Ġper me
Ġper ceived
ox id
rm inger
Ġreact ive
Ġvertebr ates
Ġinvas ive
Ġmeio fauna
w alled
as ters
Ġbel ts
ĠCom mon
Ġarg ument
Ġmorphological ly
itz schia
Ġiceberg s
b and
u it
os um
op ora
ĠSediment ary
iffiffiffiffiffiffiffiff iffiffiffiffiffiffiffiff
f raction
oc ian
ri z
ell ites
ll ing
Ġorgan izations
Ġpe bbles
ild ing
Ġattribut able
ux es
Ġrecru its
Ġoxid ized
Ġumb il
c r
r ating
Ġh otsp
ĠG D
ĠShe ll
Ġver ified
r ations
ĠT od
om ass
ut um
Ġab ras
Ġhum ic
ĠMS FD
Ġcut ting
Ġb ir
os al
Ġas cribed
ost a
Ġfl anks
Ġinf erence
end s
Ġtop ic
Ġcorrect ly
Ġaccommod ation
ĠZo ophycos
Ġcl ades
Ġref ract
Ġpale oecological
Ġexcept ional
Ġechinoderm s
f in
ĠP ot
Ġsuggest ion
Ġshif ting
Ġseagrass es
Ġstraight forward
ondol ella
L P
ĠD icty
ak h
ru it
Ġthickness es
Ġster ic
ĠGP P
ryst all
ĠBerm uda
ĠT ok
Ġqu i
ĠRes p
Ġmineral ization
Ġsurv ived
Ġorb it
ĠBrazil ian
Ġmammal ian
press ure
Ġanchov y
M n
ĠS we
ĠC as
ale vel
Ġsever ity
Ġ00 31
ĠJapan ese
Ġide as
ĠMur ray
h ard
er ian
Ġw edge
ral tar
ĠSum mer
Ġencrust ing
ĠMarm ara
Ġf ires
ĠC e
ĠL ight
Ġinf erences
Ġdifferent ly
Ġep hemeral
12 00
other mal
bb le
isk in
Ġbelong s
Ġship board
ĠSl ope
ĠWood s
s ylv
Ġw rote
ĠI rminger
ĠN eg
ĠJ ones
Ġsout herly
Ġj ud
ĠQu ercus
Ġoper ate
ĠMon soon
Ġnest ed
Ġris ks
c hemical
y o
z n
re ement
ver tebr
Ġcomp atible
Ġreg ulated
Ġcontamin ated
Ġbox es
Ġwester lies
ĠCam bridge
Ġp engu
Ġe u
ĠS ec
Ġident ity
ĠSA F
Ġhem ipelagic
Ġexplan atory
ĠCibic id
018 2
chat ka
w ester
Ġg ate
ĠC ustomer
ĠR ad
Ġcorrel ative
ĠZ ones
Ġatt achment
Ġ197 7
ĠCom ple
ĠRich ard
c ription
Ġp s
ĠF r
act inian
Ġsurv iv
Ġver ify
Ġassign ment
Ġcondens ed
ib ly
Ġsc al
ob enthic
Ġap plies
Ġdeg lacial
Ġdevelopment al
Ġsubst ances
ĠSwed en
in av
Ġd ino
Ġp ione
im ic
Ġst ay
Ġsh aped
Ġres in
Ġcomp action
Ġnorthern most
Ġcirc les
ĠEv olution
I t
R a
d welling
m elt
Ġo ption
Ġm osa
Ġe el
Ġst ir
ros ion
Ġoutc ome
ĠCarpath ians
ĠConcentr ations
Ġd iving
Ġe ury
ĠJ ames
oz one
ĠBl anc
mod els
Ġlob es
in f
Ġb enth
Ġe igen
Ġst agn
Ġshallow est
Ġcomposition al
Ġcross ed
ĠPseud o
Ġmetam orphic
m aking
ĠL y
isc o
Ġcross ing
Ġlog arith
Ġhelp ful
Ġalkal ine
ĠGib raltar
Ġw ack
il er
Ġexper iences
Ġsqu id
p at
ic um
Ġh unt
Ġpro ve
ĠB ox
Ġor ig
ĠE E
ĠR C
Ġindividual ly
Ġdef icit
Ġill um
Ġdiscrim ination
ĠSah ara
Ġgaug es
Ġtot ally
Ġp et
Ġb if
ut t
ere y
ĠP ont
ĠI dent
Ġocean ography
Ġprob e
ĠPro cess
ichn us
Ġsymb iotic
ĠFran c
Ġdinocyst s
ĠOst rac
g un
ĠA k
ĠI B
ch annel
Ġdr astic
Ġbar n
ĠPer cent
Ġbioge ochemistry
ĠC ontin
Ġun less
Ġsub tle
ĠAn y
ophyll um
Ġostrac odes
ĠPS II
ĠMo ore
N orth
r one
z i
ĠS ix
iz er
Ġimp r
Ġ14 6
lor a
ĠQ ing
Ġseem ed
Ġesc ape
Ġin lets
ĠF ac
ĠK en
Ġpr ist
over ning
Ġ11 1
Ġweak ened
Ġbuoy ant
Ġharm ful
Ġlens es
Ġsuc ceed
Ġarrang ement
ĠM ann
Ġcal ving
Ġsens ible
Ġorigin ates
19 90
Ġinteg rate
200 9
ĠSO I
ĠBet ula
ĠN ann
Ġdep ocent
Ġeffect iveness
Ġagre ed
Ġax ial
Ġharvest ing
Ġd ividing
ter ozoic
ĠD al
ĠBay esian
Ġevapor ites
equ ilibrium
Ġaddress ing
ĠEm iliania
ĠPear son
ĠFam ennian
Ġ14 4
ĠLe v
ĠSpec ial
Ġharb our
Ġrud ist
ĠIsra el
W s
n am
Ġp its
Ġv on
ĠL ess
ber gen
eg o
Ġlo op
Ġclass ic
Ġbo at
Ġpen insula
d ate
iv ered
ot ely
ĠO R
Ġ10 2
Ġnorth wards
Ġcomb ine
Ġlab eled
rab en
Ġhour ly
exp ected
ĠPatag onia
Ġc usp
et a
Ġfor c
Ġst arvation
ĠI O
ĠD own
hy de
Ġnot iced
Ġtrans it
Ġwhere by
reg ulated
Ġtun a
Ġmeand ering
Ġstrict ly
ĠMorocc o
ĠCibicid oides
d iff
j i
r ites
at on
ĠM O
ĠM ak
Ġal beit
Ġsp ent
Ġse alevel
Ġbas es
ĠK h
ĠK al
Ġglacial interglacial
Ġhyp oxic
lat itudes
Ġsulph ate
Ġhaz ard
ĠPic ea
ĠAle ut
le an
ĠS ize
ĠM ol
ĠL es
Ġap atite
plic ation
ĠPro g
Ġquant ifying
met hod
Ġproper ly
ĠSP E
Ġseep age
Ġseab irds
Ġkind s
Ġfab ric
S c
Ġ }
Ġf al
ĠA OM
Ġr ifting
ari ans
ph aera
Ġ14 7
Ġ14 9
Ġbiological ly
de hyde
omm unity
ĠDan ish
Ġincons istent
Ġsporad ic
Ġcohere nce
Ġpec uli
ĠP ER
ros p
Ġret ain
ĠNA SA
Ġsilt stones
ĠAM O
Ġemphas ized
8 00
Ġco iling
and a
Ġar che
Ġdemonstr ating
Ġutil ize
ĠMont erey
Ġqual itatively
Ġaper ture
ĠScient ific
Ġconcomit ant
Ġwast ewater
y re
Ġs ized
Ġb b
et es
ĠN oth
ĠW P
Ġclear ance
Ġfav ored
u ated
en es
Ġf rust
Ġh am
Ġg ained
Ġsp ur
ace ments
Ġobserv ing
Ġobl ique
Ġinhabit ing
Ġintermitt ent
g lac
t ail
an cing
ĠM eg
ĠN I
ĠN iskin
ĠH AB
ĠG R
Ġsc all
inc ial
Ġdin osaur
Ġshore lines
Ġang ios
Ġnest s
ĠAlb oran
Ġnutr itional
ĠS ep
Ġbi ogeography
Ġ6 000
Ġmat ched
ĠRegard ing
ĠMong olia
ĠBound ary
n us
Ġp ere
Ġle ave
Ġdem ands
Ġpalae osols
Ġmanag ed
Ġfacilit ated
Ġinund ation
f ull
k g
ĠW M
Ġdi ameters
Ġ10 7
ĠPe ak
Ġstrengthen ed
Ġthous and
Ġexped ition
Ġflor as
E s
Ġ \
Ġmat uration
Ġobt aining
ans en
Ġdem ographic
ĠChl a
Ġaccomp any
Ġpollut ants
Ġc ort
ĠC limatic
ac ul
Ġste eper
Ġdel ivered
Ġoverl ies
Ġand m
ĠC ab
ore g
ĠW all
ass ing
Ġmar itime
iron om
Ġwh or
Ġlamin ation
Ġammon ia
ĠAM OC
itz er
Ġcompens ation
ĠScand inav
Ġt ons
Ġc ub
Ġto m
ĠA ABW
Ġim plied
Ġbi osphere
Ġext rac
Ġdeep ly
Ġcat astrophic
ĠST F
Ġvort ex
ollen ites
ĠIndones ian
ĠMeteor ological
ĠStatist ical
A D
b ot
l ide
Ġt ask
ĠA ren
Ġv ig
ĠC ad
ĠP i
ĠR ay
Ġacc om
Ġ8 50
ind ustrial
Ġemphas ize
Ġot oliths
Ġly ing
ĠCalc areous
Ġmineralog ical
Ġdolph in
7 00
c d
x t
z a
Ġt id
Ġc ock
Ġh ill
Ġare al
Ġon wards
ĠI onian
ib ration
Ġconsid ers
Ġprim ers
Ġreport ing
Ġmit ochond
Ġhouse hold
Ġs odium
Ġd icult
ia e
Ġpr ism
par ametric
ĠMc C
ĠAp art
ĠRadi olari
c omp
s im
Ġco ating
so ur
Ġmig rated
ĠBul imina
bal ance
ĠKam chatka
ĠWilli ams
ĠHirn antian
W h
Ġa f
Ġv a
ĠM ap
ĠB en
ĠF ort
Ġle aching
ĠSub antarctic
Ġfav oured
ĠForaminif eral
Ġorig ins
Ġo oids
Ġdevelop s
Ġsil ts
ĠAc adem
Ġcrypt ic
ĠSarg asso
M L
Ġp ico
rom atic
Ġconcentr ate
ĠZ hang
ĠCol le
Ġdraw down
Ġign ored
abs ence
s amples
Ġc ensus
Ġp su
Ġm ur
op eration
ĠL ou
ĠR ober
Ġresult ant
ire ction
och astic
Ġincorpor ating
w all
ĠP ter
Ġse ism
Ġnot ing
ĠK ara
let in
Ġsilic on
Ġcoll abor
ĠSM L
U n
in ell
Ġim aging
ox anthin
Ġbacter i
Ġlif et
Ġpath s
ĠScot land
Ġunderestim ation
Ġstrengthen ing
Ġgeomorph ological
Ġneighb oring
erguel en
Ġdeterior ation
Ġastronom ical
ĠAleut ian
Ġt il
ul is
ĠA W
ĠD iversity
ĠL am
ĠG ar
ĠIn vest
Ġhal ocline
Ġdirection al
ĠLag o
ĠMal awi
ĠPr inc
ĠT al
Ġst rait
ĠH ipp
Ġaltern ation
urt is
ĠDiss olved
Ġmathem atical
ĠItal ian
Ġm ere
Ġsp ot
ĠO t
Ġgen ome
Ġar ises
Ġmat ches
Ġvol um
Ġcap abilities
Ġeven ly
asc ar
Ġunus ually
Ġp ink
ĠS ak
Ġg ent
Ġdef orestation
Ġser p
Ġred dish
bed s
Ġcoll aps
Ġisop ycn
idel ines
b ell
Ġo ven
Ġw in
Ġth ink
ĠM J
ĠL ike
Ġreg ulating
ank ov
Ġwell s
Ġter ran
Ġut ility
Ġdimin ished
enh agen
ol f
Ġn aupl
ĠM OW
ĠD V
ĠSt ein
Ġinvest ment
olith ic
Ġlab or
Ġpass es
Ġaggreg ated
ĠMad ag
p et
Ġg overning
Ġsh ipping
Ġins ects
Ġprior i
dep ositional
Ġcompet itive
Ġmob ility
roph ot
Ġinert ial
j er
ĠWater s
Ġnm ol
Ġbiofil m
Ġch ance
ag m
Ġsol uble
Ġfisher men
Ġpoly mer
Ġground ing
ump ing
Ġserv ed
Ġoutl iers
H R
res olved
Ġ3 10
Ġper i
Ġrel ict
ob ioge
Ġra ys
Ġinterest ed
min eral
Ġaccept able
Ġexpand ing
Ġunch anged
U R
Ġs iphon
um ulation
ĠSouth west
Ġprinc ip
Ġant ib
rat io
Ġfinanc ial
ar ry
ĠP otential
ĠG overn
Ġun equ
Ġconc retions
han e
Ġbottom s
Ġ197 3
Ġ197 8
Ġspic ules
Ġaccom pl
Ġdispl aced
ĠAb out
Ġang les
Ġhomogen ous
ĠAO U
Ġtransp arent
Ġkil ometers
T i
s ample
ĠT ogether
ĠD ic
Ġge omorphic
Ġsens u
Ġprom ising
Ġult ra
Ġwrit ing
Ġstratigraph ical
per ms
Ġch alk
ip es
Ġcor all
Ġbi ome
Ġec o
Ġed uc
ru ce
Ġdoc uments
Ġprior ity
Ġarg uments
Ġsuper f
Ġpolyn ya
Ġforc ings
M editerranean
z es
Ġh urric
ĠS atellite
Ġcell ulose
Ġday time
Ġlag s
200 5
Ġgu ide
ĠC ell
Ġad verse
por ites
Ġtri angular
ĠPrec ambrian
ĠCle arly
Ġmegaf auna
ĠLands at
Ġan atom
Ġr ic
ĠF R
ĠK erguelen
ĠV eget
Ġdef ines
Ġrestric tion
ĠMon itoring
Ġanomalous ly
ĠJohn son
Ġinhab ited
wester ly
f ound
k ton
Ġl un
ig u
ĠN M
ĠL ocation
Ġinter play
Ġ7 50
Ġmat ching
Ġi i
Ġatt ract
Ġcontinu ing
Ġot olith
ĠCop enhagen
Ġb us
ess ion
ip ment
Ġadd itions
rit arch
Ġ23 9
Ġmed iated
ĠArch ae
Ġcircumst ances
o ys
ro f
ore r
ch y
Ġtraw ls
assid ulina
x i
or ient
Ġp rice
Ġg all
Ġor ange
ĠU r
ator ies
ĠEP S
ĠLim n
Ġcyan obacterial
Ġartic ulated
Ġscler actinian
Ġpercept ions
ĠM I
ĠM ang
ĠW ork
log ical
Ġwood y
trans formed
oco en
Ġs ay
Ġst yle
Ġind ist
ert rei
Ġmethod ologies
ĠCol omb
ĠIndones ia
t i
Ġs ent
ĠT en
ĠA st
ac le
Ġdec ap
Ġ15 4
ĠAb s
Ġuniform ly
Ġleg is
ĠIr ish
ĠPenn sylv
Ġe asterly
ot st
ount ed
Ġstructure d
Ġmagnet ostratigraphic
Ġinsp ection
Ġthre ats
d ist
es h
Ġb ird
om ys
ĠC ontinental
ĠO y
Ġrel ies
ex ts
Ġcr it
Ġcalc ified
Ġsumm it
ĠPar is
Ġreview s
Ġharvest ed
Ġfir m
f il
j e
Ġl ists
us ed
ab oration
Ġch im
Ġ3 20
Ġsub mitted
Ġprof unda
ar l
Ġre nd
ĠL ater
ĠG E
Ġfl agellates
Ġinf auna
ont al
Ġ20 50
Ġj ournals
Ġrequ est
ok es
me asured
Ġlandsc apes
Ġa z
os ilic
em atic
ĠP ak
ĠI SW
ĠW a
Ġdiss ip
Ġech inoids
at i
ere l
ĠC ro
Ġphys ics
Ġs olved
Ġst ochastic
Ġare n
Ġsp l
ert ed
Ġdifferent iate
its bergen
Ġaddition ally
Ġchlor ite
Ġinst itutions
Ġcult ivated
Ġreal ized
Ġreserv ed
Ġfault ing
ĠBul letin
Ġalign ment
Ġperenn ial
m ain
Ġd on
Ġre ality
el ev
Ġg amma
Ġas ter
ĠP ra
ap rote
ene z
Ġpale oproductivity
Ġ24 0
Ġpoly sacchar
Ġden ote
ĠDisc oaster
Ġintr insic
i ents
ol on
ĠP etro
ĠE chin
ĠD D
ib e
ĠK el
ĠMar sh
Ġdisc ipl
ĠSe e
uf act
Ġextrap olation
ĠOff ice
E ocene
N E
Ġin versely
ĠA ir
ĠL akes
ĠR F
Ġpalae ogeographic
Ġnumer ically
Ġcolon ized
bre vi
Ġpel let
Ġsmooth ing
Ġlob e
Ġtribut ary
ĠNumer ous
fjord en
P P
ĠT or
Ġus er
Ġus ual
osit ive
Ġprec urs
ĠPro b
Ġ17 7
Ġconsequ ent
ĠR etic
ill ion
ach ron
Ġ19 30
Ġsc r
ĠV ill
Ġdatab ases
G B
ut ri
iv ian
op t
ĠE R
ĠR ather
Ġcomp art
Ġrem an
sl ip
sum mer
Ġsho aling
ĠCy per
ĠEstim ates
ĠProtop eridinium
ĠMadag ascar
Ġb atch
Ġlead ers
ĠEn ergy
ash io
Ġbio her
Ġpropag ate
Ġpert usa
Ġsn ap
ĠHist ory
ager rak
Ġencl osed
Ġw t
im n
Ġde aling
Ġcl ast
Ġun g
Ġqu inqu
Ġshore face
Ġemer gent
Ġsav anna
Ġm al
ĠM end
ĠD H
Ġmethod ological
Ġterm inus
fish ing
Ġpresum ed
Ġfle et
Ġbould ers
e en
h r
ur do
Ġsup plies
ĠPa ul
Ġherbiv orous
ĠTasman ia
Ġdut ertrei
p red
ĠC ry
Ġcomp ress
Ġun expected
ĠWhe ther
Ġsess ile
el le
ĠO d
Ġsim ulating
Ġgen otypes
Ġar rows
Ġ28 0
Ġbiocl asts
Ġcand idate
f ood
as is
and er
ĠR S
Ġen um
ust om
enn a
ĠAR M
Ġ196 1
ĠSa hel
Ġstim ulated
el a
ĠB elt
Ġcan onical
amin ation
ha ust
Ġconf lic
ĠCan ary
ĠFirst ly
Ġmollus ks
Ġcarniv ores
Ġdownsc aling
ankov itch
I s
c ens
d ensity
as ma
ĠT W
ect ral
ĠB ray
Ġrepeated ly
l ock
o o
Ġc res
Ġd rained
om ot
ĠJ G
Ġrem otely
Ġdiss ol
Ġve hic
iol us
in ting
pl and
ade qu
ĠAd v
Ġcre ation
Ġtrack ed
Ġplan es
ĠSw itzer
Ġdrif ting
Ġelong ate
Ġhold s
Ġansw er
f unction
Ġa ug
el ing
ĠT aking
ĠC he
Ġ14 8
ĠY ear
yr t
ĠSp itsbergen
Ġfore land
Ġcommerc ially
il ized
uch i
Ġ11 4
Ġcaus al
Ġcre ates
Ġspecial ized
Ġcoccolithoph or
Ġpow der
Ġ2 60
reg ions
Ġsw itch
Ġcare ful
Ġredist ribution
em pl
ect or
ĠN ile
ĠR ob
Ġinc oming
ard ii
Ġarg ill
Ġrece ives
Ġcav ity
Ġpeculi ar
Ġf ans
Ġsh ield
ĠD M
Ġcomp rom
Ġinc idence
ĠW et
Ġlow lands
Ġdis par
Ġradi ometric
Ġpropag ating
Ġhealth y
ĠFram ework
ĠTurk ey
Ġ ith
ore n
Ġch a
ast ing
Ġrec rystall
ĠK E
ĠSt ra
Ġcharacter izing
Ġmic rophy
Ġrain forest
Ġcy tom
Ġtrad itionally
ĠHu ang
Ġenabl ing
ĠCarpath ian
ĠSwitzer land
ĠH abitat
ous ly
Ġmic rom
Ġtra pping
Ġatt ain
Ġatt ack
ĠAss ociation
ĠCar lo
Ġrepe at
Ġperman ently
Ġn odes
ĠD em
Ġ20 30
eg at
oph ilic
Ġdens ely
ul ae
ĠN utrient
ĠG ood
ĠO w
Ġrec ur
Ġfl oral
Ġman ufact
Ġprom oted
Ġsurf icial
Ġdam aged
Ġag ents
Ġhy brid
Ġdisplay ing
Ġserv es
Ġtox in
Ġmagnet ite
Ġwebs ite
ĠAuth or
ĠSah aran
Ġrecommend ations
hodes mium
G T
Ġd iaz
ĠT ables
ol k
ĠP U
ĠE gg
ĠH ong
ĠL os
ĠIn ner
Ġem pl
Ġfarm s
hol der
Ġcarap ace
Ġstal agm
Ġprincip ally
un ters
Ġpro le
ĠG a
ĠO B
Ġcor ner
Ġgl auc
plic ations
Ġacid ic
ĠEx amples
Al though
Ġrev ision
Ġhatch ing
Ġfeas ible
d is
Ġl ives
Ġvari ances
ĠAl ger
Ġaltern ate
Ġmulti plied
Ġbr idge
Ġoverestim ated
S p
Ġb urning
ĠL og
ĠEx p
Ġclay stone
Ġread er
AS M
Ġanalog ue
encl ature
g one
Ġin adequ
it us
Ġst atic
ĠP ers
Ġunder went
Ġsl ip
Ġge ometric
Ġdetect or
ĠScot t
oul ing
Ġeluc idate
Ġrelax ation
ĠLevant ine
Ġhab its
2 40
Ġand M
ĠP ant
ĠE gy
ont ium
Ġ12 7
Ġlast ing
Ġgrad e
Ġmacro algal
Ġmo ored
Ġincl ination
utri ents
D e
L M
on ent
ĠF ed
Ġinc ised
Ġatt ained
ĠRes ources
ape ake
osph ate
Ġequator ward
ĠDi pl
Ġpenet rate
Ġelim inated
Ġconstitut ed
ulofenest ra
ĠTyr rhen
c over
u vi
on ica
Ġthe most
Ġr DNA
Ġsign i
Ġpr one
Ġequ ipment
Ġoff sets
Ġ11 9
Ġyr s
itution al
ĠDMS P
Ġunp ubl
Ġsubdiv ision
Ġcounterpart s
Ġt ep
Ġv as
ĠCh ap
Ġenhan ces
Ġcement ed
ĠCM IP
ĠComm unity
Ġabras ion
iv ores
Ġsur ges
Ġsub oxic
ĠK ofoid
Ġref ined
Ġ11 00
Ġent rained
Ġpa uc
Ġreveal ing
Ġconfir ming
Ġpalaeo cean
ĠMy til
ĠArtem isia
ĠCyper aceae
C W
c ies
Ġun identified
Ġmet ric
20 12
Ġmorph ometric
Ġlith ologic
Ġdispl acements
Ġchron ostratigraphic
Ġinvas ion
Ġdisag greg
Ġchromat ography
pret ation
d elta
Ġs aw
as ing
ak a
Ġgroup ing
ĠY ou
Ġult imate
Ġperm its
ĠUnder standing
Ġtecton ically
ĠGond wan
ĠTod ay
Ġbif ur
o i
Ġr hod
se ep
ĠF u
Ġ12 3
Ġ11 7
Ġgr ate
au rop
Ġ17 5
Ġpoly carbonate
ĠMe ishan
el es
ĠS in
ĠS em
Ġob lig
Ġ20 7
Ġlith ostratigraphic
Ġparameter izations
ĠMart in
ĠDiatom s
Ġh or
xim ately
ĠIs otopic
Ġlog s
Ġperm ut
ochron ology
ĠBad enian
ĠTric hodesmium
Ġisopycn als
ĠOy ashio
Ġa ected
Ġal ien
ch a
th al
ĠE nt
ĠG or
Ġ3 25
hy drates
Ġge omagnetic
Ġpercent ile
200 8
att egat
Ġhydrod ynamics
Ġsex ual
Ġinvent ories
Ġtransform ations
uy ama
Ġeukary otic
ĠNoth of
Ġst aining
ĠB W
Ġbi ostratigraph
ish ment
Ġcur l
ou pling
off s
Ġhard ground
ĠCir culation
t emperate
Ġ entr
ĠA gency
ot land
ĠD G
we b
olog ie
eg radation
Ġ197 4
ĠSch iller
Ġrecir culation
Ġnitr ification
ĠChes apeake
b rown
ĠS et
Ġv ice
Ġint ended
Ġqu e
Ġhy pers
Ġbasal tic
Ġobject s
Ġkin etics
Ġlook ing
minist ration
h m
Ġon board
em ian
ĠB R
ĠE lect
Ġab normal
Ġsc arp
ĠJ ava
Ġ11 2
Ġisol ate
Ġupl ifted
Ġmagnet ostratigraphy
Ġgrav itation
cont rolled
Ġux es
Ġglaci ations
S e
ĠA reas
Ġcon ven
ĠD at
Ġspec ic
Ġle ak
Ġbasin al
Ġmechan istic
eros ion
Ġbreak down
ĠMult iple
h and
r ud
am ine
un ic
ĠD iv
ell o
ob enthos
Ġz ir
ĠPl ains
ym pt
Ġcompart ments
Ġd welling
Ġn c
Ġ6 90
ĠAl g
int eg
Ġprof iling
ĠCl ass
rec ipitation
ĠWil son
omon as
Ġaliqu ots
Ġpere gr
Ġt enu
ĠG W
Ġman ually
Ġ16 00
Ġphys ically
Ġoccup ies
ask an
Ġgravel s
Ġsa id
irab le
Ġb ath
ol ate
Ġcon e
Ġsp ots
Ġres ident
ĠO SL
ok e
ĠAnaly ses
occur rence
Ġr d
ĠR ain
act yl
Ġunder gone
oge ographical
Ġ22 6
Ġarch ive
ĠGu adal
Ġglob e
asc icul
ĠIber ia
atul inoides
ĠMcM urdo
O A
Ġre jected
ĠS arm
ec onn
ast ically
Ġk Hz
Ġbi oc
Ġinv ari
ĠAnd erson
Ġprev ents
Ġnod ular
Ġpair wise
ĠHaw ai
F s
p an
et ch
Ġpro of
so ons
ert o
ĠBas ins
Ġfrag ile
Ġinhib ition
ĠNum ber
Ġforecast ing
ĠDetail s
Ġunf av
Ġperipher y
Ġgent le
c ari
l ag
re w
it ors
ig e
ot ax
Ġsu ited
io ides
Ġ14 00
Ġbiom es
Ġshort ly
ĠDr ift
iol is
Ġfres hen
O c
s ics
ĠT rend
ĠP erm
og onal
Ġtre nch
Ġlink age
Ġmang anese
Ġcompens ate
Ġcyt oplasm
ĠRichard son
al ities
Ġnot ion
Ġy our
ree ce
Ġpar v
Ġprob abilities
Ġprim itive
ĠPro ceed
Ġglacial s
Ġgrain ed
ĠNe v
Ġweek ly
com par
Ġlign in
Ġalken one
r ant
Ġ {
Ġm erc
ent icul
om ics
Ġbi ov
Ġcharacter izes
Ġend em
Ġcontribut or
Ġflood ed
Ġcomput ing
ĠCar nian
ĠMac ro
Ġsummar ised
found land
a ur
Ġc racks
an al
os h
ĠC AN
qu ir
Ġhigh s
Ġman age
Ġ22 5
Ġbag s
Ġsurviv ors
Ġm ism
Ġre charge
st ep
ĠL iving
ĠG t
Ġover night
ack le
Ġra y
Ġ16 5
ĠIceland ic
Ġperegr ina
g n
m ade
al ian
ra v
Ġv en
ĠR et
ĠG ymnodinium
Ġ14 1
Ġ11 8
row ing
Ġmorph ospecies
Ġbu oys
Ġpoly p
Ġextens ional
Ġvers a
Ġmethan ol
ĠInt egrated
Ġpic oplankton
ueller st
Ġcoprol ites
Ġextrac ellular
f ront
z ones
Ġt roch
ig m
Ġinc ome
Ġsl oping
ĠAm und
Ġ22 8
ĠSh ort
Ġmosa ic
M AN
u v
ur is
ĠB rans
ĠH M
ĠR ap
Ġac ritarch
Ġ13 00
Ġ15 5
Ġsyn onym
Ġresol utions
Ġshrim ps
Ġtrunc atulinoides
Ġconstitu ent
Ġvacu um
Ġmicrostruct ure
C F
ed om
ĠT rench
ĠC old
ĠM V
Ġex haust
ang ian
eg ina
Ġvi able
Ġrad ar
Ġrespond ed
Ġideal ized
Ġsurprising ly
B A
c limatic
Ġt uf
Ġw ax
ĠS n
ĠC ity
ay er
ĠF ew
Ġsol ve
Ġdens er
Ġconnect ing
Ġly sis
ĠRadi ocarbon
Ġanticip ated
ĠE t
Ġz e
Ġcap ital
Ġbal ances
Ġfac ing
ĠIncreas ing
Ġearthqu akes
Ġbub ble
ĠBacter ial
ĠColle ge
Ġp in
Ġm ild
Ġat ology
ĠH CO
ĠV en
Ġpoin ting
ĠBar rier
Ġdefin itions
ĠMAR GO
ĠPol and
ĠPAH s
T C
Ġcon g
ere s
pl ate
ĠH am
ĠH ind
our ce
par allel
ĠRe yn
L ate
ĠG I
Ġec onomy
Ġ13 3
Ġ12 8
ĠMic robial
ĠEle v
Ġcontrovers ial
ĠFinn igan
Ġlifet ime
l ings
Ġw uellerst
id o
ĠS V
ud son
ĠB T
Ġpl ac
ĠUn its
Ġhel ps
Ġalt imeter
pro cess
Ġstead ily
ĠSystem s
Ġsulph ur
Ġdestroy ed
ĠRetic ulofenestra
y les
Ġp ie
ĠT et
ĠM ari
Ġpro les
ĠF S
ĠR u
Ġen force
ĠV is
Ġlim b
ĠPale o
rosc opy
bo uring
Ġplastic ity
Ġprevent ing
Ġbryozo an
ĠHimal aya
Ġmudfl at
8 181
Ġb it
el ow
ch ange
th y
ven ue
Ġsat ellites
Ġacid ified
IR M
Ġfarm ing
Ġextrap olated
ĠAmund sen
ul ax
Ġde formed
est ones
ug a
Ġsampl er
Ġhydro static
ĠCor iolis
Ġdam s
Ġdetect ing
ĠCompar ing
hyd rate
Ġput ative
Ġbelemn ite
Ġabsorb ance
establ ished
g ers
s ed
t rack
Ġbe ars
Ġappro ved
Ġfun gi
Ġbar c
Ġapproxim ated
ĠVari ous
ĠChar acter
elev ation
ĠP ry
Ġrec urrent
Ġbec cari
Ġspect rophot
T E
Ġre organ
Ġl uminescence
ĠC i
ĠC yc
se e
ĠH yp
Ġopen ed
Ġchlor ide
ĠPer haps
Ġhypothes ize
Ar ctic
D I
Ġb rit
Ġis ostatic
ĠS ing
Ġas ympt
ĠB ack
ĠG reece
Ġimportant ly
Ġfit ness
Ġexclus ion
Ġdescript ors
Ġfres her
ĠMil ankovitch
Ġacclim ation
1 40
L R
W ater
ur ations
ĠA q
st ation
st orm
op ulations
ĠO H
Ġinter c
Ġgl uc
Ġperiod ically
Ġmic ritic
Ġident ifiable
Ġdown slope
Ġlog ger
Ġlamin ations
Ġmagnet ization
ĠSand stone
Ġalb at
Ġumbil ical
ĠL D
ang ered
aly pt
Ġveget ated
Ġsubt racting
ĠMon thly
EN T
Ġpetro leum
ĠUnivers it
Ġengine ering
Ġremn ants
d a
Ġb ins
Ġal umin
Ġr in
ĠU mb
Ġinf rared
Ġqu ot
du cer
Ġag ed
Ġprim er
Ġlink ages
ĠNew foundland
Ġworks hop
Ġneigh bouring
Ġstomach s
Ġasymmet ric
Ġpercept ion
Ġtel econn
Ġjelly fish
ĠVeget ation
ĠTyrrhen ian
at ile
Ġf eldspar
Ġse aled
ĠH T
ĠH ills
ĠK enn
ond s
arch ae
Ġep och
Ġturn ed
Ġplan ar
po ints
Ġdigest ive
ĠForm ations
Ġmetamorph osis
r g
al enian
Ġd z
ĠE CH
ĠE emian
ob ranch
Ġmet hyl
Ġthere after
ok i
ĠQu ant
Ġcarbo hydrates
Ġgon ad
ĠTerm ination
hab d
d istance
m ud
Ġf iber
Ġh ar
oc ument
Ġsp ir
ĠD epend
ĠR H
ell i
Ġint ake
Ġcons ume
Ġge omet
Ġsubstr ata
Ġinver ted
ĠStr atigraphic
Ġintegr ity
sup plementary
ĠVir gin
r ide
v ement
Ġp ent
ĠN one
rem ian
ĠEx c
Ġdiver gent
Ġ196 7
ĠOp en
Ġacknowled ged
V E
b or
u rop
Ġfor age
ĠL ept
ĠG AM
ĠY am
Ġveget ative
ĠSk agerrak
Ġresusp ended
ĠCer atium
Ġunivers a
Ġune ven
C urtis
it ted
el oba
ĠI re
ĠF ood
ĠEx pl
Ġreview ers
icul arly
ĠDS i
Ġshr ink
Ġhomogen ized
" .
m ort
Ġc ess
ur able
ĠS ard
ĠP t
ĠF low
Ġdec ided
hes ive
10 6
Ġspat io
Ġpale ogeographic
Ġeros ive
Ġcoll aboration
de ep
Ġassim ilated
aprote obacteria
d ays
o h
at ina
ĠCh a
Ġ14 3
ather ing
ĠSS U
Ġcoll agen
Ġbreak s
ĠModel ing
Ġsporad ically
ĠDav is
Ġtrilob ites
Ġreproduc ibility
p m
r ative
ĠP in
ve get
ĠD on
ĠJ er
Ġsl ices
Ġpartic ipation
Ġcold est
Ġstatist ic
Ġpossib ilities
ĠFA D
Ġinterf erence
x es
Ġe ux
le aved
Ġst ain
ĠAl askan
ĠFig ures
Ġcontribut ors
Ġherb aceous
Ġdiv ide
Ġprist ine
Ġspur ious
e i
l am
im p
um a
rom b
ist ence
ĠD ong
Ġass ay
Ġmet agen
Ġz inc
ĠSe amount
Ġpack stone
ĠSal t
Ġemb ayment
ĠBoliv ina
Ġcontrad ict
uni per
ĠProceed ings
o ub
x ia
ĠF resh
Ġspec ulate
ĠTh ail
gg ren
Ġro ad
Ġed ulis
Ġunc om
Ġlack s
Ġdesert ification
Ġpure ly
rend ed
ĠSum m
ĠNB C
ocarp us
Ġeuphaus iids
re ll
Ġc ustom
ic ol
ĠM OC
Ġsp ike
Ġbas ically
ĠAr g
Ġret re
Ġdischar ged
Ġsw it
Ġseg reg
Ġbuff ered
Ġoocy te
ĠCong o
Ġfal se
ec ological
st ant
est on
ĠR P
ĠR od
ric k
Ġ7 40
ozo an
Ġhypot he
Ġaqu eous
Ġtri p
ĠLag una
ĠBr un
Ġefficient ly
Ġnucle ar
Ġtrunc ated
ĠVi enna
Ġquinqu eloba
N S
W est
ic ations
Ġcon ch
Ġsp or
ĠW W
ik a
Ġalg a
reg ion
Ġmes otrophic
Ġprot ists
osc iences
Ġbo otst
mic ro
Ġmigr atory
ĠAppro ximately
Ġcombust ion
O I
b oreal
s ections
in ely
ul arly
ĠI ron
Ġsub mers
Ġasymmet ry
ĠEll es
Ġooz e
Ġarbitr ary
p is
in ert
in oid
Ġm ent
ĠP H
ĠF i
ĠD un
Ġ18 7
ĠVari ability
ampl itude
exist ing
Ġcili ate
ĠSwed ish
Ġcarc asses
s aturated
Ġl m
Ġl t
ĠM en
Ġal pha
Ġsub zone
ĠJ A
Ġdu plicate
Ġrout es
Ġball ast
Ġgravitation al
g rid
Ġt uber
ĠS ig
ĠS IM
Ġr u
ch n
Ġ3 30
Ġbi ophysical
Ġsea way
Ġcharacter ise
Ġnarrow er
Ġemer ge
Ġfacil ities
Ġsec urity
ĠKore a
C I
p a
ĠR SL
onom ous
Ġrequ iring
Ġspring s
ĠSch ool
ilt ration
Ġchem o
Ġded icated
run can
Ġdred ging
PD B
Ġson ar
Ġoverw hel
r ates
Ġb p
ĠS ierra
op us
ch t
act ory
Ġ6 50
hed ral
Ġ12 9
Ġpale oc
13 0
Ġdepend ency
Ġglacial is
ĠCon f
Ġavoid ed
cor relation
strat ified
ic he
Ġsh aring
ĠE W
ĠD ol
Ġgen etically
Ġsuggest ions
gen cies
Ġ13 9
Ġcr ude
ĠWh ilst
bas ins
iloc ulata
ĠReyn olds
s ite
ĠC ase
Ġset up
Ġstruct uring
rit he
Ġaltern ations
Ġfin ely
Ġgo ing
Ġmountain ous
Ġdev ices
ĠOxford ian
Ġfrust ules
Ġl id
Ġover growth
Ġfun gal
Ġgener ates
ĠPermian Triassic
ya ulax
Ġdiscrim inate
Ġlib rary
Ġdefic iency
Ġtwent y
he im
Ġl anguage
ot runcan
st on
Ġex hum
qu ality
ĠR ift
ip ient
Ġ10 20
Ġph one
Ġtop ics
ĠArab ia
Ġtag s
Ġcorrobor ated
ĠEs pecially
Ġnom enclature
Ġnomin al
v olume
ir atory
Ġ3 60
Ġlong term
Ġdr astically
AT S
Ġkin ematic
Ġencompass es
ĠUl t
Ġfre edom
ĠAlexand rium
Ġben ch
M O
w ash
Ġcon ifer
ĠL l
Ġfl ight
Ġun su
osp heres
Ġdo i
Ġmicro f
Ġtrend ing
Ġpa id
M IS
f am
Ġp enn
id ites
ĠH udson
Ġcomp an
Ġint ras
ĠU C
ĠU s
aus en
Ġflu orescent
ĠMar s
Ġap ex
ok ing
Ġsuper nat
Ġrece iving
Ġamph ib
Ġfoot prints
ĠGrand e
Ġopin ion
ĠEgy pt
ĠHawai ian
om atic
th rough
ĠD CA
ĠO F
ĠK ir
Ġ20 3
Ġreflect ions
Ġhyp s
Ġ197 2
Ġaqu ifer
Ġol ive
Ġgo es
Ġrobust ness
Ġanalog ues
ĠTherm al
ĠAbund ance
Ġcentrifug ed
Ġads orption
9 00
u arine
Ġ ip
ĠD J
ĠL uz
ill ary
Ġimplic it
opy le
Ġsulph ide
N T
Ġc it
ĠC V
ĠC AR
Ġcomp ression
Ġcore d
ĠSh allow
ĠRel atively
weight ed
Ġt ied
Ġm akers
ac her
ĠP ap
Ġco ated
ĠG er
Ġmod ule
Ġro d
Ġar throp
ophy sis
18 0
ĠAm ster
Ġgu idelines
Ġpan els
Ġevol ving
ĠSequ ence
ĠIre land
Ġch ironom
ĠL V
ĠO N
Ġdisc onform
Ġconsum er
Ġconserv ed
lo aded
Ġpauc ity
Ġb at
ect ives
ir s
ĠH or
ĠR ivers
ĠK r
Ġexc retion
200 6
Ġreli ably
amb iguous
Ġmead ow
Ġoverestim ation
Ġquar ter
Ġquar ry
zn au
ĠAmster dam
Ġd ose
Ġp rices
ĠS unda
ĠC yst
ĠM oz
og lob
Ġme ant
ĠV ib
Ġqu ad
cept ion
Ġra f
Ġterm in
Ġret reated
Ġtempor arily
arp ment
ĠPh ase
Ġtun ing
OF S
Ġinu enced
Ġthorough ly
Ġun affected
ew orks
ina wa
Ġ27 0
Ġflat ten
Ġarb oreal
ĠIC ES
Ġintrac ellular
o a
Ġt ables
Ġh abit
ul in
ĠM as
ant e
pt on
Ġpresent ing
Ġdisc ret
Ġpale ontological
ĠRe v
ump ed
Ġconver t
Ġcat aly
omorph s
lit toral
Ġbring s
Ġom niv
ĠThrough out
ĠGeor ge
Ġaccompany ing
Ġnaupl ii
ĠT uk
ĠS or
rom es
ĠM F
ĠI CP
Ġsub group
Ġmon ot
agn itude
orph ous
20 11
Ġprom oting
Ġmultip lying
ĠS en
ra ys
Ġsub unit
ogen ous
Ġneg lect
ĠQu antitative
Ġbo ats
cl ass
Ġfract ures
ĠHarb our
ibe am
oub ted
r d
Ġs ib
Ġsp ars
ob s
arbon ate
ĠK ef
ĠSt ruct
ĠAr m
Ġnorth south
Ġcent ennial
rit ical
Ġevol ve
Ġhierarch ical
Ġrefract ory
o uring
r idge
ic ulate
Ġp ay
Ġl amell
ĠP g
iz hou
ug g
Ġdis artic
gan s
Ġmin us
Ġag ent
Ġ12 1
te e
Ġexpl os
met ry
ĠAc anth
ĠRel ations
Ġmicropl astic
Ġpow d
c ient
m as
es i
ĠT emporal
ĠH I
Ġpred atory
ie val
Ġ197 1
ĠSediment ation
Ġdistinguish ing
Ġechin oid
Ġseed s
Ġstret ching
Ġstoichi ometry
Ġtight ly
Ġsard ine
ĠPak istan
k alk
Ġp m
ĠF a
ĠF o
ĠD OP
Ġreg ulate
Ġsub glacial
Ġmon soons
Ġcent red
Ġred ep
Ġevapor ite
Ġexerc ise
Ġmitochond rial
P ER
o ard
Ġl s
ĠT OP
st age
ĠE ul
ĠE sc
Ġcomp artment
iz ers
ear ic
Ġun ambiguous
ĠV I
Ġgra nd
Ġdel im
Ġhand ling
Ġ196 5
opod iaceae
Ġtow n
ĠBio zone
ĠLi u
bu ilding
Ġisother m
Ġprolifer ation
Ġcul min
Ġeel grass
Ġmere ly
c ycle
Ġa fore
Ġf if
Ġp inn
ro ve
ĠC ond
ĠC hemical
per t
Ġrec al
rop ics
ew ard
Ġsuggest ive
Ġland s
Ġdiatom ite
Ġexc itation
Ġsummari ze
Ġstake holder
Ġvig orous
b on
ĠT ext
ĠR oy
ost rac
Ġstr ontium
ax anthin
ea v
form is
reg ional
Ġmacro fossil
Ġchemical s
Ġbasal ts
Ġadjust ments
Ġplan etary
Ġped ogenesis
Ġs ing
Ġc art
om s
ĠS ab
Ġst one
ĠI SM
Ġele gans
Ġtop most
ĠCO I
Ġweight ing
Ġevery where
Ġha uls
Ġliv elihood
c yst
Ġg athered
ĠC ores
ĠM iller
ĠG ord
ĠU nt
Ġclean ing
eren ced
Ġregul atory
Ġdiap ycnal
Ġfilament ous
ĠDepend ing
ot o
ĠC ard
ĠI D
ĠO m
Ġcol ored
Ġsouth wards
Ġend ed
ĠST EC
Ġinterd isciplinary
ĠTok yo
ĠRap id
Ġs ut
Ġb ad
Ġv ap
Ġcl av
Ġdis ruption
Ġtrans mitted
ys s
rosc ope
Ġeas ier
Ġexclus ive
Ġunre al
Ġw al
Ġh orn
Ġsu pers
Ġsh aded
ĠN ext
ost om
Ġall ocated
Ġcho ose
Ġbrecc ia
ĠSTEC F
l ate
ĠP ange
Ġunder way
20 14
19 98
Ġsubs id
Ġmot ile
Ġce ased
ĠMin eral
Ġunconform ably
Ġmicropl ankton
ĠPlankton ic
Ġdend ro
ĠAcadem y
orient ed
ĠThail and
G l
L I
b en
Ġc rown
ig ua
ĠS ar
Ġg ulf
Ġco operation
ĠL ST
ĠR un
olic y
Ġcirc le
Ġindu ces
Ġbub bles
Ġbiov olume
Ġuncom mon
el er
ĠM oll
ĠB rief
ĠR os
ĠG SS
Ġthick ening
Ġrecogn izable
Ġrad iance
Ġwatershed s
Ġcav ities
Ġrhyth m
S amples
ar ud
Ġb ol
Ġ2 15
Ġpart ners
Ġdis integ
ĠK L
Ġ17 00
log y
Ġsom atic
lo ad
aut otrophic
Ġtrop osphere
represent ed
M arch
O cean
f ishes
n id
Ġf rost
Ġex empl
ĠB iod
Ġdi achron
Ġresp iratory
Ġro set
Ġphy ll
ĠAr al
Ġcorrel ating
sc ript
Ġtop s
ii ii
ĠSup port
Ġbring ing
Ġhyper b
Ġbioz ones
Ġprokary otic
Ġaccompl ished
o eb
ĠS OM
ĠA ra
Ġsh ading
Ġ13 8
Ġbioge ographical
ĠInst itut
Ġinflow s
Ġsec ular
Ġtit ration
Ġcompl iance
Ġvolum etric
Ġa gencies
Ġw orm
Ġp um
ig a
ĠP ull
und er
ĠH ead
Ġwarm th
Ġgrad ed
Ġinst abilities
Ġassim il
Ġexcess ive
Ġsoci etal
ĠOk inawa
Ġunconform ities
Ġrout inely
Ġ09 21
Ġba it
Ġcampaign s
ĠEffect s
G R
c ontinent
m akers
Ġm ili
un cul
ĠE ASM
Ġpre m
rop y
ĠK ol
Ġ8 000
Ġfoc uss
Ġapplic ability
Ġisol ates
Ġhighlight ing
ocal anus
Ġstromat opor
Ġrig orous
Ġrub ble
ĠBah am
ĠCount y
Ġabandon ed
Ġbacteri oplankton
v ol
en ess
ic ted
Ġf ulf
Ġst adial
Ġas ked
ĠF T
ĠL ing
Ġsea oor
Ġform at
Ġland forms
oz ov
Ġtox ins
ĠPatag onian
Ġchap ter
Ġcrit ically
E x
T wo
c ial
Ġb imodal
ec al
ĠP ur
Ġsea food
end er
ipl ano
ĠProgram me
sup port
encl osed
Ġmerg ed
h sing
Ġh at
Ġcon ifers
ĠC W
ĠC and
ĠC och
oc hem
Ġan ten
Ġsc iences
ĠK attegat
ĠAn isian
sequ ent
Ġconf ound
ĠPro te
200 1
Ġfram eworks
rid or
Ġmollus k
Ġstromat olites
Ġclar ify
vas ive
Ġl aun
ĠC are
ad emic
Ġcont exts
ill o
ust ain
ĠK y
omin eral
Ġge o
Ġra ises
Ġcalc itic
ios is
Ġaccording ly
Ġdin osaurs
ĠRec onstruct
amb ique
ĠComple x
irection al
Ġhypothe tical
d al
er ite
em ann
ĠP el
ri k
Ġ5 80
bl oom
Ġexp ensive
Ġ12 6
Ġdr ives
Ġ17 9
anc he
Ġsyn erg
Ġtarget ing
Ġequival ents
anth us
Ġinhib ited
ĠHum an
Ġinadequ ate
T ertiary
_ _
f illed
or ial
ĠS omal
Ġac ute
Ġmon ospec
ĠPl at
Ġphot ons
Ġalter ing
Ġanalog s
Ġconfig urations
Ġkeep ing
idel ity
Ġcylind rical
Ġhotsp ots
Ġdiscipl ines
i op
w hen
Ġo od
Ġw orms
or able
ĠH om
ĠO P
ang inian
Ġequ als
Ġgroup ings
ok a
ath ian
osph a
ĠWith out
ĠBar remian
cor rected
Ġsuff ered
ĠLine ar
ĠFranc isco
G s
in as
ot ide
ĠC ed
ĠM ix
Ġinc urs
ign y
Ġapp ar
Ġsour ced
Ġexperiment ally
Ġadv ice
ĠCurrent ly
Ġoccup ation
ĠBel g
Ġtow ed
ĠChile an
Ġfract ure
Ġhaz ards
fflffl fflffl
Ġcet aceans
A F
W F
i ensis
Ġs an
Ġo shore
Ġc ities
Ġm s
ĠA E
ĠC orn
Ġsp ha
ĠH aut
Ġfl ushing
Ġsim plic
Ġloc i
Ġact ed
ĠSp ong
Ġapproach ing
Ġgrain stone
Ġov erestimate
pos ium
onn ected
Ġrank ed
Ġcess ation
N W
o is
Ġw aven
Ġm em
ĠS K
ĠS ver
ot te
ĠB arc
ag u
ĠUn c
Ġlith ospheric
Ġvis ited
emb el
ĠCari aco
Ġchem osynthetic
Ġdesert s
Ġdisappear s
Ġhiatus es
ĠGr ant
Ġorth ogonal
Ġmaxim ize
Ġdur ations
Ġartif acts
ĠNev ada
Ġt ang
ĠL is
ĠW ell
Ġmod al
Ġar ine
Ġout lines
Ġcool ed
200 3
200 7
ĠInter glacial
ĠInter ior
ĠAnd ean
Ġdev oid
Ġherbiv ore
Ġtrigg ering
ophil ous
Ġvial s
Ġafore mentioned
b et
he x
as ks
ĠT roch
ul imina
ĠH ard
ĠSt ill
Ġ25 1
Ġconstant ly
Ġcalib rations
Ġtoler ate
ĠAlt iplano
Ġdiscontinu ity
ĠRober ts
oubted ly
O n
o ce
Ġre ects
ĠS now
il us
op orus
ĠN ow
ĠR ot
ĠW ales
Ġbi ost
ĠK it
Ġmet a
Ġ12 4
Ġphosph at
Ġdom estic
Ġphen ology
Ġpore water
acc ur
Ġobliqu iloculata
Ġexcav ated
d raw
ĠT g
ĠP it
op ed
ĠN av
ĠE KE
ĠD R
up ian
Ġind igenous
ph ant
ins on
Ġpalae osol
Ġtherm odynamic
Ġcontinu um
Ġtri plicate
Ġmeg a
ĠNot ably
bound ary
ĠQue b
Ġdoubl ing
Ġdiamict ite
Ġvas cular
l und
l oss
m outh
t us
as y
Ġn aut
st ud
ĠB ow
ĠG il
Ġper mitted
Ġconc ave
Ġpo ur
Ġgrow s
els en
ĠCon n
ĠCon ver
lus ive
Ġchlor opl
Ġutil izing
Ġult r
IN G
ĠExperiment al
Ġperipher al
Ġvap our
r in
Ġre pt
Ġ10 16
Ġact ors
Ġgra c
ren berg
ĠSub arctic
ĠFin land
Ġdrain ing
Ġartif act
inert ial
D OC
b ian
Ġd av
ar ion
ĠT urn
if ts
ĠL ut
ib rated
yp ris
Ġpalae oc
Ġinst itutional
ĠAd ministration
ĠQu inqu
ipp le
Ġoverl o
Ġvers ions
Ġevid ences
raf ted
Qu aternary
Z s
b od
k ian
u ate
Ġa romatic
Ġh ake
Ġn u
Ġan em
ĠL ena
ĠR ose
Ġen orm
out hern
Ġbet a
Ġrec ession
Ġpl asma
Ġ12 2
Ġpop ulated
Ġcap elin
Ġ24 1
Ġdrif ts
Ġstom atal
ĠHig hest
Ġrip arian
ĠHist or
hist ory
P ale
on ites
Ġre ally
ĠP W
og ens
ĠE th
ell ids
Ġge op
ustr ies
Ġperform ing
Ġ23 8
Ġprog ression
Ġagg radation
Ġdel icate
Ġ00 1
Ġphyl ogeny
ĠPF T
ĠChang hsing
ĠHarb or
ĠKen ya
C or
l ap
as ian
Ġv iv
ers onde
Ġdist ort
ric line
Ġrep air
ĠSea water
ĠSc ale
ĠAN N
ĠSe ab
ĠSub sequent
Ġsilic ified
elet on
Ġimplic ation
Ġtri als
Ġimm ature
Ġont ogeny
Ġencrust ed
Ġexped itions
Ġaware ness
Ġlept oporus
ĠPrinc ipal
Ġd ots
ĠT race
ĠB rig
ĠIn f
tern s
unt a
ograp hed
han ced
Ġhum p
Ġbro od
osynt hesis
emb ly
RE E
Ġsin ist
ĠFour ier
Ġstabil ization
Ġmeet ing
ĠDirect ive
Ġdemagnet ization
ognath us
Ġfreshen ing
ĠMoz ambique
o xy
Ġt t
Ġo xy
el ve
id ers
ab a
Ġref ug
ons olidated
Ġep ipelagic
orn is
Ġdocument ation
Ġ35 00
Ġost e
Ġpur ified
ĠInst itution
ĠNE P
Ġ] .
Ġhem atite
Ġsuff er
Ġpolyn omial
compar ison
E l
r yp
v ary
ar um
Ġb row
Ġth all
pl ot
so il
ĠSt rate
Ġpar abolic
Ġhydro ly
Ġpost glacial
flow ing
Ġwidth s
Ġflex ible
Ġincons ist
Ġrenew al
Ġcohort s
ĠBerg er
o al
s ur
on is
Ġp ect
Ġp urs
ol imn
ad d
ĠR are
ae v
Ġconf ident
Ġconf lu
ĠAm b
Ġtechn ological
Ġformal in
Ġinterst itial
b el
c ycl
Ġo or
Ġin her
ic ost
Ġd imensional
Ġp orous
Ġm T
ĠP I
ĠN ormal
Ġsub duct
Ġam orphous
Ġenvironment ally
medi ated
Ġupl and
Ġexplo it
ĠCamp bell
Ġselect ivity
Ġmetazo an
ĠHimalay an
Ġleak age
p in
t reated
Ġa ud
ar us
ul id
oc ate
Ġr v
ĠSt ock
Ġlong shore
Ġ12 63
ĠEm b
Ġpreced ed
Ġpy ro
Ġmacrophy tes
Ġepic ontinental
im us
em p
ir ty
ip ids
Ġdistribution al
Ġcr inoids
ophy tic
ath am
Ġegg shell
Ġammon oids
ĠRef erence
ĠNet work
Ġlent icular
Ġmitig ate
ĠECH AM
a qu
n i
w orth
y ch
on st
an ium
Ġb is
ec adal
ĠD omin
ĠU k
Ġge othermal
10 5
oph istic
Ġste el
Ġgreen ish
Ġcompens ated
ĠNB S
Ġbelemn ites
Ġmillenn ium
ĠNam ib
m iddle
Ġb ip
Ġl ion
ac erb
Ġsp e
Ġ5 25
ĠAt lant
Ġpale otemperature
Ġep id
Ġx i
Ġinterest s
Ġarag onitic
Ġlandsl ide
obot anical
ĠBrans field
O ct
Ġc er
Ġh unters
Ġn ano
ĠM usc
Ġr uled
ĠH s
Ġcol le
iss ima
Ġne ap
ĠRe al
ĠCH L
ĠMin istry
Ġign eous
idi urnal
ĠPu erto
ĠDar win
lamin ated
ĠBrief ly
Ġl c
Ġl g
im ed
ot us
ĠE CS
ĠL in
Ġdis pos
Ġterm inated
ĠBal earic
Ġexperi encing
ĠMean while
Ġintercal ations
Ġlear ning
ĠPoll ution
Ġcres ts
Ġmanufact ure
Ġunpubl ished
ĠNothof agus
d t
Ġ ille
Ġt in
Ġt ro
Ġt all
Ġc red
Ġc aves
ar ina
ĠB ATS
ĠD am
Ġout break
Ġcur ved
Ġpr ivate
Ġsw ash
ĠSA M
ĠArgent ine
Ġgeomorph ology
Ġstack ed
ĠCad iz
Ġw r
Ġd b
ĠA alenian
ĠP ositive
est ock
ĠO ld
Ġind uction
Ġ7 000
ĠAr go
ĠApp arent
uls ion
Ġcall s
ĠTar im
uris d
Ġultr ason
Ġt al
ĠD ur
ĠL R
ĠW ave
Ġ13 1
Ġoff ered
ĠQu arry
ĠEx ped
Ġfert ility
Ġdigest ed
Ġsho al
ott jer
B W
S ediment
ud d
pl ains
ĠG rad
Ġcl ockwise
eg a
Ġac ule
ĠAl ber
Ġtr uly
OM S
Ġregard s
Ġturn s
ingu ish
omorph a
Ġbenef icial
ĠBer ggren
Ġcapt ures
ĠLuz on
Ġf CO
Ġl onge
ur g
le v
Ġbe gun
ch ins
ĠL ind
ĠR at
ep hel
Ġk er
ĠSp ace
Ġsk in
ĠPr ince
Ġmembran es
Ġexponential ly
Ġintrus ions
mes oscale
Ġharb or
iot emporal
ĠNit rogen
Ġiniti atives
Ġalbat ross
Ġsupernat ant
Ġappar atus
G A
U L
m iss
id ine
ig s
ĠP IC
Ġex acerb
ĠL ep
ĠL ib
ĠK S
ĠAl nus
Ġdiatom aceous
Ġlo ose
Ġfeed er
ĠSS C
ĠSP I
ethyl ene
Ġexpert ise
Ġinterview s
znau eria
N C
P ro
S ST
on ne
Ġf ash
Ġsp ar
ik i
Ġsilic oflagellate
ĠSA T
Ġcat en
went y
Ġbeccari i
& &
j r
t z
Ġb esides
ĠF M
ĠL ars
Ġfl ag
ea u
fl ood
ĠUp welling
23 4
Ġpic ophytoplankton
Ġderiv atives
eterm ined
Ġthr ive
ĠGovern ment
F m
P R
p osition
r h
u o
v an
oc ular
em ed
est ed
Ġdis equilibrium
ue z
Ġloc omot
Ġexp ense
Ġconf l
Ġpac ific
ĠTun isia
ĠJG OFS
g ra
Ġt rial
ur ally
ul osa
am er
ĠM olecular
ĠB art
Ġsh all
ĠR ha
ang a
Ġappro ached
Ġmicro facies
Ġsummari zes
ĠGF CM
ĠDa ily
ĠUnt il
ĠChanghsing ian
ag idinium
Ġcomp ressed
Ġ3 13
Ġ4 40
Ġsub ordinate
ase qu
Ġpalae omagnetic
ĠEl se
ĠCa ucas
ĠAb ies
Ġsem idiurnal
Ġcirc umpolar
ĠMal d
Ġautom atic
Ġencompass ing
Ġsatisf y
Ġpil ot
Ġwin now
B ased
Ġin accur
ut es
ut us
ĠC lim
ĠB og
ĠG T
Ġun resolved
Ġdo ing
ĠPalae o
osph aer
Ġpersp ectives
Ġcro pland
ĠVolcan ic
ĠStra its
M e
Ġa ux
Ġs ophistic
id iscus
ĠS ym
ĠB N
ĠG ersonde
up ward
Ġrec olon
Ġnot es
port ion
ob athy
Ġsubs ample
Ġfluctu ated
bed ding
Ġphosph atic
ĠRed field
37 7
ĠCA L
Ġfib ers
Ġpetro graphic
Ġnav igation
ĠInvest ig
Ġmerc ury
ĠGSS P
P O
o il
he tically
en os
os id
ĠH ung
ĠL ac
Ġj ets
Ġhydro lysis
Ġerr one
Ġincorpor ates
Ġhydrograp h
ĠPart icularly
Ġgel at
Ġmont ane
ĠProg ress
ĠColomb ia
MAN OVA
I nd
i y
z ero
id in
ĠM it
ĠN ar
ĠG ard
Ġpl anned
Ġdis pro
iss a
Ġsequ enced
ĠPro per
oec onomic
Ġoverl ie
Ġemploy ing
Ġcryst alline
Ġvar ve
Ġgrab en
Ġcentimet ers
Ġrow s
Ġillum ination
Ġa y
it ivity
Ġd ual
ĠA round
Ġsp ells
ip ora
ĠJ ac
osit ed
Ġcent res
can y
Ġadj o
ĠNov a
rod inium
Ġremn ant
Ġcategor ized
ĠEh renberg
ĠImport antly
Ġenforce ment
inguish able
Ġo mitted
ent ed
Ġe i
ĠB ear
ĠB rad
ĠF aro
pl ankton
ĠR am
ĠG ES
Ġmod ulated
Ġhe ated
Ġir re
Ġplace ment
ĠEq s
Ġharm onic
Ġsupplement ary
Ġstop ped
sens itive
Ġsight ings
ĠOper cul
ĠHN LC
ĠQing hai
brevi ations
Ġroset te
ĠSver dr
L S
er ivian
Ġw ish
oll s
ail ability
Ġ10 15
Ġj urisd
Ġra ise
Ġtransport ing
Ġmark ing
Ġintens ively
ĠCont rol
aque ous
ĠMytil us
J uly
Ġd orm
Ġm cd
ro de
Ġl apse
ĠT ang
Ġst ems
ĠM ili
ĠF uc
ag on
ther m
Ġfound ation
agn um
resp ective
20 15
Ġpass ages
ĠVal anginian
Ġgu id
Ġaddress es
Ġfacilit ating
Ġfarm ers
Ġech o
Ġsupplement ed
HR R
l ass
m atter
in flu
Ġd bar
Ġre ag
ere lla
am us
ĠP ON
Ġsp re
ĠTh in
Ġsediment water
ĠJ ord
atic ation
ie ves
20 13
Ġcoinc idence
omm a
Ġfores ted
Ġelectron ic
Ġirrig ated
Ġextra ord
Ġminut es
ĠMethod s
Ġpie ce
Ġfash ion
ĠT anz
ul ing
ĠA U
ĠA gg
ĠC atal
ch ain
Ġper for
Ġsediment ology
Ġle ve
Ġmult ibeam
Ġaccum ulating
Ġphot ographed
Ġ23 5
Ġground ed
Ġte am
Ġparameter ized
Ġsnow melt
Ġoper ator
Ġhyd roph
inn ed
Ġpol ished
ĠGo M
orf i
Ġhunt ing
Ġtermin ology
g ray
Ġt ic
is ch
Ġp olari
ĠH O
Ġapp end
Ġflu vi
OC E
Ġel abor
Ġlear n
Ġrect angular
3 50
O w
z z
Ġb illion
el ian
ĠT om
ĠT rad
Ġg h
ĠR hod
ĠG old
Ġus age
Ġ20 9
uc ine
Ġprog lacial
ĠGe ography
Ġpredict able
83 98
Ġmeand ers
Ġmen ardii
Ġunderl ain
Ġconfl ict
R ec
p ale
Ġa ur
al tered
Ġre cept
ag os
ary a
vel ope
Ġthan ks
Ġ10 90
tle ment
ich sel
ĠAd vance
sp ace
Ġcoord inated
Ġamphip od
ĠImp act
Ġmultid isciplinary
D L
S eptember
~ ~
ĠT rem
ot oxic
ĠH A
act ions
Ġmod ulation
ass ium
Ġdiff raction
Ġ19 40
ĠV e
Ġmeas urable
av as
ĠX RD
Ġinteract ing
Ġmed iterran
Ġair borne
ĠCR P
Ġobser ver
Ġvirt ual
ĠUnivers id
Ġoccupy ing
ĠEOF s
Ġmicrobi ome
Ġcub ic
ackle ton
Ġc able
Ġp oles
ra x
ab ase
Ġsp aces
ĠG h
Ġcan al
Ġtrans lation
ĠJ M
Ġrep et
Ġ15 8
Ġer a
uss ion
ĠPro duction
Ġsubs istence
ĠBl ock
Ġturn ing
Ġsymb ols
Ġbr id
Ġtun ed
ĠTyp ically
Ġacet one
Ġcoating s
Ġpalaeocean ographic
F Z
re cht
Ġf idelity
ro grap
Ġwith draw
ac ro
Ġ2 11
ch l
ĠH en
ĠH ell
Ġvol t
Ġsel ecting
19 99
Ġmacro benthic
Ġow s
Ġresol ving
Ġhol ococcolith
ĠCibic ides
Ġspeleothem s
Ġwhor l
Ġindist inguishable
W m
Ġo ra
ant ha
ĠE RS
rap h
Ġsub antarctic
ĠK H
Ġappear ing
Ġturb ot
Ġeffici encies
ĠHy d
Ġbig elow
Ġrig id
F ig
c entr
r ift
Ġt um
Ġc ert
id ic
ĠA ck
ĠA TP
Ġg ymn
ud ation
ĠH W
ĠG as
Ġind ustries
ile y
Ġdes ired
Ġsupp ressed
ĠAn at
Ġsol vent
Ġcre w
Ġprogram mes
Ġabsor bed
Ġstim ulate
ĠVi et
Ġunivers al
Ġspik es
ĠLet ters
Ġpengu ins
Ġlegis lation
C R
m nes
w ill
Ġ (
Ġf ile
Ġm oss
as in
el ines
il ia
ĠE CM
ĠD IP
Ġab oard
ĠU R
ĠK rithe
Ġund oubtedly
io id
Ġnorm ality
Ġbathy pelagic
Ġic ropaleontology
Ġart ef
Ġrespond ing
Ġdev oted
k el
er d
ion uc
ĠM G
ĠH as
ĠW ild
Ġy s
wo uld
Ġinst alled
Ġoccas ions
Ġoxid ative
Ġfoot print
ĠFam ily
Ġhapp ened
xyl on
Ġguild s
oler ant
quir ies
ocument ed
c raft
f irst
r ar
Ġt or
Ġd ic
ol uble
os k
ter i
Ġsp ine
Ġr ural
Ġgen omic
Ġhy drates
man y
fall s
Ġel astic
Ġcalib rate
ĠSi O
Ġtun n
Ġsy ring
ĠLaw rence
Ġtaxonom ically
ĠWork ing
Ġhump back
on ly
ĠT w
ĠT an
ĠS ha
ĠD ig
ĠR b
ell es
ib ut
ĠJ ul
Ġmic ropale
sc ales
ĠCon iac
Ġfram es
Ġconsum ing
Ġden oted
ead y
Ġ195 8
cont aining
Ġcarbo hydrate
ĠCoccolith us
Ġlogarith mic
ĠVirgin ia
O ne
w ords
Ġt itan
en as
ĠT rap
ĠT idal
Ġh ipp
ra pped
Ġr ipple
ĠE ver
ĠD Fe
ĠH z
Ġdis aster
Ġ18 5
Ġdivers ified
Ġcolle ag
c ant
g overn
Ġa k
in is
ĠT ien
ĠP ast
Ġ2 12
Ġr an
act ors
ass er
Ġdet r
Ġoff spring
ĠMa ur
rag m
ĠSA MW
ĠCompar isons
ĠAmph ist
ĠPan el
Ġasc ending
Ġin jected
is anal
Ġg erm
ĠC re
ĠM ixed
Ġsh ad
ĠO IS
Ġconc ord
ĠCh atham
Ġj C
usc a
Ġpers onal
AB LE
Ġmetabol ites
ĠFA O
Ġsun light
Ġmeand er
ĠDan ube
ĠLou isiana
Ġunequ iv
ĠDiv ision
Ġshrink age
Ġsimplic ity
e ukary
Ġin struct
Ġp ull
ĠS eg
il ine
ĠB H
ĠO D
ens land
Ġvalu ation
Ġover fishing
ĠAl f
ĠMar l
ĠWe ichsel
Ġdem ise
ĠSp ear
Ġbar ite
ĠSh ackleton
Ġcrust acean
Ġcat alog
ĠPF Ts
anted inium
Ġtrilob ite
m y
Ġs we
Ġd raft
ig lacial
ĠF F
ĠL U
ĠG IA
10 3
ĠDe ad
Ġir radi
Ġla id
Ġbio erosion
otrop h
Ġsqu ared
ush ima
ĠSant onian
Ġrecyc led
Ġmicrohabitat s
ĠGeor ges
Ġeduc ation
ĠConiac ian
P u
Ġa val
Ġin oc
Ġpro hib
Ġsp ruce
Ġinf ill
ĠJ e
Ġexper ts
Ġed iting
Ġdiss em
Ġent ang
Ġmorph ologic
ocl ase
Ġkil omet
ĠImp agidinium
Ġacet ate
2 30
A pril
is ite
em an
ĠI G
ĠR rs
Ġglac iated
Ġaut o
Ġ11 6
Ġcar rier
Ġclass ifications
ĠSw iss
Ġirreg ularly
Ġblock ing
sup ported
ĠPER MANOVA
Ġmism atch
at m
ic ts
Ġd ug
us ae
ĠM u
op oly
ĠB ry
Ġwas h
ĠG round
ĠG otland
ang l
row ning
Ġbur st
Ġaccept ance
Ġur chin
Ġteph ras
Ġrip ples
ĠOut er
ĠChen opodiaceae
Ġnutr ition
Ġaliqu ot
R es
e ustatic
Ġc apped
Ġb urn
Ġv el
Ġch rom
ĠD T
Ġen velope
Ġadd s
Ġpop ular
Ġwinter time
Ġcar oten
eloc ulina
vers ions
Ġprior ities
ĠPhy ll
Ġovert urn
Ġdiap ause
ĠRMS E
b ury
al is
ĠT ab
Ġh apt
ĠB at
ĠR an
Ġbi omineral
Ġdes irable
Ġspat iotemporal
ĠY e
co ast
ĠBi omass
pro xy
ush man
Ġdest abil
opro terozoic
Ġprecess ional
l on
as mic
ce ae
ul ids
un its
ĠW H
Ġsim ulates
rad ed
Ġund es
Ġend angered
Ġwork ed
Ġrain s
oph or
ĠNE C
Ġconv in
ĠDisc overy
Ġsho als
Ġcocc ospheres
Ġmudfl ats
ĠSph agnum
Ġhemisp heres
Ġalumin um
Ġt ap
es ium
el sevier
Ġfor t
ĠD om
ĠL yc
ĠJ ane
Ġmin ute
Ġfeed s
Ġconduct ing
amp ered
Ġevapor ative
Ġstrength s
Ġtet rap
ĠPCB s
le m
Ġn ode
st ra
ect en
ĠD t
ĠR L
ari us
ĠG raben
ĠO tt
Ġcont raction
Ġpat chin
ĠSt rat
iss on
Ġcalc ifying
Ġspaw n
Ġplank t
Ġach ieving
imet ric
Ġavoid ing
ĠAp enn
Ġthreat ened
Ġmag matic
Ġmeio faunal
olat itude
Ġbarn acles
Ġpatchin ess
S m
Ġd ich
Ġcon rm
ĠB oy
ĠN L
ĠL ME
Ġsc reen
Ġact ivation
Ġnut ricline
Ġpalae ontological
Ġmac roscopic
Ġinteract ive
ĠConc ern
ĠBur g
Ġatoll s
U p
f ed
at en
Ġm i
Ġe y
Ġcon ical
qu es
ĠAt t
ov ing
Ġsum med
Ġmix tures
Ġthem odel
omp son
Ġschem atic
Ġrespond s
Ġcompet ing
Ġdivers ities
aren cy
Ġyellow ish
oxygen ated
ĠBacter ia
ĠRegard less
Ġentr y
Ġenorm ous
Ġin ev
or bed
Ġf t
ĠT ong
ĠS un
ene gal
ub a
Ġanalys ing
Ġcre v
mit tee
In ter
ĠLar ger
ĠObserv ed
Ġliv estock
Ġcet acean
iser ial
ĠJer sey
Ġchironom id
o idea
p rey
z sch
in ement
Ġf inger
Ġm ission
ol ating
ĠA ulac
ĠC DW
un ities
ĠH E
ad os
ST ER
Ġdeg assing
Ġunc onsolidated
ey er
Ġne ot
Ġformer ly
Ġcho ices
Ġmouth s
Ġflex ibility
Ġsatisf actory
enz ie
valu ation
Ġmillenn ia
Ġcephal opods
Ġmuc us
b our
Ġ iod
Ġc up
al pine
Ġan is
hic a
ĠL IW
ĠG EO
Ġ3 15
Ġcor rosion
vious ly
els on
Ġshort wave
Ġmac ron
struct ured
Ġquestion able
Ġgu ar
Ġchem ically
ĠEp ist
si ological
ĠStep han
ĠPange a
c ores
l ength
w i
Ġh ampered
ĠC AM
Ġr b
op tical
ĠB or
ĠB ord
ĠF v
ĠF air
ad vant
ĠL T
ĠG ly
Ġen lar
Ġ20 6
Ġinv oked
Ġsupp ress
Ġ16 9
ozo ans
Ġinst all
Ġweak ness
Ġtri ps
ĠVari ation
Ġadop t
ĠBo hai
Ġunderestim ates
ĠKing dom
Ġpock marks
ĠJJ A
Ġdino agellate
d ig
x x
Ġ rop
Ġc ope
Ġm ess
Ġn al
Ġcon ce
Ġcon gen
Ġst aff
ĠP ossible
ĠB SC
ĠD ome
ĠG od
ĠK at
ĠK az
ĠSt re
ox ant
Ġfurther more
Ġfe el
Ġincor rect
abil is
Ġpack ed
ĠDet erm
Ġautom atically
Ġresembl ance
Ġquadr atic
Ġtract s
main ly
ĠPry dz
Ġlonge vity
- .
P A
c ir
u ce
Ġt ed
Ġf oli
st ress
Ġsu re
ĠL az
Ġind ucing
ĠU se
ĠK d
Ġcoast lines
ĠPl ata
Ġreflect ors
Ġprot o
Ġsoci oeconomic
Ġempir ically
Ġoptim ization
ĠRock all
ĠPhilipp ines
Ġdwell ers
Ġwuellerst orfi
Ġmonospec ific
ĠWeichsel ian
Y S
k al
w ich
ĠL ea
Ġnot ation
Ġcol ors
Ġmic ron
app ear
Ġpost ed
Ġarg ues
ĠBi ot
Ġpack ages
Ġ196 9
Ġur chins
ĠMult i
Ġhind cast
grad e
Ġstir ring
Ġstalagm ite
ĠHaut erivian
Ġbigelow ii
P s
i idae
Ġs ont
ow ing
ĠE H
ĠH ex
Ġ4 20
ill ation
ten ess
Ġx en
Ġrele ases
Ġcross es
ĠNe ither
Ġsubt racted
Ġprom otes
Ġinhabit ants
ĠAng ola
Ġcliff s
Ġpunct uated
Ġsuperf icial
Ġdav isiana
Ġcon vey
ĠB arrow
Ġdi pping
Ġ19 20
Ġbot t
Ġso ught
Ġvert eb
Ġquant um
Ġclass ify
15 00
Ġbran ched
ĠEr ror
ĠPan ama
erguel ensis
ĠSph aer
Ġsnap sh
Ġargill aceous
ĠCaucas us
t in
et ing
Ġpro ducer
ĠN emat
Ġsal ty
hod us
Ġge ography
Ġdesc ent
ophy ta
ĠDes cription
rob e
Ġha ul
hol m
strat ification
unn an
Ġprokary otes
phal us
b ra
ĠC ord
est im
ĠL ist
Ġcor n
ale en
Ġobserv able
Ġwh it
ĠSt a
Ġassembl ed
ĠQ ual
ival ent
Ġphot os
Ġfil es
now led
Ġfoc al
ĠGu ang
Ġant if
Ġtext ures
Ġrevers als
Ġfre ely
ĠElect ron
b urn
p c
Ġd ict
Ġp ush
ĠC osta
od epth
ĠB ert
ĠN J
ĠE ight
ĠL uc
Ġcl arity
Ġstr atication
Ġalong side
ĠAn omal
Ġaut onomous
Ġsusp ected
reat ment
Ġsignic ance
Ġens uring
ĠBul k
Ġcement ation
ĠSy rac
Ġparas ite
Ġlandsl ides
ride is
ĠVib rio
A f
B S
b inding
Ġde emed
th an
ĠH ed
Ġ17 1
odont s
ev ents
ĠCop ep
ĠTrend s
Ġsophistic ated
Ġdetr iment
A ugust
m ul
r ison
us ing
Ġh ope
Ġn ations
ĠS ud
ĠR otal
ell id
Ġ3 80
ĠW ill
ill us
200 2
Ġlog ist
ĠPre liminary
Ġalt itudinal
Ġhistor ically
Ġdatum s
Ġtransp arency
ĠTyp ical
Ġfab rics
Ġcocc osphere
Ġembry os
ĠAV HRR
squ are
ĠBaham as
Ġcolleag ues
E ast
j ust
r aries
t land
en er
it he
Ġd s
Ġb und
ĠP unta
ens itive
ass embl
Ġk erguelensis
ĠJ S
ĠSt okes
Ġsk ull
Ġfram bo
Ġsee k
Ġher bs
ĠAg ric
Ġenrich ments
Ġdeb ated
asm obranch
Ġcher ts
ga ard
Ġgeop otential
ĠSverdr up
T H
m p
u ador
he asterly
on ing
Ġd ental
Ġh inter
Ġn ephel
if iers
Ġv est
ore lla
ĠD y
ine ering
Ġ3 40
Ġcal m
Ġgen omes
Ġmet ap
ple te
Ġcarbon aceous
Ġdisc over
Ġcircul ations
19 80
Ġsubst itution
Ġreturn s
ĠRo ad
Ġvisc ous
ĠAv ailable
Ġbord ers
Ġpot assium
Ġcytom etry
Ġparv us
in th
it ness
Ġg ull
ĠO nt
Ġpl agi
ob iont
ĠJ ack
av ailability
ĠMar gu
Ġ16 7
Ġphys ic
Ġphot ochemical
ĠSS W
Ġmicrobial ites
Ġart isanal
ĠInt eg
ĠNon ion
aro o
Ġcentr ic
ĠReview s
Ġorogen ic
held e
ĠKim mer
Ġpolysacchar ides
Ġille gal
Ġh yst
ĠC assidulina
ad en
ĠG ries
Ġun ex
Ġsub aqueous
Ġover winter
ob ulimina
ea ux
Ġprov incial
Ġimp ed
Ġpale oecology
Ġtheore tically
ĠAP F
ĠRom an
ĠMargu erite
r st
s ky
Ġ ud
Ġf ored
ĠT G
oc yc
Ġpro sp
Ġsh aping
ĠL ife
ĠR ia
Ġit em
Ġsl iding
Ġph ae
Ġman ual
Ġland ing
ĠY unnan
Ġred und
ĠMS C
ĠGlac i
Ġincl ined
Ġfern s
ĠGord on
E A
ion ized
Ġm iles
ĠM ED
ĠP OP
ĠF DOM
ĠH op
ĠL as
Ġinf ected
ĠZ hu
Ġ16 1
pro duct
Ġaccess ory
ĠIR M
Ġster ile
Ġsy nd
p en
it ely
Ġd rip
ĠS N
ĠS hip
res cens
ĠM erc
pl us
ĠN ucle
ad der
Ġ3 19
Ġcl ino
ib a
Ġcr itic
Ġcr ushed
Ġeast wards
Ġpoly ethylene
ĠCor re
Ġplot ting
ĠIm plications
Ġpaleocean ography
Ġbin ocular
ĠTax onomic
Ġcurv ature
ĠQuinqu eloculina
Ġdispos al
it ina
Ġm t
ĠI so
ĠR est
ĠR OMS
ĠU A
ĠK now
Ġfind s
ĠMic ha
Ġillustr ating
ĠSch mid
Ġevapor itic
Ġvort ices
Ġexpect ations
Ġdise ases
Ġlys ocline
ĠPennsylv anian
oxant hell
F rom
g ol
it o
ĠT ABLE
os ch
ĠM amm
Ġex otic
Ġse am
ĠN iger
ĠG M
ĠIn s
Ġfl our
Ġdet ached
Ġref uge
ĠSc hem
Ġassociated with
Ġu vial
ĠSh ang
ĠMic rob
200 4
Ġsurv iving
roc arp
Ġot ter
Ġur anium
Ġobser vers
mass es
ĠChar l
ĠBiod iversity
ĠJord an
P o
V A
c ar
Ġ ure
Ġl avas
Ġe ye
le tic
Ġal ive
ĠE arl
ĠG ram
Ġdis advant
oll is
Ġcr ass
ribut ed
Ġ27 5
Ġphen otypic
Ġrepl ace
ĠTrans port
hydro static
ĠDin ophysis
Ġgraz er
ĠPy rene
Ġdestruct ive
Ġsubdiv isions
T ethys
l asts
Ġb ov
ĠS IP
ot emperatures
ĠC G
ian ces
ank tic
ĠJ uan
Ġqu ota
Ġclim atically
Ġfore ign
ĠIT S
rend ing
ĠAnaly tical
ĠConver gence
ĠECM WF
F M
Ġf aces
ĠT ol
ur ch
ot hy
ĠM ant
ĠG arc
ĠTh or
io x
Ġmass if
Ġunc or
Ġsuccess ively
Ġopen ings
ĠEc uador
ĠBel emn
ĠGlobiger in
ĠExt ension
Ġparas ites
sediment ary
Ġfring ing
ĠAmphist egina
Ġbott len
= =
H e
e vent
y d
Ġp ain
Ġm ack
Ġm unic
ul atum
ĠB ase
ĠB rem
ĠB ou
ĠF ine
ĠH R
ĠL ob
tic a
Ġph il
Ġ15 7
och im
enn e
Ġprior it
Ġsemi arid
Ġinvol vement
Ġassign ments
osol enia
Ġrenew ed
Ġscre ening
Ġgrapt olite
E n
N d
N i
T ur
a ire
a ft
Ġp t
Ġg old
ĠC s
st ract
ĠN ak
ĠL ad
Ġcomp os
Ġinc ipient
art e
Ġdi ed
Ġ6 10
Ġform ulated
ĠZ ooplankton
Ġlik ewise
Ġdark er
Ġpract ically
Ġichn ofacies
Ġvar ves
Ġstabil ized
ĠCall ovian
Ġsig ma
ĠEpist omin
r ally
Ġc uc
ent e
Ġv o
ĠM ull
ĠM WP
Ġsu pr
ĠB ig
ĠL H
up per
ĠJ iang
Ġmix otrophic
Ġcalc rete
Ġsil ver
oz ones
lim ation
Ġmark ets
Ġpoly ps
Ġprot ecting
Ġpredomin ate
IN E
Ġspecial ists
Ġshel ter
Ġpenet rated
Ġcapt uring
aid am
Ġlun ar
ĠBelg ium
Ġt ern
en berg
ĠT CO
st an
ĠM un
ĠM ary
Ġal co
ĠG OM
Ġsl ice
Ġpe bble
Ġgood s
Ġrad ionuc
Ġauthor ities
Ġhead s
Ġtaph onomy
ĠNeog ondolella
Ġperiodic ities
OH A
Ġrestrict ions
ĠWat znaueria
Ġendem ism
mnes i
E urop
G reen
m aximum
n utrient
Ġm us
ĠA rag
ith s
ff in
Ġinf illing
ind ependent
Ġpoll uted
Ġadv ancing
ĠX BT
Ġimpro ves
ocl asts
ĠGu ide
Ġelect ric
Ġcontamin ant
Ġsplit ting
Ġgear s
ĠSy d
Ġlib raries
ĠEcosystem s
Ġexert ed
ĠChrist ian
N J
b ul
c oming
k h
p re
Ġo ak
Ġp us
ent in
ĠT hy
id d
ĠC ant
ĠF D
pl er
ĠO ccur
act ic
we ek
Ġrec onc
ap ted
ĠCh ad
Ġident ifications
Ġ23 2
Ġcolon isation
pro ductivity
Ġvent ilated
oxygen ation
Ġcollaps ed
Ġmem ory
1 60
d eg
r ors
is ations
Ġf ruit
ĠT ub
ĠS av
ĠM agnetic
Ġr ation
ĠN orm
Ġinter ven
ip id
entr um
Ġec oreg
Ġ18 3
ĠAn throp
Ġdiss ociation
rich ment
Ġdynam ically
ĠNA P
ĠMin imum
acc umulation
ĠAL OHA
ĠLee u
ĠBaj ocian
Ġsnail s
ĠIdent ification
Ġprecurs or
rocarp um
ĠPyrene es
Ġs aurop
Ġc ages
Ġp elag
iv a
ĠA G
ĠN Y
ĠN ER
ĠE X
ĠIn str
ĠW E
10 2
Ġcent rocarpum
Ġhal ibut
Ġbreak age
alk ane
Ġacqu ire
Ġfib rous
ĠMH W
Ġbould er
ĠHoriz on
ĠAlger ian
ascicul ithus
Ġsing ular
Ġsinist ral
influ enced
G IS
l ia
s aturation
Ġo val
en ic
Ġn ov
id is
ĠA re
ith onian
od ed
ate ver
Ġal le
Ġsp ray
ĠB L
ĠN itzschia
ĠL ig
Ġinc ent
ĠW ard
Ġ20 5
Ġsubs pecies
Ġtri ple
Ġinform ed
Ġrank ing
Ġexcav ation
Ġgrate ful
ĠUnc ertain
Ġguid ance
ĠGries bachian
c ata
n y
v ic
ic ators
Ġl iver
Ġh omin
ĠA J
ĠP opulation
ĠG i
ĠO cc
ap ture
yp h
ĠCh ond
Ġ18 1
Ġoff icial
Ġcomb ines
ĠSp hen
ext inction
ne ath
Ġ] ,
ĠBrit ain
ĠLA I
Ġgly cer
Ġbus iness
fam ily
Ġgelat inous
ĠViet nam
govern mental
l ides
it ids
Ġcon ceived
ĠP ole
Ġcom ment
ĠN ag
ĠE G
ĠW AP
Ġdep ict
Ġ4 80
Ġunder neath
ĠCh il
Ġeast west
Ġposition ing
Ġtri ang
ĠPD B
ĠGB R
ĠLaurent ide
Ġtab ular
Or b
ĠGondwan an
Ġkilomet res
l ers
Ġt ions
im an
ĠS ag
ĠS perm
Ġat omic
ud i
ĠE yre
ĠD N
Ġdec oupling
ĠV G
ĠJ u
Ġwh aling
Ġam el
Ġthem ain
ĠSp ir
isc ons
Ġir respective
Ġcontain ers
she lled
ĠAg reement
ij i
Ġmicros p
Ġdoubl ed
Ġbir th
Ġwack estone
ĠSumm ary
Ġbootst rap
C arbon
W ith
e odus
Ġb ow
Ġm im
ro duction
ĠT B
om bo
ĠC el
um bers
ĠM ode
ab ol
rop ic
Ġun ic
ind er
ĠRes olution
Ġ17 8
isc hen
ĠSe ine
Ġ60 7
Ġ29 0
Ġ196 3
Ġavoid ance
Ġfacilit ates
ĠNS F
Ġprograd ing
ĠCru z
ĠScandinav ia
Ġwaven umber
ĠTanz ania
g rowing
n it
v ian
at hodus
ic ks
Ġd war
Ġg al
ĠP ow
ĠI L
ĠN ina
ĠD ac
ĠH ok
Ġinc is
lu orescence
Ġj ap
Ġed ific
ĠQ aidam
ok arst
Ġphys ico
Ġel asmobranch
roc od
ows ki
flu x
ĠCy an
ĠRhiz ophora
Ġconflic ts
Ġintras pecific
ustain able
Ġhinter land
C o
Ġf ly
et ts
ĠA I
Ġde form
ĠF I
ĠR M
ĠG rain
Ġall ometric
ĠK ur
Ġcomm it
Ġexpl oring
ĠX RF
Ġspect roscopy
Ġfa ecal
ĠCom mittee
Ġfund ament
Ġcollect ive
Ġbioz one
Ġcoup le
ĠSarm atian
rg ensen
Ġunreal istic
ĠAck nowled
Ġt ie
Ġt rich
on ics
Ġin active
Ġw ent
Ġp isc
ĠT X
ĠM ER
ĠP reserv
ĠF asciculithus
Ġun altered
Ġsub littoral
Ġ19 1
Ġinf requ
end all
ĠSea way
Ġ13 4
Ġlocal ised
ophy ceae
ĠAm m
isc he
Ġ22 9
Ġindex es
ĠAct a
ĠThalass inoides
Ġarr ived
Ġprecipit ate
Ġtent ative
Ġdepic ts
calc ite
Ġbiofil ms
wal ik
ĠProcess es
Ġspl its
ĠEul erian
Ġconflu ence
ĠS ut
ĠW alk
Ġinter specific
gen erated
Ġmid d
vent ions
ĠRe ceived
Ġintro duces
pro ducing
Ġcarniv orous
oc a
Ġ3 17
ĠW ester
Ġdep ressed
ced ented
ological ly
Ġem itted
13 8
ĠPalae ocene
Ġpalae ogeographical
ey ond
ĠEn hanced
Ġflood plains
yl ene
Ġfam ili
Ġtransg ressions
Ġ195 3
ĠRep resent
Ġnucle otide
Ġclaim s
ĠSyd ney
J une
Ġthe ories
Ġc p
an ing
ar u
Ġp ill
ĠS OC
ĠM CA
Ġde xt
ĠB lu
ĠF an
ĠH B
ell aria
Ġtrans piration
ĠJ ust
Ġcomm enced
ĠInd us
ĠDi ego
Ch la
bur st
Ġarchae al
ĠProt ection
ĠLaurent ia
Ġparad ox
Ġeux inic
d ating
j ournal
ur u
ul as
ĠS ections
ĠF auna
ĠD ensity
Ġstud ents
Ġpl acing
ĠK oz
Ġbiomass es
Ġ23 1
Ġ23 7
Ġopp osing
ĠBal ech
erc ivity
ĠAb yssal
Ġdark ness
Ġ196 4
Ġseab ird
Ġanalog y
ĠBarb ara
Ġzir con
mort em
iscons in
S everal
Ġo zone
Ġof M
ĠA ges
Ġex igua
ĠW T
Ġk ern
ĠJ C
Ġveget ational
Ġoverl aps
osc in
Ġsurround ings
Ġstri p
ĠCP UE
Ġsuc ient
Ġterran es
ĠExped ition
g rey
al an
le af
Ġcon iferous
ĠL ayer
ĠR D
ubl ic
Ġclos ing
Ġcop y
Ġnecess ity
Ġlamin a
Ġlamin ar
ĠAss ociated
Ġ196 8
Ġasc ertain
Ġumb on
Ġderiv ative
enticul ina
Gl obal
Ġphysic ochemical
b ox
r n
Ġd B
Ġb aleen
el and
ĠS J
od ynamics
og roup
Ġper oxide
Ġfl ash
Ġsc int
ĠJ un
of t
Ġcalc aren
reg ulation
Ġseem ingly
ĠCal ed
IC E
Ġstrat um
Ġmo on
ipp s
Ġmill imet
ĠSi walik
ĠPhy l
Ġfus ul
Ġtrunc ation
Ġtranscript s
Ġisother ms
h oc
y u
ar ag
Ġb arium
Ġm ueller
as ures
Ġh ills
ĠI sh
Ġde als
ĠB anks
ĠH Y
ĠR ates
ĠO SP
ĠW right
ran e
Ġ19 3
Ġlim e
Ġ18 50
Ġele phant
sc helde
Ġhere after
ĠGre ater
ĠUp on
Ġimplement ing
Ġstra its
Ġintermitt ently
ĠSul u
Ġbic arbonate
Ġfu els
Ġeury haline
Ġoverwhel ming
ĠBrig antedinium
2 10
f acing
m ult
ro se
el is
Ġst ick
ĠB E
ĠL IS
ĠO phi
act ivity
Ġop aque
Ġpoll ock
ĠSp i
ĠGe ochemical
Ġ22 3
ah ashi
Ġdraw ing
Ġgovern ments
mod ern
ĠSL P
hum id
Ġcompan ies
Ġflatten ed
d ocumented
Ġ ich
re r
is hers
Ġd og
Ġd rowning
Ġp ose
ĠT hick
ĠT agus
ce in
ere x
ĠM ats
ab und
Ġor al
ĠG reek
rop s
Ġhigh lands
Ġtrans pl
Ġ12 50
oz a
Ġmargin ally
ai res
ĠOb viously
Ġgrap hs
ĠEstim ated
ĠTu ff
Ġepiphy tic
Ġancest ral
ĠResp onse
ĠHAB s
Ġhurric ane
Ġpenn ate
Ġdisartic ulated
ĠAlber ta
Ġgymn os
Ġmicropale ontological
Ġinterven ing
Ġamel ior
L ower
M C
re cedented
Ġre ected
ĠT T
Ġh arp
um ption
ĠP op
ari e
olog ist
Ġass ays
Ġun imodal
Ġnit zsch
ĠGl en
Ġsol ving
Ġpoly morph
ĠBl oom
ĠEc onomic
aver age
Ġbig ger
Ġunp recedented
ĠAqu atic
Ġglut inata
Ġdecap ods
ĠKel vin
Ġtuf a
C en
I nt
l astics
Ġs ieving
Ġe e
ĠH C
ĠG amm
Ġgen otype
ert ime
ĠV enez
Ġro str
Ġ18 8
Ġmicro at
Ġprim e
Ġtr unk
Ġrest ored
12 6
Ġstate ment
Ġfluctu ate
Ġtrack ways
gl ob
Ġtub ular
Ġpack stones
Ġ196 6
Ġshel ly
oster ic
Ġ195 5
Ġherbiv ory
ĠGL M
opter is
occur ring
ĠPeru vian
Ġfle ets
Ġfluor ometer
ĠFresh water
V s
l ink
m uch
v o
z h
at ra
ĠI b
Ġcont iguous
Ġpre requ
Ġdep ress
ide ae
Ġpresent ation
Ġident ifies
Ġbl ood
ĠOr igin
iform e
Ġplay a
Ġichn of
Ġshr ubl
Ġtsun am
Ġdimension less
ĠContin uous
ĠPant hal
ĠDat abase
ĠApparent ly
h ow
o form
Ġf ished
Ġf ills
ul atus
id den
ĠS ir
ive au
ĠL enticulina
ĠG ross
Ġcl ones
ose ira
Ġimport ed
Ġbu ck
ĠCo oper
ĠPar al
ĠShe tland
ropri ate
Ġcam eras
ĠAmph idinium
Ġleaders hip
Ġquot as
ĠEmb ayment
Ġ rom
ur i
ĠA IC
Ġres ist
ad oc
ĠTh ompson
ond ition
eld om
Ġ13 6
hen g
Ġend ing
Ġmill ions
Ġve ins
Ġfac ility
erid ium
ĠCC D
Ġsteep ness
ocer at
Ġfer rug
Ġperme ability
Ġtep ida
ozov ella
ĠBrem en
B R
f orth
w he
Ġl ot
ĠT wenty
ĠS qu
Ġr he
ĠE if
Ġover pr
Ġhe im
ĠSc anning
cent ury
osph orus
Ġden udation
Ġbio available
ĠOther s
ĠPat terns
ien er
Ġenzym atic
ĠPubl ished
ĠExperiment s
ĠLat itude
Ġmanifest ed
ĠKore an
Ġdiscontinu ities
Ġvehic le
Ġcha otic
Ġconvin cing
B P
S D
w ick
it ated
it toral
Ġd x
el ement
ĠC um
ĠF C
ag onal
Ġwe alth
Ġtim ber
Ġover print
ĠK le
Ġ20 20
Ġimp ression
Ġsens ed
Ġshort ening
Ġfresh ly
hel kalk
eor ological
Ġquestion ed
Ġcollect ively
ĠAp plication
ĠTherm o
osymb iotic
Ġoverlo oked
m embers
or o
Ġf ining
el ect
ĠF eed
ĠR en
Ġspec ulated
iff i
Ġim aged
ill es
ob le
rad a
Ġdisc ards
Ġ17 3
ĠBar ron
Ġemphas izes
ĠTs ushima
Ġrhyth ms
onym ous
Ġmicrophy t
ĠHind eodus
cany on
Ġa ph
Ġthe water
Ġs eldom
Ġd Fe
ing e
ac antha
ab ric
ĠB ore
qu antitative
ĠW y
Ġtem p
ĠV PDB
ors es
Ġ25 3
echn ology
Ġsusp ect
ĠPR IM
Ġrot ated
Ġinform ative
Ġcentrifug ation
Ġgate way
a is
Ġs inus
ro ids
Ġg ib
ot y
ĠC IR
ge v
ap atite
Ġdis asters
Ġsub p
Ġdet rended
ĠV in
Ġpoly cyst
ĠSe ismic
Ġair craft
ĠMic roc
ĠSE D
Ġuseful ness
ĠMD S
Ġvul g
Ġdecomp osed
ĠLO I
ĠPear l
Ġsav ann
Ġhapp en
ĠNumer ical
Ġempl acement
Ġfif th
ĠRha etian
Ġnephel oid
R B
Ġs onic
Ġc ues
Ġw itness
Ġl d
Ġn ond
ĠA er
ĠA ires
Ġst ore
ĠP ad
Ġsp end
se ason
Ġch ief
ĠD I
ĠD er
Ġrel ied
Ġmicro wave
Ġcar ries
equ atorial
Ġammon oid
Ġ196 2
ĠLast ly
ĠRem arks
Ġswamp s
Ġrib s
ĠFund ing
sand stein
Ġbioher ms
ĠCry pt
Ġmack erel
B E
b es
c lean
s ignificant
t ii
ed s
Ġb ent
Ġh ull
ĠS olid
ĠM all
ĠM embers
ĠB ival
Ġres on
Ġcomp ly
Ġfl ume
Ġsc ars
Ġinvestig ators
Ġca ud
Ġport s
Ġaqu arium
Ġread ings
Ġ* *
Ġichn otax
Ġesc arpment
ĠHel ic
Ġcaps ules
Ġgamet es
Ġpione er
iline ar
Ġguar ant
ocyc lus
C u
D ata
P h
i eth
ĠA Z
ĠI l
ĠD ie
Ġass embly
Ġbi os
ĠV all
ĠSt yl
Ġmult is
oph orum
Ġpers ists
Ġsnow fall
Ġevident ly
Ġamb iguous
Ġaff ili
Ġgrap hic
di urnal
hydro x
ĠLA D
ĠSpect rom
Ġparad igm
Ġterrit ory
Ġstagn ant
Ġnitzsch ioides
M ic
n orm
p ack
t or
t ot
Ġ iz
ic as
ĠT J
ĠA venue
Ġat m
ort s
ĠB Si
ĠF ishing
ĠE ric
all eng
ach ian
ĠSt ri
por a
11 4
Ġdocument ing
Ġjust ified
ĠTri pos
Ġintro ducing
ĠBa ffin
cl ay
Ġsymmet rical
Ġfring e
Ġplagi oclase
I O
f o
i ating
t ional
or ca
Ġp u
os omal
ĠP olicy
ir us
ĠB ell
ĠF re
ment ation
ard i
ach us
Ġcons ort
Ġcons ult
Ġhe art
ric ted
ĠCh i
sh ausen
ie u
Ġtherm ally
amm ox
SO W
ious ly
ĠEU C
Ġdeline ated
Ġmir ror
effect ive
ĠTurn er
O ver
x ing
Ġo g
ar ches
ct oph
Ġv erm
ĠP ag
ĠB elling
ĠN ep
ĠL ions
ell us
Ġ4 10
Ġsub mesoscale
Ġ14 2
Ġep it
Ġmanag ing
ĠUS GS
Ġaqu ifers
Ġtransf ers
ĠSch iz
ofossil s
ĠInter pretation
Ġpur ple
Ġequilib ration
Ġrev is
ĠBu enos
Ġcovari ates
Ġepif auna
Ġtag ged
Ġskew ed
ĠAust ria
ĠTak ahashi
Ġornament ation
ĠGuadal upian
Ġfocuss ed
Ġheim ii
he ads
an oid
Ġe rect
ĠM K
ĠM ond
ĠF alk
ĠN T
ĠG A
ĠIn it
Ġdis k
Ġsub mission
ĠJ rgensen
atic s
opl asmic
Ġthem e
ĠSim ps
Ġnormal ised
Ġchron ic
Ġbore ale
Ġprecipit ates
ĠTax a
gar it
Ġasympt otic
Ġdisinteg ration
Oct ober
Ġerrone ous
ĠAcknowled g
G e
a uth
c ale
Ġs ister
ĠT max
ran ging
vel d
olog ia
Ġro ll
ĠCh rys
Ġ18 9
Ġins ert
Ġlab el
Ġconstrain ing
Ġwood lands
mm ol
Ġdescript ive
chlor ophyll
Ġtransl ated
ĠRhiz osolenia
Ġdip ole
cut ting
ĠSwe zy
vertebr ate
Ġgeomet ries
Ġexhum ation
bod ied
Ġdispro portion
S outh
p i
s a
s orted
u per
or ites
ĠT ithonian
ol ake
ĠI c
op ig
ĠN SW
Ġco ales
ĠG amb
Ġ3 70
ong s
Ġy t
Ġacc ident
Ġunder going
Ġ13 2
Ġphot ograph
23 8
Ġtub ew
Ġfric tional
Ġobsc ured
Ġcoexist ence
Ġcasc ade
rone kton
ĠUniversid ad
Ġd ome
Ġp ace
ĠA u
ch ia
ĠD ark
ĠG ig
Ġgen esis
ĠK ell
Ġloc ate
ĠV M
ĠV ar
ox in
ĠPro ductivity
40 5
ou ver
Ġsilic oflagellates
ĠSE A
Ġread ing
Ġemer ges
Ġrepl en
ĠPart icle
Ġnod ule
Ġimm igration
di atom
ĠDisc ussion
Ġarr ive
Ġangios perms
ĠCyc les
Ġgrac ilis
ĠMusc helkalk
ĠSchmid t
s ampled
in ant
Ġin ux
or i
oc ypris
ĠF V
Ġwas hing
ĠN atur
ĠH an
Ġ3 90
ĠIn ternal
Ġvari eties
Ġint rig
Ġwind ows
ĠGu ay
Ġcapac ities
Ġsimpl est
ĠSR TM
normal ized
ĠQue ensland
ĠGon yaulax
Ġfuc oid
CL OS
Ġinher ited
ĠConcern ing
U M
at hes
ĠT ree
ur ance
ĠM illi
ĠN G
ĠH ug
hy dr
iff erent
yst a
ĠK eller
ĠAl most
round ed
Ġatt racted
Ġhist ological
Ġsilic ification
Ġresid ents
Ġplan et
Ġdy kes
Ġmanip ulation
" ,
Ġw ant
is ol
ĠT BT
ĠS ign
ĠC ertain
ĠC ath
ĠC WC
am pton
ĠG Z
Ġtrans mit
ov ement
Ġtra vers
Ġ15 6
Ġed itor
Ġwestern most
Ġins ensitive
IS M
Ġpalae ogeography
Ġsumm ertime
ĠMS S
cl ockwise
Ġintern ally
ĠPlan olites
ĠHa pl
Ġperfect ly
ĠBaj a
ĠOrb ulina
ĠTow ards
oxid izing
glac ier
ĠAbs olute
Ġreman ent
Ġdiachron ous
D es
h our
ic ton
et ed
ut ea
Ġst ell
Ġal um
ĠI K
per se
ĠH art
ĠR ou
Ġdis rupt
ĠAs c
Ġdiss ected
Ġterm inations
ĠSe ason
ĠGu izhou
Ġsuper ior
ev apor
Ġinh om
Ġsch olar
Ġcondens ation
Ġfundament ally
: .
P g
R s
Ġc rack
os acchar
ĠS ulf
if i
ĠC ove
ĠC oscin
st itut
ĠR ub
Ġinter beds
one y
Ġtrans plant
Ġdec k
ĠV ern
Ġprob es
Ġflow ed
ogen ically
Ġdef ault
aw ning
Ġ23 3
Ġaqu aria
ĠBaltic a
Ġbelong ed
ĠLo e
Ġcoup lets
ĠAtlant is
Ġw a
Ġd otted
ĠI z
ĠB eyond
ĠF al
ĠH es
ĠH et
ĠH ob
Ġcont ract
ight s
ĠK aroo
ĠSt n
Ġag ar
Ġtr ust
Ġpreserv ational
Ġsw ath
Ġpeat lands
Ġreplic ation
ĠMod elling
Ġvar ved
eck el
Ġangios perm
ĠEarl ier
ochim ica
ĠLeeu win
it ter
ĠA Q
ĠD U
ad apted
Ġper vasive
ĠJ a
ĠWe ather
Ġreef al
Ġpalae obioge
Ġne ural
ĠNor ian
Ġphyl ogen
Ġfail ures
Ġdistinguish able
Ġcoars ening
ĠtheM editerranean
Ġlaw s
ĠNit rate
ĠKey words
ĠKT B
Ġchap ters
Ġlabor atories
osilic ate
M ost
s ampling
Ġs eston
ed iting
ĠT aph
ĠT SS
um mer
Ġr ms
ĠB uk
og u
ĠG ST
Ġcl astics
Ġmod ifying
cul ata
Ġ8 80
Ġ9 90
Ġar rays
Ġparamet ric
13 85
ĠMed ium
yr ight
ĠX P
man agement
uctu ations
rown ed
ĠDW BC
ĠHad ley
ĠPred iction
ĠComb ined
Ġtid ally
ĠLars en
Ġdext ral
H g
N ov
t an
t ide
Ġt an
in idae
Ġs orption
il ateral
ĠC art
Ġas well
od i
Ġch ild
ĠE uph
ari o
Ġ4 90
ĠK ra
ĠJ uven
Ġtre n
lim itation
Ġ16 3
ozo a
Ġcontact s
Ġichn ogen
Ġver ification
Ġlign ite
c rust
o en
Ġin e
it en
Ġn ar
il ly
ot ethys
ĠH NO
Ġim balance
Ġexp ressions
Ġbl anks
Ġed ited
aw are
Ġdown loaded
au f
Ġcontinu ation
Ġhal ite
Ġphotosynt hetically
Ġreact ed
Ġpeat land
Ġmiss ed
ĠDec reas
Ġaustral is
Ġinund ated
Ġpter opods
Ġinterstadial s
Ġchemo autotrophic
Ġdetriment al
D G
O O
w orld
ere sis
ĠM osc
Ġsp here
ĠB all
th ing
ĠR B
we ather
Ġ0 377
Ġwe igh
ĠU MR
Ġadd itive
Ġcr inoid
Ġi j
Ġafter wards
Ġ25 2
pro v
Ġsubject ive
ĠConc lus
ĠExt rem
Ġresembl ing
Ġaltimet ric
ĠCoun ter
Ġmacrophy te
ĠUt ah
ĠEE Z
ĠHipp arion
ocoen osis
ĠRoy al
l ake
Ġt iv
Ġo ph
Ġw rite
Ġv ag
ĠC CM
ĠC oupled
ĠP yr
ĠF all
Ġsub glob
ret es
Ġi u
ĠIs les
Ġvi ability
Ġsensit ivities
Ġrepro ducing
iform es
Ġvent ing
ĠCar l
eth ite
ĠCont rary
Ġstom ata
bi ased
Ġpy roc
Ġpal m
ĠWA IS
ĠRCM s
ĠHoriz ontal
Ġanatom ical
Ġcoccolithophor ids
Ġconven ient
ĠSpear man
b anks
d ates
k ov
l ie
it ting
ar gin
Ġp ap
ĠA AR
Ġpro s
ĠN ations
ĠG O
ĠO sl
ens es
ob serv
Ġout burst
ĠSt an
Ġpale oclim
Ġprof iler
Ġsubst itut
Ġpath ogens
Th ree
Ġcertain ty
26 44
Ġglob ular
Ġphyl a
Ġimm une
Ġrhy nch
Ġaccommod ate
Ġserious ly
Ġsymmet ric
Ġacceler ating
Ġbb p
ĠStrate gy
ĠEpistomin ella
N H
m agnitude
ot ella
am on
ĠP ond
ĠP osid
un gen
ĠF unction
ĠF actors
ad ays
ĠW adi
Ġun related
ĠJ B
cul ating
Ġnum b
Ġec ologic
Ġpar k
ĠZ i
ys ter
Ġpalae oecology
Ġ22 1
Ġpalyn ology
Ġtoler ances
ĠStr atigraphy
Ġsex es
ĠTer restrial
Ġclimat ologies
Ġbin omial
iot ics
Ġpip e
ĠBF AR
ĠTim or
Ġhypers aline
ĠPRIM ER
j ing
r uc
Ġc ari
is en
Ġfor th
Ġsp rat
ĠG ene
Ġen ig
Ġsc anned
ĠK ent
Ġpar a
ret t
ĠZ amb
Ġ25 5
ĠBl ake
ĠBer lin
Ġcorrobor ate
ĠWal vis
Ġchart s
ĠVen ice
Ġsubmers ible
Ġintrig uing
p resent
Ġc nid
ic omy
is phaera
Ġb rad
ĠT O
ĠN eph
act ed
Ġdis perse
ĠU P
ould er
Ġident ication
Ġgood ness
Ġlog ical
ĠMS L
Ġmeet ings
ochron ological
Ġtransl ate
ĠUl va
Ġeluc id
Ġhapl otypes
ĠAra uc
Ġverteb rae
' ~
+ ,
h aven
y an
Ġin j
ing en
ĠC m
Ġ2 19
ĠN GO
ĠD ynamics
ĠG rass
all is
Ġvari ants
red ict
Ġext r
Ġform ally
ĠWe b
Ġdesc ending
Ġser ial
Ġfield work
Ġradi ogenic
Ġ25 9
18 5
Ġfil m
Ġsubt ropics
ĠSA Z
bust ed
Ġhyd rom
Ġcoord ination
Ġdecay ing
ĠGy roid
Ġretre ating
Ġker ogen
ĠBord eaux
1 13
l n
t yp
Ġ ue
Ġthe western
Ġw i
th s
ĠG ate
Ġrel atives
Ġmon o
Ġdeep sea
Ġmicro algal
aw esi
Ġaccum ulates
pers ed
ĠOr th
co ids
Ġpropag ated
Ġaff ord
ele ost
ĠCons istent
ĠRep ublic
ĠAlt ai
ĠAng eles
ĠSmith ian
ĠRem ote
ĠĠĠĠĠĠĠĠ ĠĠĠĠĠĠĠĠ
ĠUt recht
Ġscal ar
Ġreorgan ization
Ġpowd ered
ĠTroch ammina
Ġwinnow ing
D B
e ep
k rik
n ual
s ystem
Ġt onn
Ġf urn
Ġf etch
ĠT itic
st ock
em etry
ĠP ang
ab atic
ri pp
ĠH end
ĠR T
ĠO z
Ġdis rupted
ĠCh am
Ġsel en
Ġprom pt
Ġsw arm
ĠGlob obulimina
Ġsuper oxide
Ġeng age
phy toplankton
ĠReport s
ĠCel tic
P re
b us
t hica
Ġt iny
Ġs ills
Ġin ject
is porites
ol uminescence
Ġg ills
ere t
ĠC hic
ac on
Ġbe et
un iform
Ġsp ills
Ġinf iltration
ĠJ et
ĠCh alk
ĠAr che
ĠZ r
Ġdesc end
10 1
uss el
ophy sics
int inn
ark er
Ġconver gent
ĠPart iculate
Ġsch ool
ĠBoliv ia
Ġmetazo ans
Ġdiaz otrophs
b ase
Ġt ric
ed ges
Ġe b
ation ally
el ona
et us
ĠI d
Ġsh ards
Ġsh aft
Ġob st
ach i
ĠSc enari
Ġwill ing
19 92
Ġ26 5
Ġsalt marsh
Ġbiod egradation
ĠAnd aman
ĠTrans ition
ĠCalc idiscus
Ġdisag reement
ĠSul awesi
ĠCyp rideis
ĠPod ocarpus
Ġgluc ose
Ġtunn els
eukary otes
ĠWalk er
ĠTitic aca
re lla
Ġo oid
Ġpro delta
ĠB our
ĠF enn
ĠE OS
ĠD L
ĠH i
Ġ3 14
ĠJ R
Ġsm ear
Ġimp over
der a
Ġj unction
ier i
ĠAnt ip
Ġopt ode
Ġconver ge
ĠLong itude
Ġexpon ent
Ġhol otype
chlor ic
Ġarchae a
gar ol
ĠBarb ados
Ġrecrystall ization
De cember
ĠPreserv ation
ĠBelling shausen
N or
R e
g ressive
Ġin ability
or h
Ġd ies
Ġb old
ĠT y
ĠC Z
Ġde ionized
ĠB ath
ĠF iji
ĠN y
ess el
ard ed
Ġk illed
Ġfo il
Ġar row
Ġsl abs
oth ur
Ġspecific ity
Ġbal thica
Ġfav oring
Ġcondition al
Ġtw elve
ĠWhat man
Ġsynthes ized
Ġiter ations
ĠLev itus
ĠConn ect
ĠHistor ical
ĠEth iop
Up per
Ġoverwinter ing
Ġnumb ered
3 000
m ight
m ount
ic ella
Ġe f
ĠT SM
id on
Ġis o
ĠN od
ĠD or
Ġass ert
ap ore
Ġk it
end e
10 4
Ġpale ogeography
Ġlo os
hel ia
met er
Ġaltern atives
Ġarch ived
Ġblock y
Ġgran ul
Ġgran ules
Ġble ached
ĠNum bers
Ġwild life
ĠRy uk
ĠSwe et
ĠDJ F
ĠAulac oseira
F I
Ġc rocod
Ġin app
Ġre ar
Ġl ose
Ġe ase
Ġh im
ĠG ray
out s
Ġbi ore
Ġ20 2
ĠJ en
Ġam ber
Ġprec a
Ġsupp ression
Ġder iving
Ġhom olog
me asurements
Ġpalaeo environments
Ġreplic ated
hu is
Ġemb ay
Ġanticycl one
Ġfus ed
Ġcylind er
Ġmut ual
Ġseaweed s
ĠKong s
Ġdepart ure
Ġhyps odont
i ast
k u
on ation
is ols
ĠT am
ĠC IA
ĠM ik
ch o
ĠD ale
ĠH ansen
Ġfl esh
Ġder ivation
omet rically
Ġabundant ly
ĠSh ore
Ġlif est
Ġpers on
17 0
Ġvolcanic lastic
ĠBra arud
ĠGen us
ung s
Ġion ic
ĠPal mer
Ġnurs eries
Ġzo oxanthell
esc ale
Ġsider ite
Ġprism atic
A d
m ill
u oka
Ġt ried
ĠT ah
ĠS ignific
pl an
ĠJ P
Ġeastern most
au er
Ġret rof
Ġcontrast ed
ĠAb d
ĠAc ross
ĠTrans antarctic
Ġaccel erate
ĠAct ive
Ġoptim ized
Ġformal dehyde
Ġbord ered
Ġeukary otes
ĠBI OM
ĠActin ocyclus
Ġscall op
oglob igerina
G u
S outhern
n orth
Ġs ab
ic ornis
Ġp ry
Ġp umps
ent er
ĠS ich
ĠA str
ĠE EP
Ġen quiries
ep age
Ġ4 30
Ġgl and
unt sandstein
Ġund et
Ġref ine
ĠIs s
Ġcycl ical
Ġdefin itive
Ġfragment ary
Ġmor ning
ĠMor ozovella
Ġartific ially
Ġarrang ements
Ġdiscern ible
ĠDV DP
otruncan a
Ġlion fish
Ġacule ata
C al
g s
ro pping
Ġre analy
Ġh oc
if olia
Ġan k
ĠB ass
ers en
Ġind eterm
ens on
Ġhigh resolution
ae us
Ġ19 4
Ġsampl ings
Ġge od
ĠY en
Ġsuccess ional
Ġrest s
Ġgrain stones
Ġprot ective
ĠSe ven
Ġ45 00
ĠEocene Oligocene
ĠGu am
ĠBi ogenic
ĠNP IW
Ġdil ute
Ġtur f
ocy tes
Ġsomet hing
Ġ105 1
omon os
Ġinherent ly
Ġregen erated
Ġhapp ens
Ġencoun ters
fil tered
Ġcomprom ise
A z
O G
S ince
g ill
p recipitation
Ġw avy
ic at
Ġm imic
em ert
ĠI de
Ġan ammox
ĠD ans
ĠH unt
ĠR DA
ĠO CE
Ġper imeter
ĠTh ier
Ġext ents
Ġmic ronekton
Ġmin i
our able
Ġorigin ation
Ġneg ot
Ġdown wards
Ġrun o
Ġfraction al
Ġdiscuss ing
Ġclos ures
rel ief
Ġmort alities
back s
Ġvisual ize
umines cent
plo itation
Ġabandon ment
Ġattract ive
Ġscr ub
O l
c i
Ġt ilt
it ability
Ġw alk
Ġb oring
id gian
ot he
ĠP Z
op pler
ĠF lo
Ġsh ock
ĠCh ao
iss en
ĠAN T
Ġrepro duces
Ġillustr ations
ka ido
Ġeng agement
ĠOrgan ization
feed ers
Ġalae oclim
ĠHimalay as
ĠNeg ative
Ġsurvivors hip
ĠCoch l
iox id
ĠGuay mas
C ar
c u
at able
or igin
as ia
Ġre bound
Ġth ings
Ġg n
ĠR R
Ġcl ad
ep han
Ġover bank
ph ot
yn chron
Ġreflect ive
fl at
Ġmed usae
ĠSh im
Ġlog ging
Ġ36 5
Ġdrain s
ĠEst uarine
mic robial
ĠCons ider
Ġdegrad e
bal anced
Ġsaf ety
ĠTH E
Ġbir ch
ĠWP WP
ĠKenn ett
ĠSard inia
u aries
in er
Ġd rap
Ġlarg escale
oz yg
Ġrest oring
oph ax
Ġsol ids
Ġlith ic
Ġcop ies
ĠTrans ect
ĠBel gian
Ġbrown ish
Ġlob ster
ott i
Ġconstitut ing
mean s
umin ous
Ġunp redict
ĠAbund ant
Ġclaim ed
acul ites
Ġdissol ve
ĠRain fall
Ġunsu itable
bet ween
ĠHok kaido
T T
b io
ĠS ingle
ĠP K
Ġr f
ĠB D
ĠE NA
ess ional
olog ique
Ġdist rict
ĠAl ab
Ġsal in
Ġinflu ential
Ġwarm ed
Ġif i
oph otic
Ġ24 5
Ġsk ills
Ġfall out
Ġstrateg ic
Ġmaint ains
ĠMc K
Ġrot ating
Ġfold ing
Ġnan oplankton
Ġvill ages
Ġalae ogeography
Ġbor ings
Ġqui et
archae ota
vary ing
Ġprerequ isite
omonos ov
Y ON
i h
Ġc ren
it ably
im mer
ĠC ory
ĠN R
ef er
Ġtra cing
Ġlong line
oth rix
abil istic
EM O
Ġchalleng ed
Ġnucle i
ĠCycl otella
Ġalae oecology
Ġsept a
ĠOstrac oda
ĠSIM PER
ĠPosid onia
L e
W iener
b ia
c ule
Ġt ips
Ġo phi
Ġre aring
Ġl la
Ġex it
ĠF E
ĠF ract
Ġch al
ĠD n
ĠR oc
ĠR anges
ĠW FD
Ġk t
str ate
Ġpar asequ
Ġcr at
of lor
ophy cus
Ġdef ense
usp ension
set t
Ġnormal ization
Ġheter otrophs
Ġpaleo environments
Ġmot t
Ġinflow ing
oster a
Ġminim izing
ĠSl ov
ĠUN CLOS
ĠIll ino
Ġacritarch s
Ġrod ents
Ġtren ches
c ult
d iss
id irectional
ĠS aint
ĠM us
Ġr ating
ĠL yn
ĠW isconsin
vi ers
Ġpo orer
Ġsl ump
Ġcr aton
Ġ18 4
Ġcomple teness
Ġder ives
Ġcap illary
min imum
Ġov erex
che ll
ĠAM BI
Ġarid ification
Ġpul ch
-- --
ĠHa eckel
Ġelim ination
ĠHad CM
Ġbord ering
Ġmask ed
Ġcong ru
Ġbrit tle
Ġsegreg ation
Ġarthrop ods
Ġframbo ids
ĠMull er
U s
he lf
Ġc ord
is able
om agnet
ĠP LA
ĠB ull
ĠB ranch
ĠL ength
ĠW OCE
Ġ5 20
Ġy e
ors ch
10 7
ha w
Ġhum m
Ġdry ness
ĠSpec ific
ocean ic
Ġtag ging
ĠImp acts
Ġminut um
obi ology
Ġhor se
Ġunfav orable
ĠSimps on
ĠCoscin odiscus
D C
l ined
p atch
Ġsp line
ĠB ab
ĠB ir
ĠF red
ĠD ynamic
Ġdec or
ĠK un
Ġ20 4
Ġform ulae
Ġ10 12
ays ia
hn e
10 8
uc ive
Ġent ropy
ĠPalae ogene
Ġgra zed
ĠCor relations
ĠLab or
ĠSw an
IR O
Ġdiv ides
Ġbeh ave
section al
Ġfer rim
Ġresil ient
grad ient
Ġdownsc aled
vertebr ates
Ġhar sh
Ġexplos ive
Ġpry mnesi
G ymnodinium
n on
Ġst ones
ĠC ost
ĠC osm
ĠP av
ĠF aunal
Ġsh ut
ĠL omonosov
Ġun iqu
Ġmet ac
Ġec ot
Ġcr assa
Ġu k
Ġdiscuss es
ĠNe oproterozoic
Ġ33 9
ĠBa um
for cing
Ġappropri ately
Ġreturn ing
ED S
Ġellip tical
ĠDav id
ĠActin omma
ĠSens itivity
Ġisobath s
Ġthaw ing
Ġannot ation
Ġaz im
Ġbiostratigraph ical
Ġspars ely
Ġhyperb ore
Tur onian
Ġinapp ropriate
h ill
m aker
p ollen
u er
Ġc ups
Ġw ire
Ġd anger
us ive
ĠS ource
am o
ĠP is
ĠI J
ab e
Ġco hesive
Ġsc our
ĠK on
Ġ15 9
Ġwhen ever
Ġ16 2
Ġgrad es
12 3
ru its
Ġsalt ier
ĠFran k
con centr
Ġparticip ate
uck y
Ġhierarch y
ĠPhilipp ine
mix ing
ĠNan jing
Ġcock le
Ġbifur c
ĠSing apore
ĠBrun hes
i ations
l is
p el
p alae
w aves
ic ola
or ov
Ġh t
om ers
ut er
ĠS und
ĠC up
oc en
ĠP oss
ist ure
ĠN at
ĠE AC
Ġspec ulative
Ġtrans por
ea ver
ĠK rus
Ġpar sim
Ġrepresent ations
Ġland ed
Ġimpact ing
Ġcent imeter
Ġtimes eries
Ġ22 00
Ġlab elled
Ġmacro in
Ġant ioxid
ĠAc cept
ĠEng ineering
Ġparticip ated
asure ment
ĠCN RS
Ġmultid imensional
Ġsucceed ing
Ġcontradict ory
ĠTuk ey
Ġpacific a
ĠOpercul odinium
c up
n ov
Ġn app
ĠA IS
Ġg ast
Ġas cent
ĠM ut
ĠM agnet
ĠI F
ĠB ent
Ġen vis
ĠW u
erm al
Ġdifferent ially
Ġorgan s
Ġrem ob
ĠX ia
Ġ27 7
Ġcolon ize
ĠCo ok
Ġreal ms
Ġload ed
Ġhom epage
Ġexpect ation
Fe bruary
Ġselect ively
Ġstromat olite
ĠBro ad
ĠScandinav ian
ĠRadiolari a
Ġung ulates
Ġenum erated
ĠSich uan
A c
a ired
Ġe g
ul ari
em i
ĠB an
ĠH ot
Ġfo uling
ograp tus
Ġfun nel
Ġnon hydrostatic
onom ical
Ġstate ments
Ġaltern atively
osc and
Ġbio horiz
Ġbuild up
Ġpump ed
ĠBo hem
Ġtrawl ers
Ġurban ization
Ġrud ists
Ġcaps ule
ĠOff shore
sub tropical
ĠSuper group
Ġarche opyle
Ġcort ical
Ġdendro gram
Ġlaun ched
Ġrept iles
ĠOccur rence
Orb igny
P OC
l asting
al inity
Ġb inary
Ġh ollow
ĠP NA
ĠO oster
Ġcons olidated
Ġ9 50
Ġtra v
Ġ16 8
ĠX in
Ġ40 1
LA ST
ĠReg ions
Ġpalyn ofacies
ĠAR I
Ġglob osa
domin ant
ĠMass achus
Ġswim mers
Ġmusc les
Ġdiamict ites
Ġeconom ically
Ġimpr int
Ġsyring e
ĠOtt n
Ġenig matic
f ram
k t
m og
re le
re ck
at idal
at ulus
Ġs ap
Ġh idden
ot ian
ac ia
ab rian
ĠB and
ĠB ru
ĠF ern
ĠG ro
Ġlar va
ĠMar itime
Ġge ost
ĠCl ose
Ġpref ers
dep osition
ocyst s
Ġorient ations
ĠFl ood
flu ence
Ġengine ers
ĠChang jiang
ĠEA IS
Ġeuphaus iid
ĠCru ise
lide an
Ġirradi ation
ĠThier stein
P M
b ric
Ġt ension
Ġd ub
le te
ul atory
ĠS ang
ĠS ever
ĠP rop
ĠL op
ost ok
ff y
Ġle ather
Ġsub zones
Ġcond ucive
Ġac me
Ġchar ge
ĠY an
ĠMed ieval
Ġdepend ed
Ġinit iate
ĠNe gev
Ġagg rad
Ġbra ided
Ġfav ors
ĠSpec imen
ĠReg CM
Ġconclus ive
bo ok
ĠGen etic
Ġlook ed
PC R
Ġtry ing
ĠMarsh all
ĠPerm o
stud ied
ĠMassachus etts
h ar
r ata
Ġs ieves
Ġo olitic
or hynch
Ġp ept
as a
le igh
ĠS Q
ĠS ong
Ġ, .
ri ental
ĠE TM
ĠL ud
Ġloc us
opl ank
Ġsal ts
Ġmicro t
ĠQ TP
let t
Ġoverl ay
Ġconstruct ive
Ġfore arc
Ġion ization
Ġimm ers
ĠBul g
ĠIr garol
Ġdiam icton
raf ting
Ġect s
Ġtwent ieth
Ġgrapt olites
ĠCAN YON
ĠKnow ledge
Ġcompos ites
ĠKoz ur
l ower
m ir
ig era
ĠM os
ĠI g
Ġan onymous
Ġde alt
Ġco iled
ĠH ul
ĠO lig
uct ively
ĠW olf
Ġinter ventions
ont ologists
Ġref inement
Ġj aw
Ġphot ographic
Ġstandard ised
Ġwor st
Ġ28 3
ĠSS A
Ġmicrobial ite
opod ium
Ġdefin ite
col ored
Ġstabil ize
Ġboreal is
Ġinclus ions
ĠHar ris
Ġobsc ure
warm ing
Ġcit iz
NC AR
Ġirre vers
Ġjurisd iction
C om
b enthos
d f
z el
Ġm isf
Ġth romb
ol ids
Ġcon es
ĠC ycle
Ġon coids
ĠP am
ĠD eg
ĠR N
ous s
ost rea
ĠK C
ail ing
Ġmicro grap
Ġanalys er
Ġconf usion
Ġrespons ibility
Ġoper ators
ĠApp lying
Ġ195 6
di ep
ĠCer at
omple x
ĠChen g
alt itude
ryst alline
ĠMack enzie
O sw
P eridinium
s m
ĠC U
ant o
ĠF le
ĠF ried
Ġco als
ĠL och
Ġcl in
pt a
ĠK aw
vi k
Ġro of
Ġ15 20
19 5
Ġlog istic
ĠPo isson
Ġextract ing
Ġbehaviour al
ians han
Ġgran ular
ĠSk eleton
opro v
Ġrefer ring
Ġcomplement ed
Ġscaveng ers
Ġfold ed
Ġdred ge
Ġrein forced
Ġnav ig
Ġdetermin ant
Ġfertil izer
Ġiter ative
Ġimpr ints
Ġrecal culated
f action
n eg
o ols
z ation
Ġf ul
ar ov
ĠS ed
ĠC rass
op en
ĠD istance
ĠH is
ĠH amb
ĠL SS
Ġspec ulum
Ġcl one
Ġ5 30
ont ian
Ġdet achment
Ġref erenced
ĠWh it
rab le
set tlement
ĠPh ill
bre eding
96 7
Ġdivers ion
Ġdiv isions
ĠPF Z
Ġsimpl er
Ġhatch ling
Ġtet ra
Ġinnov ative
Ġfamili ar
Ġpulch ra
T OC
f ill
p ing
in ally
Ġl act
ol ing
ĠC inc
ĠC rete
Ġas l
Ġr arity
Ġinter decadal
ĠJ ar
Ġshe ath
ov es
Ġtotal s
Ġra ising
ĠAn th
Ġsection ed
ict ions
Ġ16 6
Ġpercent iles
11 6
anc ouver
ES M
Ġwar r
Ġ00 2
ne ys
ĠVal d
Ġgo ethite
Ġcho osing
air s
ĠRock y
ĠPV C
Ġswell s
Ma astrichtian
Ġcentimet res
Ġbog s
ĠSyrac osphaera
Ġkern el
ĠInit ially
al dehyde
Ġth read
ur assic
le a
ol ving
iv ore
ĠM ort
Ġsp anned
Ġch rys
ĠE bro
art ner
Ġ4 60
Ġme at
Ġun rel
Ġ9 000
Ġtra ffic
oy a
Ġpeak ing
Ġtherm osteric
isc her
ĠCal ibration
Ġpaleo environment
Ġdiffus ivities
ĠIm age
ĠCC S
ĠMod erate
Ġelong ata
Ġintr ud
Am ph
oper iod
Ġmask ing
Ġassist ed
arin ina
Ġmunic ipal
ĠChond rites
? .
id ase
ĠS z
ĠC ushman
od ern
Ġby pass
ir ie
ĠF ull
ess a
Ġ5 60
Ġfo resh
Ġro dent
ĠZ ostera
Ġstruct urally
Ġhydro chloric
Ġins oluble
Ġback ward
Ġampl ify
ĠBe h
ĠComp onent
Ġleg it
Ġsudden ly
Ġaccretion ary
ĠHer on
Ġrhyth mic
Ġhurric anes
ĠPull eni
Ġnaut ical
Ġrefug ia
ĠVenez uela
N ew
Ġthe rop
at ia
ĠC AS
ĠC phy
ĠD K
ess or
ĠH orn
ied mont
Ġmet all
Ġqu ies
Ġac ademic
Ġcalcul ates
Ġpreserv ing
Ġprop osal
Ġsubs ampled
och rome
ĠPer i
Ġremov es
ĠAc oustic
Ġwood s
Ġ195 1
Ġgravel ly
Ġnan oflagellates
ĠFlu x
aping ian
Ġcarc ass
Ġtil ting
ĠSor bas
Ġlogist ical
Green land
ĠCIR OS
B i
F L
d ock
h of
m ot
s ided
ĠT F
ĠT ag
if ier
ĠC z
ĠC rib
ud y
ĠD oppler
ĠL ef
Ġle ached
one is
ob ile
ef ield
Ġprec lude
Ġsupp lying
Ġele ven
13 5
ĠEu ro
Ġopt odes
Ġvis ibility
Ġspread s
AT ION
Ġcompet e
ĠDec adal
Ġpartition ed
ĠSB E
ĠOMZ s
ĠEuc lidean
Ġradio active
ĠCab o
ĠElev ated
Ġenlar ged
Ġdwar f
S ub
h ave
m igr
Ġc hick
it age
ar ic
Ġre ecting
ĠC od
res istant
ac id
ĠN u
ef lon
Ġman ate
Ġ18 80
osp ores
Ġtop ographically
Ġthem ean
ĠSp e
ĠSp athian
Ġprog n
Ġx er
Ġ24 7
Ġclay stones
Ġdimin ishing
Ġcrypt ophytes
Ġgig ant
Ġdeline ate
ĠBot ry
ĠAx is
ĠPercent age
Ġcollabor ative
D i
] ;
c s
t rending
w asser
ĠM ot
ĠP ess
Ġsu ction
ĠN ik
Ġch aet
Ġun ivariate
Ġun fortunately
Ġ20 40
ail s
Ġfact s
Ġpar all
ĠZ em
Ġprob abilistic
ick ed
Ġ22 7
Ġ27 9
yl on
Ġreact ivity
Ġbio availability
ĠMP B
Ġcut icle
Ġnorthwest ward
Ġnight time
prising ly
Ġscall ops
Ġunex pl
ĠBraarud osphaera
V al
c ox
Ġt ran
ic z
Ġp av
le ading
Ġn ol
Ġst ory
ĠC rust
ĠC asc
ĠB t
Ġcl ues
Ġinter ruption
Ġle ach
Ġup date
Ġunder current
ĠCh alleng
Ġland er
Ġbacter ium
Ġ28 5
Ġbreak up
ĠMS P
Ġcomplet ion
ĠPR ISM
ĠApp al
Ġminim ized
ett angian
ĠBioge ochemical
Ġepiphy tes
ĠDicty ocha
Ġpengu in
aev ig
Ġcaten atum
gol and
ĠBlu ff
G G
O s
U N
c ase
m ond
Ġf ol
st ri
ab d
th ird
ĠD rought
ĠL W
Ġsur rog
Ġinf ormal
Ġpo ison
aw n
Ġextens ions
Ġfa ith
Ġexamin es
ĠOr t
ĠMay a
ĠSE C
Ġmort ar
Ġconstrain s
Ġsoci eties
Ġtun nel
Ġblock ed
Ġnucle us
Ġasymmet rical
ĠProb ably
Ġtenu is
Ġultrason ic
ĠOoster schelde
V M
f ix
Ġa ect
in hib
en op
ion ema
ur ated
ĠC hemistry
od erma
Ġr k
ĠO pp
Ġfl es
Ġstr ing
ew ith
Ġcal cein
ree ks
lu vial
agn e
ĠGe ochemistry
Ġinitial ized
ĠSub polar
hal in
ĠGu ad
Ġamb igu
Ġinvas ions
Ġtel emetry
Ġbare ly
Ġbrecc ias
ĠGIS P
Ġstain less
Ġtang ential
Ġthall i
ĠMald ives
ĠKimmer idgian
Ġhyst eresis
B ank
h oon
m ounted
Ġc reek
it on
an os
Ġb ind
id ates
ĠC ow
ĠC arm
ĠM au
ĠB ird
Ġse es
ĠD AP
ĠL ateral
ĠR EMO
ian us
ep ing
ĠU AS
ob ionts
ĠK N
ĠV II
ĠV ostok
Ġlim n
ole t
Ġ30 1
Ġ23 00
Ġsubs ets
Ġ22 4
Ġlog ged
Ġbiot ite
Ġbiot ope
Ġstream function
sp ect
Ġide ally
Ġdesign ation
ij k
ĠDE V
Ġflex ural
ĠCle ve
Ġmultid ecadal
Ġma ar
Ġpot ent
Ġbenth onic
Ġterran e
Ġlivelihood s
Ġoutbreak s
Ġmicroat olls
ĠPulleni atina
T otal
d irect
~ ,
Ġc el
Ġp M
ĠM and
ĠP J
ĠD ak
00 5
val ley
ĠAt oll
are r
Ġpale odepth
Ġhydro x
20 8
20 16
Ġins erted
ĠGe ographic
Ġsubs iding
Ġopt ima
Ġoper ates
ĠAc id
Ġoutc ropping
Ġread ers
Ġach ie
Ġelect rode
Ġsomew here
ĠEv apor
Ġturbid itic
ĠTer race
Ġfec es
ĠPol ish
Ġstret ch
Ġstack ing
Ġads orbed
Ġinnov ation
ĠMol asse
Ġtroch osp
Ġpum ice
Ġunic ellular
Ġpolycyst ine
T r
j an
p hen
y there
al ina
os i
ĠS on
ac cess
ir i
ĠB M
ĠB oll
Ġab yss
ill arum
Ġcor ridor
Ġcan als
Ġout ermost
ograp hers
Ġact ivated
embl es
ĠWe i
Ġthick est
ĠAN ME
Ġpreserv es
Ġbra nd
Ġillustr ation
Ġproportion ally
Ġspaw ned
Ġ' *
Ġfail s
ĠSa udi
Ġhold ing
Ġdolom itic
Ġoverestim ates
Ġsaf e
ĠBelemn ite
D ep
b ow
p CO
w er
Ġc iv
im ilation
ĠT own
ĠT emperatures
ac he
rom a
ĠM oor
ad us
ĠO g
Ġspec ify
all ian
arb or
ĠK P
cul a
ex posed
Ġpar ag
20 3
Ġthem es
Ġwid est
ĠCor als
ĠCom put
Ġprogram med
Ġconver ting
ĠExt ensive
Ġhardground s
Ġecoreg ions
Ġloos ely
G en
S il
d isciplinary
l ateral
in ning
it ula
ly a
Ġg ather
Ġv ene
am n
em m
ĠM erid
ĠP oc
ge o
ĠB ak
og on
Ġ4 70
Ġk iller
ĠU TC
Ġam ple
Ġpr asin
ret a
ĠZ h
Ġbound s
Ġgrad ing
Ġpredict ability
enn ia
Ġshore ward
elf are
sel ected
Ġvisual ized
Ġoutl ier
ĠCap itanian
Ġinn ermost
ĠHoll and
Ġdecap od
Ġscint illation
H CO
J PC
J urassic
d iment
f uc
at in
Ġm other
Ġe ffic
ĠS par
ow a
ĠC hem
ĠP esc
est uary
ĠO v
ip per
ill ata
Ġdi pl
amin ated
ĠCh ain
Ġtre eline
Ġed u
Ġu a
Ġret aining
19 70
Ġvi ol
14 4
Ġrepl acing
Ġmiss ions
Ġhol istic
ocer am
hydro logical
ĠSmall er
ĠSpect ral
Ġvit ro
Ġorbit ally
ĠBray Curtis
Ġteleconn ection
Ġsut ures
Ġexempl ified
Ġinstruct ions
Ġantif ouling
ĠFeed ing
Ġpreca ution
C er
d et
ĠT aken
Ġis ochron
Ġg ains
ir ic
ĠB etic
ĠB yr
ĠB untsandstein
ĠF ro
ĠN az
ĠL DE
Ġim bric
Ġbi osynthesis
Ġ7 48
Ġocean atmosphere
Ġac anth
osit s
Ġdeep ened
Ġfirst ly
Ġmorph ogroup
ĠSouth ampton
ĠMa ar
och lor
ĠNew ark
ĠIndian a
Ġmot ivated
Ġve in
ĠCR U
Ġdesign s
ĠBe ij
Ġsmo other
eph ra
Ġdiag onal
ĠSand y
Ġpor po
Ġfus iformis
ĠTechn ical
Ġoptim ize
atist ical
Ġrecover ing
Ġgon ads
Ġinert ia
Ġencour age
ĠOpt imum
veget ation
ĠBarc elona
Ġvolt age
ĠAlf red
ĠKongs fjorden
D F
m ans
n ort
Ġa w
on ii
en richment
Ġf aint
Ġb rows
im on
Ġh orses
ĠA ccur
Ġst en
ĠP ier
ĠP elag
op ot
ĠB od
ĠN elson
ĠL ank
ĠG el
ĠW en
Ġle e
Ġcol oured
Ġform ulations
str atigraphic
Ġprec ludes
Ġorganic matter
Ġ30 5
Ġreflect or
Ġphot operiod
ĠGre y
ĠSim ulations
Ġlag ged
Ġ26 7
ĠSal ix
ĠBar n
ĠSu ccess
Ġisop ren
,, ,
Ġconvent ion
Ġace tic
Ġod d
Ġpermit ting
Ġcro pping
Ġcoprol ite
Ġefflu x
Ġhous ed
Ġlamell ae
dig alian
H V
f actor
j uven
y as
} }
ro x
ĠA OD
ag g
ĠR osen
Ġper iglacial
Ġint est
Ġ9 99
ribut ions
med ium
ok o
12 1
19 0
epend ence
Ġ29 3
Ġsimple x
Ġoil s
ĠBr idge
Ġassign ing
Ġinterf aces
Tri pos
Ġarctic a
calc areous
ĠAster aceae
Ġefflu ent
Ġsucceed ed
Ġdepocent re
Ġhousehold s
ĠTal ence
Ġadjo ining
Ġure a
Ġoph iol
ĠOttn angian
h orn
m acro
n an
Ġs old
Ġp osed
Ġm b
ĠM echan
ĠP il
Ġsp heres
ĠB le
ĠO il
Ġinter vention
Ġmod ulate
ĠCh at
Ġsl ur
ins ki
Ġbound ing
Ġevent ual
Ġ26 9
Ġspecial ist
aprop el
Ġsouthwest ward
con st
ĠCL IM
Ġdun efield
Ġapprec iable
Ġdispar ity
Ġunfav ourable
veget ated
ĠCed ex
Cor respond
Ġpyroc lastic
Ġunpredict able
Ġunrel iable
D D
P hy
r ids
v ia
Ġt am
Ġs id
Ġo re
Ġw ake
Ġp od
Ġp uz
ut ical
ĠA riz
ĠF ue
Ġco urs
Ġco bbles
ast om
ĠR U
art ing
ĠW G
Ġnot hing
ĠV ancouver
Ġam oeb
Ġ8 10
Ġappro val
ox idation
ĠPac i
Ġop ens
ĠSS F
Ġnann ocon
Ġfav ouring
Ġwar ning
ĠCH EM
ĠEqu ator
ĠSil ic
ĠSil va
ĠJo int
Ġcarniv ore
ĠEle mental
Ġaper tures
ĠVer de
Ġeld s
Ġjoint ly
Ġtriangular is
station ary
osacchar ides
L a
on ana
Ġw omen
Ġf ri
Ġand W
oc entrum
ĠM ich
est ing
ĠR ud
ĠR ey
Ġcons erve
ĠV ME
Ġmet re
Ġdisc ount
sh o
ĠPl anktic
lac ustrine
Ġ30 40
Ġany where
Ġ25 8
met hyl
Ġ21 7
ĠAmer icas
enn es
ĠPar ac
Ġbiot opes
pro t
ĠGroup s
Ġpalaeo environment
Ġsymb iosis
Ġrot ational
ĠIT F
ĠGy rodinium
ĠArc GIS
Ġstret ches
Ġmis leading
Ġcand idates
ĠAdv anced
Ġextraord inary
ĠSphen olithus
ĠLoe bl
ĠOsl o
2 17
B l
P H
c ross
g ly
m ajor
r med
t otal
y ing
Ġc ard
Ġm isc
Ġh orm
Ġde er
ĠH ur
ĠH OT
Ġinc omp
Ġ3 16
ip e
Ġwhe at
Ġtre m
ĠAr k
ove get
ĠAn gl
Ġatt ach
other ium
ipp us
ĠCa O
ĠDep ression
Ġspaw ners
Ġattempt ing
ĠGlac iers
onn a
mat ism
Ġpossess es
ĠUl mus
Ġstoichi ometric
ĠFed eral
Ġteleconn ections
ĠText ularia
Ġviv o
Ġwr ong
p rop
Ġc amp
Ġf oster
Ġp est
Ġm ating
os o
ĠC AP
pl ots
ĠN in
ĠH ettangian
ĠL ox
up welling
ak s
ĠW C
Ġlow s
Ġun available
Ġ19 48
ĠK in
ĠK um
eral d
ĠJ ud
Ġam in
Ġent ities
ift y
ĠMa ud
Ġtherm okarst
Ġrecogn izing
Ġsk y
Ġcomput ations
Ġcost ly
ĠCol or
Ġsettle ments
Ġsteep ly
Ġ195 7
Ġsoutheast ward
mark ed
Ġadvantage ous
Ġattenu ated
Ġnotice ably
ĠWarm ing
IL PS
ĠBot hn
Or d
Ġscre ened
Ġstagn ation
Ġric her
Ġcoccolithophor id
uvi um
ĠConf erence
ĠUlt imately
ĠHelic osphaera
F O
v ised
Ġt intinn
Ġc yp
es ch
Ġd ys
ul ence
ĠC occ
Ġon lap
ĠP RE
og r
ĠF As
red ucing
Ġsc rap
ĠJ i
ĠCh arc
Ġatt ribution
12 4
ĠCon st
ĠEP OC
Ġbloom ing
Ġ60 8
ĠPale ocean
itr ite
ĠObserv ing
com ings
bar rier
Ġcylind rus
Ġcontrovers y
Ġmerg ing
Ġgate ways
Ġtil ted
Ġreman ence
Ġredep osited
Ġsynerg istic
ĠGil bert
ĠLep id
Ġhapt ophytes
ĠBurg ess
c ontinental
f rom
g rain
n ik
t olerant
Ġt eleost
Ġw edges
Ġm ist
ĠT ib
os el
ĠA ch
st eady
oc ycl
ĠN ass
ĠR as
Ġ18 6
Ġbel ief
of lora
uch us
ĠAn om
ĠThere after
Ġend osymb
ĠFront al
Ġwest wards
Ġcoll oidal
ĠCol lect
ĠOther wise
Ġtext ural
Ġens embles
ĠAP A
Ġinstrument ation
test s
Ġlowstand s
ĠFer rar
Ġancest or
Ġbright ness
ĠMars diep
Ġdiscover ies
' ,
W A
m u
v et
Ġc ere
it ization
Ġm ater
el ids
ly k
os hi
ĠS ett
ĠC ells
un ctions
ĠI A
Ġdis put
Ġthan at
Ġun n
ob l
Ġext rat
str is
ov is
ĠQ i
can ic
usp ended
Ġ27 00
ĠRe ophax
ĠReg ression
ĠMe k
ĠVari able
AE A
ĠCer ro
ĠPe e
Ġdred ged
Ġconcurrent ly
ĠIndividual s
Ġundergo es
Ġspik ed
Ġcock les
ĠJane iro
Ġalco hol
ĠNep al
T ibet
b is
i ya
Ġc hel
Ġp ushed
ĠT min
ra vel
ĠB lling
ĠN RM
ĠL OC
ĠG om
Ġinter rupt
Ġper idin
Ġsc ul
Ġgl ider
ĠAl gal
Ġassoci ate
ĠSc ripp
ores ts
19 93
ĠTE M
Ġday light
Ġopt ically
Ġstrat otype
isp iral
son i
ĠInter actions
pro te
ĠAc arinina
ĠĠĠĠ Ġ
icul ata
Ġpenet rating
Ġens ures
ĠCP R
Ġstim ulating
Ġbig gest
Ġdimin ish
Ġsearch ing
ĠSequ ences
hist oric
horiz ontal
squ ares
ĠSPE I
Ġanatom y
Ġplac oliths
ĠKaz akh
Ġredund ancy
Ġretrof lection
ĠSkeleton ema
c at
an alog
is o
Ġb ass
Ġth al
ĠT ian
oc ally
Ġex ec
ĠB oulder
ĠN Z
ĠL anz
Ġcomp elling
Ġ0 10
Ġme gal
Ġout ward
ĠPro terozoic
Ġpalae otemperature
oph ragm
Ġ24 3
Ġ22 2
Ġconn ects
14 5
ĠNA C
ah l
tt ja
Ġconstruct ing
alg am
Ġsuper ba
Ġsust aining
pos ure
ĠScot ian
col oured
ĠSur lyk
ĠEp is
ĠIncreas es
Ġhomogen ization
Ġpock mark
Ġsym pt
Ġfloc culation
ĠOw ing
Ġspectrophot ometer
Ġmanufacture rs
ĠLoebl ich
D t
u is
at hic
Ġl obal
ĠT rib
ĠT utea
Ġv oy
ĠE w
ĠR ut
Ġmod iolus
ard o
Ġtrans cription
mer cial
ĠAs p
han ol
ĠSc he
ans as
Ġmatter s
Ġ17 2
19 97
ĠPA L
with standing
Ġcorrect ing
ĠRed uced
OS IM
Ġcut off
ĠPE T
ĠMin or
ĠHa q
ĠBer kel
ĠGerman ic
TA X
ĠBathy mod
Ġdamp ing
ĠImport ant
Ġalbatross es
ĠAnat olia
ĠMicrob i
Ġtriang les
clean ed
ĠIllino is
cup ine
J C
i w
l ith
p rec
at u
Ġf iss
Ġb an
Ġb atter
el mann
ĠC LA
ĠD over
ĠL F
ĠK om
ĠJ ak
Ġam plic
ean s
Ġappear ances
Ġshort comings
Ġ27 3
Ġstrat ied
Ġoverl apped
Ġdispers ive
Ca CO
Ġship w
Ġband width
ĠBr ist
ĠMac qu
Ġsec retion
ĠAbund ances
Ġembry o
ĠNamib ia
ĠElse viers
ĠFaro e
ĠEver y
Ġcaroten oids
Ġich thy
Ġferrug inous
ĠRyuk yu
4 50
L D
v able
Ġb read
Ġm ire
ro ides
em e
ĠB O
ĠB id
Ġsh ares
ad dle
ĠW orks
Ġcons pecific
Ġdec ipher
Ġact in
hen e
ĠPro to
Ġret ro
Ġtr im
12 8
Ġne ut
ĠEx amination
ĠAb breviations
ĠLa ur
ĠInter governmental
pro f
omm unities
Ġaccess ibility
ĠNW SE
Ġmob il
ĠThalass ionema
Ġsho ots
ĠPal m
ĠMult ivariate
Ġremineral ized
ĠDB O
oping ian
ĠComb ining
ĠPalyn ological
:: ::
Ġmach ine
Ġantib iotics
Ġinconsist encies
ĠSym posium
ĠSchem atic
Ġmueller ae
ĠBIOM E
T O
p ur
Ġo oding
Ġf aced
Ġl ions
us k
Ġsp otted
qu et
ĠG ab
ĠG EN
ĠW L
Ġsc ored
Ġ6 100
Ġconcentr ic
Ġno is
ins ular
Ġem an
ST s
ĠCO R
Ġ17 6
hal f
Ġarg u
ĠDep osition
Ġvir gin
Ġutil ised
ĠMP I
Ġgeological ly
Ġdrif ted
ĠBr ink
Ġ68 9
Ġsilicic lastics
Ġoxid izing
Ġtrigg ers
ĠHydro graphic
Ġfus ion
ĠPubl ishing
ĠOp al
ĠRef erences
Ġstrand ed
Ġpolyg ons
Ġpione ering
Ġanten n
Ġspha er
Ġmediterran ea
Ġsupr atidal
Ġalle vi
Ġsubglob osa
ĠDEV OT
N et
O Z
b one
Ġre ject
Ġl ing
Ġl ter
ĠS ri
ac re
ab u
Ġsp ell
ist ics
ĠH urric
ĠR I
Ġinter section
ff er
ill ard
ond er
cul ations
Ġexp end
Ġcore top
Ġcalc ication
ĠY es
stand ard
yr is
IS H
ĠGe osciences
Ġeros ivity
hel ix
Ġwet ness
elet al
Ġ00 3
ĠAssembl ages
Ġplat yc
ĠMark ov
Ġpermut ations
Ġstadial s
Ġ580 5
Ġdistort ion
pale osol
Ġentang lement
ĠAriz ona
A fter
F lu
H P
H igh
T able
W hen
al one
Ġm yr
ĠT KE
il tered
Ġg ets
Ġst yl
am ic
um en
ĠB LAST
ĠL us
iz a
we ighed
Ġsur plus
Ġad minist
ĠK er
ĠJ uniper
ros a
ov sk
ĠAl ter
Ġref raction
Ġmin er
Ġra cem
Ġmorph odynamic
Ġ25 7
Ġcolumn ar
Ġpalae obotanical
level s
agen etic
Ġbio events
Ġant illarum
Ġfac ult
Ġpert inent
Ġauthor ity
pir ical
ĠLar val
ĠAp plied
Ġimm ersion
Ġvisual ization
ĠMass ive
Ġstim ulation
Ġhighstand s
ĠMat uyama
Ġfeas ibility
ĠBlanc a
bot ina
sour ce
ĠSak halin
Ġvehic les
Ġdisaggreg ation
Ġomniv orous
Ġreag ent
ĠMary land
Ġalum inium
Ġindeterm inate
ĠBerkel ey
1 15
W allis
a um
b ut
h ore
n itzschia
p y
r ise
he red
nd er
it ella
Ġf elt
Ġb s
Ġl led
ul ator
ĠS ug
um ina
ac ity
ac ular
ĠF ire
ĠH un
ell um
Ġme ets
Ġcor ros
Ġmay be
end a
Ġj uniper
Ġpale obioge
Ġnon marine
13 7
aw ay
Ġ16 4
ĠX i
Ġmes ophotic
Ġcontain er
ontin uous
Ġslow ed
ĠEv ents
Ġcomplic ate
ĠSR B
Ġarr iving
ĠGF DL
ĠPor cupine
Ġcontour ite
Ġfuc oxanthin
Ġkarst ic
ĠSec chi
Ġbarn acle
ĠRadiolari an
Ġsiphon ifera
ocoen oses
Ġenum eration
Ġproof s
Ġtetrap od
Ġjap onica
ĠEif el
ĠConclus ions
ĠAccept ed
Ġeffic acy
ĠBeij ing
K endall
S erv
T N
t ice
Ġc ad
Ġm aster
Ġand es
Ġto days
ĠT reat
ĠT AM
ĠS ac
ĠA GCM
Ġst ars
um er
Ġbe aked
Ġr up
per man
ĠN ap
ag le
ĠR ib
Ġen velop
ĠW hy
Ġdis l
Ġsub script
ĠK an
ĠV el
Ġet ched
ĠSp ur
Ġbar le
Ġoverl aid
Ġimplic ated
Ġnortheast ward
Ġelong ation
Ġcry osphere
ĠPrevious ly
Ġwild f
Ġsym pat
Ġrug ose
Ġhemisp heric
Ġlogarith m
ĠLimn ology
osilic ates
ĠSperm onde
ĠFract ure
Ġimmers ed
Ġirrevers ible
Ġparall els
ĠMacqu arie
; .
L L
M I
M ar
T ER
Ġin versions
Ġl uc
Ġl aevig
ĠT I
ĠA ks
Ġst ores
Ġr ia
Ġsu ites
ĠB uch
ĠF em
ĠE el
ast rea
ĠL un
erv es
ib ilities
rop ter
Ġsc an
Ġgen der
ĠV oc
ĠAl pha
Ġkn ots
Ġ30 8
Ġbed forms
Ġsens ory
Ġes ter
Ġcar inata
ĠSh ield
anc a
ofl ood
16 6
Ġdevi ate
ĠST MW
be ing
po ol
Ġord inary
Ġmigr ants
Ġretrie ve
Ġacclim at
ĠLoc ally
ĠNM DS
Ġraf ting
Ġlocomot ion
Ġconce iv
A cc
C N
T RA
g rown
i ew
al ic
Ġp age
Ġl an
ĠS om
Ġv oids
ĠP rib
ĠR ank
ens ions
Ġle v
Ġvari ant
tern oon
yst is
Ġ7 44
ĠAr ist
Ġadv ent
ither to
19 94
Ġweak en
Ġmacro benthos
Ġ29 5
ĠAcc umulation
Ġ55 61
ĠBel ize
ĠRep e
Ġadop tion
Ġlin ings
Ġanch ored
Ġbifur cation
Ġven ation
Ġhydrograph ical
Ni elsen
ĠMER IS
ĠCaled onia
Nov ember
d ale
v ar
en feld
is otopic
Ġf asc
Ġb ib
ro cks
Ġre ared
Ġe w
ĠC ass
um ed
ĠM CE
ag an
ĠR aman
Ġab ilities
Ġle ucine
Ġk V
Ġdec alc
ĠV a
Ġvol atile
ole pis
Ġpale obathy
Ġmagn esium
Ġneed le
Ġphosph oric
pro duction
Ġrad ical
Ġmagnet ozone
Ġsett lers
Ġswim bl
Ġsimpl ification
Ġencrust ation
Ġcentimet re
ĠBI O
Ġprograd ational
Ġhous es
Ġdisaggreg ated
ĠSomal ia
ĠReal m
ĠLad inian
ĠGyroid inoides
U sing
d an
h mann
k an
m ars
v ision
Ġs uture
ĠT app
od icty
ch ard
ĠL ew
ear l
ens ch
Ġrel iance
Ġresp ired
Ġform ulas
Ġsl ick
itud inally
Ġgeneral ist
agn o
Ġhad dock
20 7
ock y
inal is
ĠRec ord
grap hy
Ġdam ages
Ġbr ines
opro t
Ġsch ools
ĠCorrespond ence
Ġinhab its
lab eled
ĠSep ar
ĠPennsylv ania
process ing
Ġsubgroup s
Ġmili olids
Ġconfound ing
Ġexacerb ated
Ġguarant ee
ĠHet ero
ĠBath onian
ĠKrus kal
Ġforesh ore
b ing
b ec
re plete
on ically
it id
Ġw el
as co
Ġre appear
el lect
ĠT IC
ĠA STER
ĠC our
ĠP ech
est ruct
ĠB ody
00 00
Ġcl ock
Ġ19 2
Ġconc ert
gen ces
Ġmicro fauna
Ġdiatom ites
Ġ50 100
Ġlo ops
oth ills
ĠEl be
Ġconduct ance
ĠRec ords
Ġdesign ing
ĠJur a
Ġ195 9
Ġichn ospecies
ĠTer ra
aver aging
Ġaper t
Ġmag ma
ĠEB M
IL L
Ġwack estones
Ġstromatopor oids
imed a
Ġgull ies
ĠAcknowledg ements
Ġweigh ing
E arth
M at
l aw
Ġc arb
Ġf oll
Ġd ial
ar n
Ġp g
ĠT ro
ĠT ana
Ġn ons
ĠD x
Ġab er
ĠW ord
Ġper c
ib les
Ġsur pass
ĠU L
Ġtem plate
ĠV ersion
Ġlay ered
hes ion
ĠNorth western
xim al
Ġprog ressed
25 4
tt a
ĠDes ign
Ġarch iving
Ġ33 405
Ġmot ivation
Ġmole cule
was hed
Ġprevail s
ĠMal aysia
ĠPr or
group s
Ġhatch lings
ĠVi ew
Ġvacu oles
Ġexerc ises
Ġretrieval s
Ġps ych
Ġsubduct ed
ĠApenn ines
Ġmetap opulation
abund ance
Ġsinus oidal
Ġzooxanthell ae
ĠTah iti
Ġbarle ean
3 22
N N
o es
v ai
Ġo ss
Ġin oceram
Ġd ene
Ġp un
Ġl le
ĠT eflon
ĠS ina
ĠA ccess
Ġv ision
ir teen
ĠE rie
ad v
ad ocian
ĠL amb
ĠG DP
Ġle eward
Ġme i
Ġun ity
ĠK ay
Ġam algam
Ġequ id
Ġinv aded
Ġvol unt
Ġcle arer
20 6
Ġmac rescens
ĠSub unit
Ġfrag ilis
Ġparameter isation
Ġ32 3
Ġplay ing
Ġdiagen etically
ĠIm pro
Ġstri kes
ellow ship
ĠEqu us
ĠLar vae
ĠCont ribution
orp hy
ĠBio facies
Ġur gent
Ġhol obiont
bi omass
Ġiniti ative
Ġseism icity
Ġung ulate
Ġinterc onnected
ĠRelations hips
Ġdissem ination
ĠPanthal assa
Ġtonn es
Ġembay ments
% ;
D in
e aling
h us
ĠThe ore
ĠB rom
ri asian
ĠH on
ĠL ug
Ġab raded
ass ess
Ġ0 967
Ġob long
Ġvari abilis
Ġint ention
Ġdis reg
Ġ19 01
ĠV erg
ĠJ H
ĠAN OSIM
ĠSp art
Ġmargin ata
other m
Ġne kton
off shore
Ġ29 1
ĠCent ury
ĠPhy t
ĠMex ican
org onian
opter a
Ġellip so
Ġgraph ical
Ġrein force
Ġcephal opod
Ġdetermin istic
imic robial
Ġbench mark
ĠCatal an
coast al
Europ ean
Ġinfrequ ent
Ġhyperbore us
ĠBrist ol
g as
ĠS enegal
ĠS oft
ĠB ost
hic s
th ur
ĠH SP
Ġspec i
ak u
Ġ19 45
erm ann
ĠV ic
Ġref rig
lu cent
Ġmon ophy
ret acea
enc ia
ox ins
Ġep i
Ġhist ograms
Ġevalu ations
ocl astic
ĠBa ha
ĠMe asured
Ġpropag ules
ĠCont act
Ġextrap olate
Ġsequest ered
ĠRay leigh
ĠISW s
Ġconflic ting
ĠVis ual
Ġimplicit ly
Ġphosphat ase
Ġinev itably
ĠLaz arus
Serv ice
A b
E st
Ġa rose
on k
Ġh inge
il iceous
Ġg C
Ġg erman
Ġfor am
Ġbe ads
ĠP ig
ir m
og ly
ĠN em
ĠE GC
we g
ĠW eg
Ġint ellect
ont s
Ġestim ator
Ġi ii
old t
Ġtherm o
Ġshort est
Ġlith ostratigraphy
ĠCl a
Ġlack ed
Ġ32 1
Ġgy ttja
Ġseas c
Ġdrop lets
Ġcut s
Ġisland ica
ĠGlobiger inella
Ġfig ured
acc limation
ĠNa Cl
ĠPoly chaet
Ġppm v
ĠPark er
Ġpter opod
Ġham mer
Wh ile
ĠDig ital
ĠMats uoka
hydr ite
oveget ation
ĠDEVOT ES
B oth
R eg
a reas
d ark
Ġt m
ro ot
ĠS OD
un ami
ir p
ĠD end
ĠH umb
ĠL ias
ĠW B
Ġsediment ologic
Ġk i
ĠJ L
ĠJ ose
Ġout standing
Ġimp ose
ub o
ub ian
Ġes ters
Ġgr ants
ah u
DP E
Ġevapor ated
Ġphen ological
ĠIm mediately
rat ios
Ġpenet rates
Ġtrop ospheric
ĠCy the
Ġdiscrim inated
ĠPubl ication
Ġmicros par
ĠLaurent ian
Ġsequential ly
Ġwhor ls
Ġempl aced
ĠDol om
Ġstromatopor oid
Ġbiomineral ization
ĠOcc as
C ustomer
c ap
s ulf
z le
in oco
Ġw elfare
Ġn l
ĠC ra
ĠC ontinent
st s
ist ing
ĠO xy
ell or
Ġsc hed
Ġ6 30
ĠAr throp
ĠZ yg
10 9
Ġu c
Ġdr iest
Ġ25 4
ĠSC U
12 2
ĠPar ameter
22 2
bb ly
aer ophorum
ĠEd wards
ĠReef s
ĠPrec ordillera
ĠNeog lacial
Ġfoot age
Ġexcav atum
Ġrim s
dal ena
Ġholococcolith s
Ġsnapsh ot
Carbon iferous
Ġmicrophyt obenthos
ĠVoc ontian
D O
M any
m agnetic
Ġm ul
Ġl umin
im in
ĠM r
ĠM ul
Ġ2 18
op ies
og g
ĠR and
ong o
ost e
ass iz
Ġpart ies
Ġmar garit
Ġdec oupled
vi olet
ose idon
ton s
du vai
ĠSt ev
lu cos
Ġisot ropic
ĠWe ight
Ġhy aline
Ġexpl oratory
plic ates
Ġcharacterist ically
Ġperform s
Ġrest ore
Ġ27 4
ĠNe u
14 6
Ġtend encies
Ġol iv
22 6
obacter ium
Ġoccas ion
Ġfast est
Ġminim ise
Ġeng aged
Ġgran ite
Ġsho ot
ĠTe hu
Ġisother mal
Ġunders aturated
Ġopin ions
Ġhotsp ot
ĠPetro leum
Ġbrad yi
Ġantioxid ant
ĠPoc ill
Cer atium
ĠPror ocentrum
Customer Service
D IC
L i
W estern
c les
h tt
j u
t n
u its
Ġthe c
er st
Ġd as
le thal
ot urb
st rom
ĠM agn
ĠP as
ĠP ore
Ġse vent
ĠF requency
ult imate
Ġsub family
Ġmore over
ef ined
Ġnorth westerly
Ġland mass
IS O
19 95
ĠAll en
Ġ21 4
Ġ28 1
14 8
Ġlog gers
Ġ33 5
Ġ32 8
Ġdefin itely
ĠCC SM
Ġrev olution
Ġpseud onana
ĠSR ES
iph atic
Ġdy ke
ocon us
Ġmag matism
ĠConcentr ation
Ġimper fect
ruit ment
Ġhill slope
Ġdissip ative
Ġrecur rence
Ġglycer ol
Ġimpover ished
ĠLop helia
ĠKazakh stan
M on
in ch
on ents
Ġo z
Ġw ord
ut ing
ĠS per
ĠI OD
ĠB k
ĠH ans
ĠL ange
ian nual
Ġun structured
Ġun idirectional
Ġsub gen
Ġconc retion
ĠV ent
Ġph arm
Ġlat tice
Ġed itors
ĠBas al
Ġsand e
ĠDe e
Ġapproxim ations
Ġ24 00
Ġrele asing
ley e
IC P
Ġchron ostratigraphy
ĠCol lection
Ġrece iver
Ġpert aining
Ġalk yl
ĠUnd erc
lay ered
Ġbrack ets
ĠSum atra
Ġcovari ation
ocon cha
ĠNear ly
Ġprefer able
ĠCong ress
ĠSpring er
ĠBioge osciences
Ġalken ones
olat itudes
Ġooz es
ĠLess er
ĠAlg orith
ostom ella
ochem ically
Ġwithdraw al
Ġunequiv ocally
Ġundes cribed
ĠLME s
Ġbrows ers
ĠLank a
ĠSCU BA
U A
g el
Ġb on
Ġb lu
ro red
os au
et hod
ĠC ode
Ġwith stand
ĠP om
ĠI U
ve g
se asonal
ĠF OD
ĠN IS
ĠN ES
ĠL ane
ĠR hen
ary n
acter ial
Ġ7 10
Ġpe ats
Ġage ostrophic
Ġtop ographical
20 1
Ġcomplex ation
11 1
Ġox yc
Ġaim ing
Ġpul sed
Ġsul cata
Ġzon ations
Ġzon ally
ĠDist rict
ĠBur digalian
Ġintegr ates
ĠPress ure
Ġsperm at
Ġdigit ized
Ġorogen y
Ġmach aerophorum
Ġwal rus
Ġincurs ion
Ġpap ill
Ġferrim agnetic
ĠZem lya
3 26
f ast
h ler
s sel
w ager
it ized
Ġp aint
ĠM io
ĠH ouse
ĠR og
up e
ĠW ol
yst ic
Ġ12 18
20 2
Ġnit ric
Ġcar teri
12 7
ral ower
Ġwor se
Ġvolcan ics
Ġsignal ing
Ġmo ult
ĠBec k
ĠPer ch
flow s
Ġpredomin ated
ya ulac
ev olution
ĠSM F
ĠHig ashi
ĠSL R
ĠLoc ality
ĠIO DP
Ġbiostratigraph ically
ĠPap ua
Ġdisconform ity
Ġincurs ions
ĠQueb rada
ĠHung ary
lass ified
Ġsavann as
ĠCHEM TAX
O Y
m echan
t ra
Ġt ell
at an
or ite
Ġm irab
ĠT IW
ĠS ynt
ĠS IRM
Ġg ully
Ġfor um
ĠM X
ect able
ĠB orn
ĠG rim
Ġind uctively
Ġmod ules
Ġup slope
ĠK ers
Ġexp ands
Ġimp art
Ġno on
ĠPl us
Ġconf erence
ĠFe Mn
ĠAd el
ĠCurrent s
Ġsilic ates
equ ivalent
IA N
Ġens uing
ĠObserv atory
ĠCL P
ĠMel onis
ĠStatist ics
valu able
Wh it
Ġinvari ant
ĠLing ul
ĠCum ulative
Ġprymnesi ophytes
Amph idinium
O x
c els
z et
Ġt orn
es ide
Ġm bs
ĠT ectonic
Ġn ord
ra ine
Ġcon rmed
Ġg athering
Ġst arch
oc assidulina
ant ep
ĠN ansen
ad ophora
ĠG ut
Ġab stract
Ġmod ied
Ġsub units
ail ed
Ġout lets
ĠWe bb
ram id
12 9
Ġca ut
Ġ35 6
ĠPale ontology
Ġ00 4
Ġstri k
ĠFran z
Ġconfirm ation
Ġinfer ring
Ġenerg etics
Ġincre mental
ĠDiss olution
ĠMong olian
Ġperme able
Ġserp ent
Ġinvari ably
Ġinaccur ate
Ġcert ified
Ġamelior ation
ĠUnderc urrent
Ġa wards
Ġd rowned
Ġp all
ĠM inn
ĠP ars
Ġat yp
ĠB ralower
ĠE co
ĠR ica
ĠG p
art icles
Ġ5 15
ll er
ĠV P
Ġrep osit
ĠSt ain
aun as
Ġge ologists
af ic
Ġsubst age
Ġ28 00
Ġbra chy
Ġintens ely
ĠBi ostratigraphic
SO N
ĠIm aging
opod ia
ĠZe iss
lay ers
flu vial
Ġhind ered
ĠFlu xes
Ġsed i
Ġoblig ate
Ġredep osition
ĠFuc us
Ġtum ida
ĠQual ity
mul ites
ĠJack son
ĠGlobigerin ita
Ġwitness ed
ĠKell wasser
ĠNGO s
ĠMek ong
Ġintellect ual
c line
t reatment
y ther
Ġt on
in form
Ġc ing
Ġc odes
Ġw aning
ro graphic
Ġe ust
ĠT rophic
iv as
ĠS CO
un ks
ĠN F
ĠE I
ĠL N
art ia
ak an
Ġun biased
ĠK ot
ph idi
Ġet ching
ĠCh RM
Ġsl umping
Ġsum s
ĠAn imal
Ġrespect s
Ġshallow water
uc her
Ġphot od
Ġenc oding
Ġreason ing
ĠRe in
Ġfluctu ates
Ġthin ly
Ġdiver ge
Ġintro duct
Ġexport s
ĠHe at
Ġsomet ime
Ġpel oids
Ġplate aus
Ġundert ake
orotal ita
Ġencompass ed
Ġrenew able
Ġuns aturated
Ġpollut ant
ĠClark ina
ĠAlexand er
Ġskew ness
Ġencour aged
ĠContin ued
Ġchim ney
Ġpermut ation
ĠHT L
Ġswit ching
Ġquad rat
Ġhat ched
Ġshad ow
ĠLyc opodium
Ġcongen ers
Ġration ale
Ġtrochosp iral
ĠPocill opora
Ġstrik ingly
2 70
C on
T I
er opl
it ively
an ea
ic ia
Ġm ine
Ġl ingu
Ġh r
Ġh op
ĠC ay
ĠC ear
ĠP ower
ĠB ug
Ġse ams
Ġsh ade
ĠL agen
ĠR ic
ĠG SL
ĠO mo
Ġcont ing
Ġind urated
Ġsampl ers
Ġsal ps
Ġer up
osp athodus
ĠSc ler
Ġmix es
inter val
Ġem igration
ink ler
13 3
Ġcar p
ich t
NA P
11 7
sp ectral
Ġexpans ions
Ġcompet itors
Ġadjust ing
Ġimm igr
Ġkind ly
Ġpolyn yas
ĠSel ected
Ġmetamorph ism
Ġjud g
Ġbarc oding
Ġelabor ate
ĠJul ian
Ġplankt ivorous
ĠGamm aproteobacteria
Ġvulg aris
Ġchal ks
ĠPoss ibly
ĠCharc oal
ĠJuniper us
H A
O b
d em
l el
l apping
u itive
Ġt iles
he ter
Ġin ception
Ġin valuable
Ġm os
Ġl os
Ġas per
Ġal ters
op les
op ath
ĠR W
Ġrec ip
Ġad mix
Ġtrans boundary
gg er
Ġcalc retes
Ġlight ly
ren ean
ĠCal culated
Ġpoly ed
Ġrecogn ise
to oth
16 8
Ġsuper position
Ġradiolari a
ĠRh abd
Ġcloud iness
Ġphyl um
ĠCont ents
ĠAB FT
ĠHal imeda
month ly
ĠFlu orescence
ĠFragil aria
Ġlet ters
Ġff iffiffiffiffiffiffiffiffiffiffiffiffiffiffiffiff
ĠHay nes
Ġterrit orial
ĠFac ult
Ġchim neys
ĠScott ish
ugg ish
Ġanem ones
Ġspe aking
ĠOSP AR
Az abu
Ord ovician
Ġbread th
J an
M es
h abil
at ological
ic ut
Ġre lying
Ġl ining
ol ig
ĠS erg
ra ge
ĠE ms
ĠL ia
ĠL land
Ġinc om
ĠIn fluence
Ġinter medi
ĠTh ames
Ġit i
ĠK U
ĠV il
Ġac ous
ĠPl en
uss els
Ġconst ric
Ġu i
Ġmid water
Ġmid den
plic it
Ġtr uth
ĠSp at
Ġfil ms
Ġsubst ance
Ġcult uring
Ġnecess it
ĠSE EDS
Ġphen ols
ĠMe use
Ġoscill atory
Ġaff inis
Ġemploy ment
Ġjo ined
eck er
aris can
Ġreduct ase
ĠLat in
Ġneighb or
ĠDel aware
cons uming
Ġmir rored
margin al
Ġannot ated
ĠLS U
Ġstay ed
ĠPow ell
Ġlifest yle
ĠIde ally
const rained
L ake
c oll
k j
s in
Ġo o
Ġc reeks
Ġf ruits
Ġd ab
Ġm ys
Ġre jection
el o
id ian
ĠA ff
Ġal iphatic
ĠP rom
00 31
ĠL oss
ĠG RIP
ĠO ly
ell ers
ug s
Ġ4 15
Ġpl un
ĠK A
ĠK il
ĠK atian
Ġz u
Ġqu oted
Ġlong wave
Ġprim igen
ĠY ak
Ġthem iddle
AR S
ĠSim ultaneous
iform s
ĠInter annual
Ġord ered
Ġ195 4
Ġdev ast
ĠSer p
ĠSur prisingly
ĠObserv ation
Ġleg s
Ġded uce
Ġcyt oplasmic
Ġdro pping
ĠAv ic
Ġblow ing
ĠMud stone
Ġcompress ional
yrt is
Ġspre ite
Ġmacron utrients
Ġpain ts
Ġreconc ile
Ġextrat ropical
ovis ual
ophragm oides
Ġt rained
Ġf ines
Ġd V
Ġp estic
el ic
Ġh itherto
id us
ĠS ok
il of
rom agnetic
ĠM IC
Ġal ve
ĠF ir
ĠE K
ĠE mer
ĠE duc
ĠH SI
ĠH aven
ari ance
Ġmod ulating
ib al
Ġcan opies
Ġsl uggish
ĠAl ve
han a
Ġed ule
Ġoff ic
Ġdr inking
Ġ40 5
ĠGe ophysics
Ġmac rom
ĠAd en
agell an
Ġcorresponding ly
Ġintens ify
Ġkyr s
ĠCar ter
Ġmamm oth
Ġmagnet isation
Ġsimpl ify
Ġerod ing
Ġstret ched
Ġparas itic
Ġintrac lasts
Ġmolar s
ĠRom ania
ĠWilli am
Ġplat y
Ġsynthes ize
ĠFac ility
tail ed
Ġglauc onitic
embel ina
ĠAnthrop ogenic
ĠGig ant
ĠScenari o
ĠTehu antep
ĠTehuantep ec
M arc
R L
c le
t re
Ġc k
Ġc es
Ġc ations
Ġl f
Ġl v
ĠS ilt
Ġas k
em ph
ĠM IT
est ion
ĠB Y
ĠF ont
ĠE valuation
Ġint ric
Ġall eles
Ġinf ections
vi e
ĠV IC
Ġund ulating
Ġacc ent
Ġqu en
Ġ9 80
ĠAl c
ex c
ĠAn alog
iss ance
ĠQ S
ĠCo e
Ġden ition
Ġalt ogether
Ġbio ass
ĠDi agn
Ġ37 5
Ġta iga
OP s
ocy an
Ġmel ted
Ġdimin ishes
ĠOl duvai
ĠCong l
Ġlet hal
Ġves icomy
period s
Ġstere o
Ġaf ternoon
Ġunambiguous ly
Ġaval anche
actic oid
Ġmidd ens
Ġprecaution ary
Ġargu ably
* ,
5 50
c ritical
f ert
j ar
p reted
u ff
Ġo i
Ġd umping
Ġp up
ĠS us
ow ear
Ġg am
ĠC ole
ĠC ten
Ġas ex
ĠM OM
ĠM att
ay an
ĠE ff
ĠR ug
ak ia
Ġnot ch
Ġim pl
Ġy a
Ġdec imet
ĠK R
ĠK W
ĠK app
ĠJ in
bl ing
Ġthere in
Ġph ag
Ġlim nic
Ġglac ially
ĠSc i
Ġj ack
Ġpe bbly
ole cules
ĠMed ian
Ġstandard ization
fl o
Ġhist ogram
Ġbar nes
ĠEP A
ĠAd ult
Ġpoly mers
ĠSe agrass
ĠRe id
arc oding
Ġsusp ensions
rus ion
Ġoscill ating
ĠPart ial
ĠEd dy
Ġdy e
raf ts
Ġmut ually
Ġmer ge
uro ids
Ġarbitr arily
Ġeigen values
uchi apingian
Ġlid ar
ĠZamb ez
direct ed
Dep artment
ĠPrib ilof
ĠHetero helix
D o
b it
m or
m ound
Ġ xy
at n
Ġc ation
Ġw ear
Ġf usca
ol ine
os er
Ġg orgonian
Ġv oid
ĠM br
ĠM MP
ĠP elagic
ĠE sp
Ġco ercivity
ad ec
ĠG reg
Ġdis h
ĠV A
cul us
Ġrem ed
ĠY uk
ĠY RB
ĠRes erve
ĠMa h
Ġ24 9
ĠGl oss
ĠOr der
Ġcondition ed
Ġreact ivation
Ġhost ed
ĠInt roduction
ĠLim ited
Ġot ters
ĠOk ada
ĠEng el
ĠDin oflagellate
Ġexcav ations
Ġmy ctoph
Ġexert s
Ġoverw ash
Ġcasc ading
Ġdino agellates
Ġaug mented
ĠElev ation
ĠAq aba
Ġdorm ant
Ġbuck et
Ġepit hel
Ġlaevig ata
ĠKers haw
ĠAvic ennia
L ab
M D
e u
s tern
y th
he ra
an ich
an oxic
ol ata
ĠC lear
ac ial
ĠI st
Ġat oms
ud ic
Ġab norm
Ġconcentr ates
Ġtra vert
Ġge odynamic
Ġav ec
Ġcompar ably
Ġpe er
ĠQ ilian
ĠPro duct
yr inth
Ġ17 4
Ġweak ens
ĠCo al
16 4
Ġphosph orous
ĠCol on
Ġhead waters
Ġprogress es
Ġsystematic s
Ġaeolian ite
aren se
ĠCr uc
Ġminut a
Ġgamet ogenesis
Ġencour aging
Ġsym posium
ĠAsh gill
fraction ated
ĠMang rove
Ġscarp s
ĠRepresent ative
ynchron ous
Ġmicrograp hs
Ġnol tii
ĠMerid ional
ĠBathymod iolus
ĠHurric ane
B AS
b ody
h om
l arg
s han
Ġa us
al d
is se
Ġf ission
ar ct
Ġb inned
ĠT rack
Ġis opods
ĠS hel
ĠC ephal
ĠM ind
ĠN ing
Ġch ang
ĠE CO
ad ia
ĠR hne
ĠO W
we ar
ep e
ew as
ĠV es
ĠJ E
ĠJ ama
gen eration
Ġcr ist
Ġprec ondition
Ġge ovisual
inter pretation
int ensity
Ġnon etheless
Ġphytoplankton ic
Ġ100 200
Ġsol ute
Ġ27 1
Ġmineral ized
amm ing
Ġ26 1
ĠNA S
Ġheter ococcolith
ĠPar ag
ĠAss imilation
raw l
Ġelect rical
Ġaccess ion
ĠRh one
ĠKu h
ĠPseud ocalanus
Ġown ers
Ġglaci ological
ĠEB S
ĠBioge ochemistry
ĠUs ually
ĠAgric ulture
ĠGlaci ar
ĠMond ego
ĠIJ ssel
ĠSina i
) ;
f av
Ġa ided
Ġs en
Ġs enes
Ġp ile
el ia
om ed
ĠS ole
ĠC ret
ĠC ox
ĠP ine
ĠP rice
ĠF ree
ĠD id
ĠD ust
ob e
Ġgen etics
Ġz a
13 9
Ġshort age
ĠNe o
Ġ35 5
Ġproject ing
ĠCan al
ĠPer idinium
Ġ34 5
Ġhelp ing
Ġgu ided
Ġexplo iting
icular is
DE X
Ġfilt rate
Ġfold s
Ġast axanthin
Ġdissimilar ities
Ġrhiz omes
Ġgamet e
Ġdemagnet isation
ĠSG D
Ġunre ported
inf erred
Ġtid ewater
Ġbioher m
ĠAuthor ity
ĠCyan obacteria
observ ed
ĠXin jiang
Ġadminist rative
5 000
D a
L ong
d ies
k ker
l ip
m ap
w ig
re al
re nces
Ġc hic
Ġc ustomer
Ġd ont
Ġl as
ĠT at
Ġn in
ĠA br
um i
st adial
ĠP ent
ag ger
ad ata
ĠR J
ĠR he
ĠR aw
Ġk ill
Ġun treated
ĠK V
ĠJ PC
Ġrecord er
Ġcomm ens
our se
Ġsouth westerly
Ġpale op
Ġdef lation
Ġem ersion
Ġ30 9
ĠOr inoco
ĠCo ul
Ġ26 3
Ġvir idis
ĠBra nd
Ġpropag ates
ĠTer rit
Ġtecton ism
ĠOl ene
Ġech os
ĠOs HV
Ġsubc ontinent
ĠHeter otrophic
ĠLoc ations
Ġsupra glacial
method s
Ġpolysacchar ide
Ġanten na
Rec ent
Ġphil os
Ġdeform ations
ĠSir ius
ĠBore hole
hydrox ides
ĠCrass ostrea
Ġprogn ostic
enop emph
Ġbib li
ĠTapp an
ĠHumb oldt
enopemph ix
/ /
C ES
g ut
i encies
Ġ ug
Ġt itr
is ional
Ġm ents
Ġre habil
am ed
ĠL ive
ĠR ico
ari ous
ap agos
ĠJ or
Ġwh atever
Ġorgan ics
alae ontological
enc a
ophy siological
Ġem uls
Ġprof essional
af ts
Ġ27 8
ĠSim ple
ĠBl ow
Ġsem in
Ġfav ours
Ġ00 25
ĠHe alth
ĠMc G
ĠCF P
ĠPoly krik
Ġget ting
Ġgly c
Ġunders aturation
Ġacceler ator
Ġconform ably
ĠMack ensen
ĠGH G
Ġpolyg on
ĠDic ks
dist ribution
Ġdon or
ĠAlg ae
Ġbrid ging
ĠWild life
Ġbund les
ĠStan ley
inhib ition
ĠCLA MP
b orn
b irds
w ang
Ġthe G
Ġf g
Ġp O
Ġb ell
as uring
Ġto e
im er
ĠT re
Ġbe ams
ĠM asc
ĠF ischer
ĠE yles
ĠD ating
ĠR aj
ĠG an
ĠG obi
ind ividual
ĠSt om
Ġtra ils
Ġav oids
Ġnort heasterly
Ġhydro climate
uc het
20 5
13 2
ym our
ios a
ĠRes id
Ġbur den
Ġlab eling
Ġste pping
ĠBal t
Ġnow adays
Ġarg on
Ġpur ch
Ġmethan ogenesis
ĠAR C
AT P
rus h
ĠInc ub
Ġprep are
Ġensure d
ĠBu ck
ĠFisher y
ĠAqu a
Ġpick ing
no ise
Ġproceed s
ĠCON T
ĠHN F
Ġprecurs ors
Ġchloropl asts
Ġartef act
bour ne
Ġrop e
ĠFenn oscand
ĠAppal achian
Ġamoeb ae
' t
4 000
B ec
O AE
P I
l anguage
Ġs ag
Ġo rographic
ic ient
Ġl M
id um
iv ial
ĠP inn
Ġby ss
op ically
ĠF us
ĠF if
ĠF ry
Ġco ec
ĠR ean
Ġ5 90
Ġfl agellate
Ġdis ent
Ġun ravel
Ġ20 25
Ġqu as
Ġsl ack
ĠSt one
resp onse
Ġshelf break
Ġphot otrophic
Ġtherm ophilous
Ġ23 6
Ġmes hes
ĠPle u
Ġ21 6
Ġwet ting
ĠGlob ocassidulina
Ġcost ata
Ġphen ol
Ġreact or
rec ogn
Ġepif luorescence
Ġpossess ing
rod es
Ġnan ophytoplankton
ĠHer b
Ġgraph ically
ĠPL D
ĠMississipp ian
Ġsight ing
ĠOpt ical
Ġves icul
Palae oecology
Ġcarap aces
Ġretre ats
Ġswit ched
ĠKol mog
Ġleve e
Ġartef acts
Ġconcord ant
ĠCorre ge
Ġcalcaren ites
ĠGlen odinium
ĠPess agno
ĠStain forth
M T
S h
c ome
d uring
d rained
er us
Ġc ran
or por
Ġb omb
el ess
ĠT WS
ol o
ĠC ly
od iaceae
ĠN om
ĠD ove
ess inian
ĠR id
Ġit eration
Ġall uvium
Ġconc ur
Ġro tal
ĠSt orm
Ġcharacter isation
ĠSc an
Ġj ump
Ġbl ade
Ġtest ate
Ġoff ering
Ġcle ared
Ġspect acular
Ġ40 50
Ġsubs p
year s
23 5
Ġcat astrop
rie ur
Ġirregular is
Ġign ition
Ġsound s
Ġindepend ence
Ġsatisf ied
Ġmicros atellite
ĠDo ug
Ġtranscript ome
Ġhex ane
Ġembry onic
ĠSens or
Ne il
ĠFore cast
Ġstir red
Ġdelim ited
ĠInstitut o
Ġchloropl ast
ĠAgg reg
angl ades
ĠCharl otte
eret is
3 60
c ond
f e
i ata
u h
Ġt and
re cks
Ġb ond
ur ic
om arine
ĠS por
ĠA ug
Ġv iz
Ġas ide
Ġal s
ĠP eter
ĠB us
ĠB ure
ĠR ound
Ġspec ification
Ġrec lam
Ġ4 12
Ġdist ally
Ġchar ophyte
Ġwind ward
ĠBas que
Ġsol en
Ġbro oding
ĠSub marine
ĠMic rom
ĠSch ul
Ġang ust
Ġtri angle
ĠBra chi
opod a
ĠMP T
uth is
Ġ56 84
Ġke el
Ġchem ocline
Ġ96 7
Ġelong atus
Ġnucle ic
Ġ08 48
si ology
Ġtravel ing
ĠQue en
Ġris en
ĠPed ro
ĠPalyn ology
ĠPont ian
Ġsubsid ies
ĠQueb ec
&& &&
ĠPhyl ogenetic
ĠHapl ophragmoides
hour ly
F am
f our
l ocal
n ya
o ij
t rap
in arily
Ġthe w
at ula
Ġd d
Ġl ug
le e
ol p
Ġn atal
Ġn ylon
Ġg or
ĠC ym
ec ess
Ġ, ,
Ġor as
ĠR oth
ĠR OS
Ġfl aw
ard ing
Ġrecord ings
Ġar ms
Ġout wash
Ġtra che
Ġgeneral ised
Ġbl ast
lim iting
Ġ25 6
Ġstress ful
Ġ28 7
Ġcolon izing
Ġdocument ary
Ġ26 00
ĠRec ogn
ĠPo ol
ĠDes cript
ĠSch ne
Ġbio accumulation
Ġequilib rated
Ġgy rog
ĠMet hane
Ġsymb ol
Ġuniform ity
ĠCompar ative
omic roscope
Ġgran ulata
ĠCalc ite
ĠTer uel
Ġpict ures
ĠTA G
ĠProt ected
ĠGal apagos
ĠSel enopemphix
Ġrib osomal
IF F
ĠTun isian
Ġanticip ate
Ġcomprom ised
ĠHabitat s
Ġgrate fully
ĠGor ge
ĠLea f
Ġmim ics
ĠBothn ian
Ġrup ture
perman ent
p ectral
v olution
Ġf d
Ġp oses
Ġb erm
ĠS ib
ĠS hen
Ġr anks
ĠB jr
Ġcom mented
ant i
og le
ĠE TP
ĠH H
ĠL omb
Ġcont igs
Ġ3 18
ĠW I
Ġdi er
Ġ6 13
ph osphate
ĠSt arting
ĠSc arbor
Ġatt est
ynam ical
ty l
Ġchlor oform
Ġlith ified
ĠSe ymour
ĠSim ulated
14 7
arc hed
Ġbreak er
Ġutil isation
Ġmob ilization
att ached
field s
ĠAB NJ
Ġcyt ochrome
Ġsubmer gence
Ġmegaf aunal
Ġansw ers
rhen ius
Ġantib iotic
ĠPers ian
ĠGAM s
Ġcuc umbers
Ġtranspl anted
ĠMall orca
Ġcrat onic
Ġuniqu ely
ĠAnom aly
ĠNES W
ĠScarbor ough
b an
b elt
r iver
Ġa gency
en o
Ġc as
it ria
Ġw il
Ġe DNA
Ġn acre
ĠC ult
ĠP ri
ĠN AR
th rust
ĠL ack
ĠG OA
iment ifer
Ġcl umps
Ġpre historic
ep s
rap ure
Ġun w
Ġtem pt
ale i
Ġcol i
Ġsc itula
Ġconc ludes
ĠK ansas
vi et
Ġam ended
ind igenous
Ġunder ground
ĠCh urch
Ġsl umps
Ġphy c
Ġpar cels
ĠWe iss
Ġ30 3
Ġexc ludes
Ġerr atic
Ġacid ity
ĠCor ridor
ĠNe br
Ġbul im
ĠAfter wards
Ġserv ing
Ġ87 31
Ġlob atulus
Ġcounter act
Ġsec ure
ĠAmaz onia
IT E
07 40
com busted
Ġperturb ed
ĠBisc utum
Ġ900 89
Ġtong ues
Ġlic hen
ĠRelations hip
Ġsupers aturation
ĠCAL IB
Ġ880 1
mount ain
Ġmanate es
Ġapert ural
Ġerup ted
Y N
k ha
u age
Ġ ili
on ell
Ġo set
ĠT emperate
ĠS light
ĠS ocial
ĠC ary
ver tical
Ġr p
Ġsu g
Ġsu cc
ĠB SR
ĠF ast
ĠF lat
ĠN aut
ĠE rosion
ĠD ip
Ġvari ably
Ġcal anoid
ric et
Ġec ologists
form ance
Ġph age
ĠAr rhenius
ery th
osp ir
sc he
iqu id
fl oc
Ġbar rel
rogen ic
ES CO
ocl ast
uk a
Ġprom ise
co ated
ĠPer th
Ġpersist ently
Ġflat fishes
ĠBra ch
Ġperm ission
ĠDist inct
ias m
Ġanticycl ones
ĠBol t
ĠPe at
ĠNC AR
Ġprefer ably
rei ya
ĠBathy metric
Ġannot ations
Ġhapl otype
Ġtaxonom ical
Ġbenth opelagic
ĠPercent ages
Ġglauc onite
Ġzir cons
Ġarthrop od
ĠLis bon
ĠThor ac
Ġshrubl and
ĠConnect icut
Ġhumm ocky
ropter on
c yc
r ion
y rene
ic ator
Ġp ri
Ġl is
os yn
ĠC ut
am ide
st ad
ĠM ert
ir t
ir ica
ĠB un
ĠB ran
ĠE g
ĠE ss
ĠG all
ap a
Ġdist orted
Ġtrans miss
Ġtrans lucent
ric ts
Ġ10 50
Ġexp ose
ov ite
ĠSt ages
Ġer ode
Ġbottom water
ock ing
ĠMa pping
oph aga
atch ing
aps ed
Ġpubl isher
ĠQu artz
Ġiss ued
ĠMS Z
Ġ55 00
Ġmagnet ozones
Ġdol ost
Ġhead space
ĠOf ten
ĠBet a
ĠSa anich
Ġbuff ering
ĠDin ar
Ġtransl ates
Ġanch or
Ġdent ine
Ġvit ell
icol or
Ġhydroph obic
Ġburn ed
Ġichnogen us
ĠExtrem e
ĠCochl odinium
Ġmott led
Whit ney
ĠPolykrik os
0 50
D ev
c z
c ommunity
h k
m M
q i
Ġd m
ra z
Ġst rad
ith m
ĠC her
ec a
ĠP ick
ĠI chn
ab ad
Ġex opoly
ĠB aker
ĠB anglades
ĠN ac
ĠL SR
Ġme xic
ind ex
Ġrepresent at
Ġmult itude
onstruct ion
Ġthem ajor
rac line
mon itoring
Ġprot racted
Ġprom in
ĠNo ah
Ġtub ing
omic rograp
Ġinhib iting
Ġsec reted
ĠPoly nes
Ġelim inating
Ġremineral isation
Ġarc s
ĠTs uga
CT OC
Ġchromat ograph
ĠFossil s
Ġpaleoc ommunity
Ġculmin ated
Ġbip olar
Ġrevis ited
ĠSpart ina
' '
A mer
c hen
m ant
p res
er ating
Ġo mission
al ba
Ġd pm
Ġb rom
Ġl ep
ĠC rim
st orms
oc os
ĠM aps
Ġex agger
ve ys
ĠF uk
Ġso aked
rad o
ĠV o
ĠV ul
Ġmin ke
ĠQ reiya
Ġlast s
ĠAnt on
Ġtr unks
IC A
Ġview ing
isp heric
Ġcov ariate
Ġcat hod
Ġcloud y
Ġrot ary
ĠED TA
ĠFlor isphaera
Ġroot ed
Ġdiagn osed
Ġpy g
ĠHar rison
Ġthor ium
ĠMH Ws
Ġsess ion
vari able
Ġlegis l
ĠMix ing
Ġeggshell s
Ġdorm ancy
assembl age
Ġsubp opulations
Ġaffili ated
Ġdisproportion ately
ĠPLA TE
Ġtam arense
ĠKolmog orov
2 80
B ird
G on
S urface
b athy
m igration
t ax
in atus
at ella
Ġs it
Ġc ros
os ira
ĠM ach
ĠP and
Ġex ogenous
ĠB SW
ag ers
ĠH EL
ĠG ol
Ġnot ches
Ġinter comparison
erm is
Ġaut otrophs
ĠInd ustrial
Ġdown wind
Ġ17 50
Ġshort term
ĠEn ter
Ġlab yrinth
Ġant iqu
Ġmethan otrophic
ĠGen Bank
ĠHy al
SM OW
Ġdiagn osis
ĠBer riasian
ĠEll is
Ġflor istic
ĠShannon Wiener
ĠMorph ological
rone ity
Ġaged epth
ĠRat io
Ġdisadvant age
ĠMich igan
Ġtrem end
Ġmexic ana
H M
N o
e iric
g ren
n umber
t imes
u els
Ġf oss
Ġp ental
ĠM em
Ġde hyd
Ġex tern
Ġr aster
ĠF G
ĠF inal
ĠD ick
ine ae
we ak
hy lation
ens or
Ġdis j
ĠU m
Ġhe ct
ĠK M
Ġpresent day
Ġwhere in
osp ira
Ġprob osc
ram o
Ġend member
ĠDe ut
ĠPro ble
ĠSC I
Ġamount ed
Ġcomplex ities
ĠEP R
Ġ24 8
NA DW
Ġlif es
Ġreal ization
ĠSS M
ĠMA B
ĠMA W
Ġpen al
Ġbehaviour s
Ġsynchron ized
Ġintegr ative
ĠHar wood
Ġlear ned
Ġpter id
Ġthaw ed
Palae ogeography
rav allian
Ġassimil ate
Ġrecolon ization
ĠDeterm ination
Ġfored eep
Ġfucoid an
ĠJuven ile
Ġdecor relation
Ġminer ogenic
ĠLland overy
larg ement
C d
M AR
d ynamic
h or
ĠA val
Ġg one
um bo
oc us
ĠH il
ĠR hynch
ĠW es
Ġpre ys
Ġrel ig
Ġpl ent
Ġk s
Ġdec ide
end orf
Ġcond uit
Ġwh iting
val idation
Ġprec luded
ĠY OY
ym idine
ĠAnt illes
Ġmes owear
pr ise
Ġdemonstr ation
Ġstrat osphere
ĠLe je
ĠPar as
Ġbiot echnology
ĠSch l
22 8
Ġpen ultimate
Ġcollect ors
Ġrobust a
be am
chron ology
Ġemphas izing
Ġadop ting
Ġsin u
di ac
Ġcounter clockwise
ĠSR S
bi ological
ĠChar les
Ġfib res
ĠNC W
ĠPy renean
Ġsynchronous ly
ĠNN W
plo ys
obot any
ĠJac ob
link ed
Ġtsunam is
ĠPech ora
Bec ause
W M
z hou
Ġw ing
Ġh it
ĠA ber
ot ation
ot opes
ĠP ath
Ġde oxygenation
est rup
op al
ist ed
ĠN iveau
th irds
ĠD ap
and ong
ĠL I
ĠO ber
reas e
ĠW uchiapingian
ace utical
ĠV on
cul um
Ġunder lies
ĠPac hy
Ġbed load
ath us
oph ila
och itina
Ġ28 9
Ġvis its
CM AP
Ġlac un
ĠPhy s
ĠSo viet
Ġband ing
ett i
Ġjo in
Ġstabil izing
Ġparticip ating
ĠPet erson
ĠKar l
Ġultra violet
Ġindist inct
Ġaren aria
Ġbrow sing
Ġtal us
Ġclino form
Ġichnotax a
Ġgeod etic
ĠNebr aska
R C
c old
h os
s out
Ġa head
on ed
Ġd or
Ġd ips
Ġp he
Ġp as
Ġl p
ul u
id ney
if lora
ial es
Ġco bble
ĠD aw
ĠD SOW
ĠG ed
Ġspec ially
Ġit a
Ġbas elines
Ġ6 80
ob aculites
ĠV eloc
ĠJ F
ph an
mer haven
ient o
Ġag ing
Ġequ iv
Ġ18 65
ire n
ha z
Ġfunction ality
Ġparticul ates
12 000
iffiff i
sea water
Ġrare r
Ġphosph ol
Ġhel ium
Ġden itr
ĠGu y
Ġstri ae
bre en
Ġmigr ant
ĠArch aea
ĠPet ers
Ġepib ionts
ĠCB M
UC N
Ġcrystall inity
Ġreproduc ible
ĠSOI REE
Ġcollaps es
Ġrhod oliths
ĠUk raine
ĠGarc ia
Ġbottlen ose
Ġoverpr inted
Des pite
ephan us
Ġbiohoriz ons
ĠDak ota
Ġatyp ical
b ic
d ong
e ius
f ive
g ran
g auge
m ath
Ġthe North
ic ting
Ġre venue
ol us
od ge
oc ations
op hen
ĠE EM
ĠH eav
ad ult
ĠL an
ĠL ED
ell idae
ran k
Ġfl ushed
[...]
