{
  "version": "1.0",
  "truncation": {
    "direction": "Right",
    "max_length": 512,
    "strategy": "LongestFirst",
    "stride": 0
  },
  "padding": null,
  "added_tokens": [],
  "normalizer": null,
  "pre_tokenizer": {
    "type": "ByteLevel",
    "add_prefix_space": false,
    "trim_offsets": true
  },
  "post_processor": {
    "type": "BertProcessing",
    "sep": [
      "</s>",
      2
    ],
    "cls": [
      "<s>",
      0
    ]
  },
  "decoder": {
    "type": "ByteLevel",
    "add_prefix_space": true,
    "trim_offsets": true
  },
  "model": {
    "type": "BPE",
    "dropout": null,
    "unk_token": null,
    "continuing_subword_prefix": "",
    "end_of_word_suffix": "",
    "fuse_unk": false,
    "vocab": {
      "<s>": 0,
      "<pad>": 1,
      "</s>": 2,
      "<unk>": 3,
      "<mask>": 4,
      "!": 5,
      "\"": 6,
      "#": 7,
      "$": 8,
      "%": 9,
      "&": 10,
      "'": 11,
      "(": 12,
      ")": 13,
      "*": 14,
      "+": 15,
      ",": 16,
      "-": 17,
      ".": 18,
      "/": 19,
      "0": 20,
      "1": 21,
      "2": 22,
      "3": 23,
      "4": 24,
      "5": 25,
      "6": 26,
      "7": 27,
      "8": 28,
      "9": 29,
      ":": 30,
      ";": 31,
      "<": 32,
      "=": 33,
      ">": 34,
      "?": 35,
      "@": 36,
      "A": 37,
      "B": 38,
      "C": 39,
      "D": 40,
      "E": 41,
      "F": 42,
      "G": 43,
      "H": 44,
      "I": 45,
      "J": 46,
      "K": 47,
      "L": 48,
      "M": 49,
      "N": 50,
      "O": 51,
      "P": 52,
      "Q": 53,
      "R": 54,
      "S": 55,
      "T": 56,
      "U": 57,
      "V": 58,
      "W": 59,
      "X": 60,
      "Y": 61,
      "Z": 62,
      "[": 63,
      "\\": 64,
      "]": 65,
      "^": 66,
      "_": 67,
      "`": 68,
      "a": 69,
      "b": 70,
      "c": 71,
      "d": 72,
      "e": 73,
      "f": 74,
      "g": 75,
      "h": 76,
      "i": 77,
      "j": 78,
      "k": 79,
      "l": 80,
      "m": 81,
      "n": 82,
      "o": 83,
      "p": 84,
      "q": 85,
      "r": 86,
      "s": 87,
      "t": 88,
      "u": 89,
      "v": 90,
      "w": 91,
      "x": 92,
      "y": 93,
      "z": 94,
      "{": 95,
      "|": 96,
      "}": 97,
      "~": 98,
      "¡": 99,
      "¢": 100,
      "£": 101,
      "¤": 102,
      "¥": 103,
      "¦": 104,
      "§": 105,
      "¨": 106,
      "©": 107,
      "ª": 108,
      "«": 109,
      "¬": 110,
      "®": 111,
      "¯": 112,
      "°": 113,
      "±": 114,
      "²": 115,
      "³": 116,
      "´": 117,
      "µ": 118,
      "¶": 119,
      "·": 120,
      "¸": 121,
      "¹": 122,
      "º": 123,
      "»": 124,
      "¼": 125,
      "½": 126,
      "¾": 127,
      "¿": 128,
      "À": 129,
      "Á": 130,
      "Â": 131,
      "Ã": 132,
      "Ä": 133,
      "Å": 134,
      "Æ": 135,
      "Ç": 136,
      "È": 137,
      "É": 138,
      "Ê": 139,
      "Ë": 140,
      "Ì": 141,
      "Í": 142,
      "Î": 143,
      "Ï": 144,
      "Ð": 145,
      "Ñ": 146,
      "Ò": 147,
      "Ó": 148,
      "Ô": 149,
      "Õ": 150,
      "Ö": 151,
      "×": 152,
      "Ø": 153,
      "Ù": 154,
      "Ú": 155,
      "Û": 156,
      "Ü": 157,
      "Ý": 158,
      "Þ": 159,
      "ß": 160,
      "à": 161,
      "á": 162,
      "â": 163,
      "ã": 164,
      "ä": 165,
      "å": 166,
      "æ": 167,
      "ç": 168,
      "è": 169,
      "é": 170,
      "ê": 171,
      "ë": 172,
      "ì": 173,
      "í": 174,
      "î": 175,
      "ï": 176,
      "ð": 177,
      "ñ": 178,
      "ò": 179,
      "ó": 180,
      "ô": 181,
      "õ": 182,
      "ö": 183,
      "÷": 184,
      "ø": 185,
      "ù": 186,
      "ú": 187,
      "û": 188,
      "ü": 189,
      "ý": 190,
      "þ": 191,
      "ÿ": 192,
      "Ā": 193,
      "ā": 194,
      "Ă": 195,
      "ă": 196,
      "Ą": 197,
      "ą": 198,
      "Ć": 199,
      "ć": 200,
      "Ĉ": 201,
      "ĉ": 202,
      "Ċ": 203,
      "ċ": 204,
      "Č": 205,
      "č": 206,
      "Ď": 207,
      "ď": 208,
      "Đ": 209,
      "đ": 210,
      "Ē": 211,
      "ē": 212,
      "Ĕ": 213,
      "ĕ": 214,
      "Ė": 215,
      "ė": 216,
      "Ę": 217,
      "ę": 218,
      "Ě": 219,
      "ě": 220,
      "Ĝ": 221,
      "ĝ": 222,
      "Ğ": 223,
      "ğ": 224,
      "Ġ": 225,
      "ġ": 226,
      "Ģ": 227,
      "ģ": 228,
      "Ĥ": 229,
      "ĥ": 230,
      "Ħ": 231,
      "ħ": 232,
      "Ĩ": 233,
      "ĩ": 234,
      "Ī": 235,
      "ī": 236,
      "Ĭ": 237,
      "ĭ": 238,
      "Į": 239,
      "į": 240,
      "İ": 241,
      "ı": 242,
      "Ĳ": 243,
      "ĳ": 244,
      "Ĵ": 245,
      "ĵ": 246,
      "Ķ": 247,
      "ķ": 248,
      "ĸ": 249,
      "Ĺ": 250,
      "ĺ": 251,
      "Ļ": 252,
      "ļ": 253,
      "Ľ": 254,
      "ľ": 255,
      "Ŀ": 256,
      "ŀ": 257,
      "Ł": 258,
      "ł": 259,
      "Ń": 260,
      "Ġt": 261,
      "Ġa": 262,
      "he": 263,
      "in": 264,
      "re": 265,
      "on": 266,
      "Ġthe": 267,
      "at": 268,
      "Ġs": 269,
      "er": 270,
      "Ġo": 271,
      "en": 272,
      "Ġc": 273,
      "al": 274,
      "es": 275,
      "ed": 276,
      "nd": 277,
      "Ġof": 278,
      "Ġin": 279,
      "it": 280,
      "Ġw": 281,
      "an": 282,
      "ic": 283,
      "ion": 284,
      "or": 285,
      "is": 286,
      "Ġf": 287,
      "Ġd": 288,
      "ar": 289,
      "Ġp": 290,
      "Ġb": 291,
      "Ġm": 292,
      "Ġand": 293,
      "ro": 294,
      "as": 295,
      "ent": 296,
      "ing": 297,
      "Ġre": 298,
      "Ġto": 299,
      "Ġl": 300,
      "Ġe": 301,
      "ct": 302,
      "ation": 303,
      "im": 304,
      "el": 305,
      "Ġth": 306,
      "ĠT": 307,
      "ur": 308,
      "us": 309,
      "le": 310,
      "ce": 311,
      "ly": 312,
      "Ġh": 313,
      "ol": 314,
      "om": 315,
      "os": 316,
      "et": 317,
      "Ġn": 318,
      "ut": 319,
      "ul": 320,
      "id": 321,
      "iv": 322,
      "Ġis": 323,
      "ig": 324,
      "ĠS": 325,
      "ow": 326,
      "il": 327,
      "ĠA": 328,
      "Ġ1": 329,
      "ra": 330,
      "Ġcon": 331,
      "Ġg": 332,
      "ot": 333,
      "Ġfor": 334,
      "if": 335,
      "Ġst": 336,
      "ith": 337,
      "Ġv": 338,
      "ĠThe": 339,
      "ere": 340,
      "ter": 341,
      "ĠC": 342,
      "am": 343,
      "res": 344,
      "Ġare": 345,
      "ec": 346,
      "Ġas": 347,
      "Ġwith": 348,
      "od": 349,
      "um": 350,
      "st": 351,
      "Ġon": 352,
      "ate": 353,
      "ies": 354,
      "ac": 355,
      "rom": 356,
      "Ġbe": 357,
      "oc": 358,
      "em": 359,
      "ĠM": 360,
      "Ġal": 361,
      "ĠP": 362,
      "her": 363,
      "Ġthat": 364,
      "un": 365,
      "Ġfrom": 366,
      "ĠI": 367,
      "ity": 368,
      "Ġby": 369,
      "Ġ2": 370,
      "Ġpro": 371,
      "ge": 372,
      "Ġan": 373,
      "ab": 374,
      "ver": 375,
      "ect": 376,
      "Ġde": 377,
      "Ġat": 378,
      "Ġex": 379,
      "ated": 380,
      "ort": 381,
      "est": 382,
      "Ġsp": 383,
      "Ġr": 384,
      "und": 385,
      "ir": 386,
      "op": 387,
      "Ġsu": 388,
      "Ġ,": 389,
      "ater": 390,
      "ud": 391,
      "ist": 392,
      "ĠB": 393,
      "Ġcom": 394,
      "ant": 395,
      "og": 396,
      "ri": 397,
      "ay": 398,
      "ical": 399,
      "ve": 400,
      "se": 401,
      "Ġse": 402,
      "ore": 403,
      "ĠF": 404,
      "pl": 405,
      "qu": 406,
      "ch": 407,
      "ure": 408,
      "Ġwere": 409,
      "Ġor": 410,
      "per": 411,
      "ations": 412,
      "ial": 413,
      "hic": 414,
      "ment": 415,
      "Ġwas": 416,
      "Ġsh": 417,
      "ĠN": 418,
      "Ġch": 419,
      "th": 420,
      "ain": 421,
      "ĠE": 422,
      "Ġco": 423,
      "ĠD": 424,
      "igh": 425,
      "00": 426,
      "ive": 427,
      "and": 428,
      "ag": 429,
      "ine": 430,
      "ions": 431,
      "Ġres": 432,
      "ers": 433,
      "ast": 434,
      "ess": 435,
      "ĠH": 436,
      "ad": 437,
      "ĠL": 438,
      "ĠR": 439,
      "Ġcomp": 440,
      "Ġinc": 441,
      "ari": 442,
      "cc": 443,
      "ĠG": 444,
      "ĠO": 445,
      "act": 446,
      "Ġthis": 447,
      "Ġab": 448,
      "up": 449,
      "Ġus": 450,
      "Ġcont": 451,
      "ell": 452,
      "nt": 453,
      "Ġ3": 454,
      "uct": 455,
      "Ġspec": 456,
      "ave": 457,
      "reas": 458,
      "pp": 459,
      "iz": 460,
      "Ġen": 461,
      "iment": 462,
      "ult": 463,
      "ely": 464,
      "ong": 465,
      "out": 466,
      "Ġwater": 467,
      "we": 468,
      "Ġcl": 469,
      "ence": 470,
      "all": 471,
      "ĠIn": 472,
      "art": 473,
      "Ġbet": 474,
      "hy": 475,
      "ak": 476,
      "ĠW": 477,
      "ous": 478,
      "ific": 479,
      "Ġsam": 480,
      "ug": 481,
      "ian": 482,
      "ost": 483,
      "ear": 484,
      "Ġrec": 485,
      "ary": 486,
      "ace": 487,
      "Ġnot": 488,
      "Ġpre": 489,
      "ween": 490,
      "Ġind": 491,
      "ens": 492,
      "ata": 493,
      "Ġdep": 494,
      "iff": 495,
      "hich": 496,
      "Ġhave": 497,
      "Ġbetween": 498,
      "Ġinter": 499,
      "Ġwhich": 500,
      "Ġmod": 501,
      "ran": 502,
      "Ġ5": 503,
      "vel": 504,
      "olog": 505,
      "Ġass": 506,
      "Ġper": 507,
      "ediment": 508,
      "ass": 509,
      "uring": 510,
      "ates": 511,
      "ff": 512,
      "Ġ0": 513,
      "ĠTh": 514,
      "Ġfl": 515,
      "Ġit": 516,
      "ition": 517,
      "Ġob": 518,
      "erv": 519,
      "Ġrel": 520,
      "ther": 521,
      "Ġim": 522,
      "ang": 523,
      "ep": 524,
      "ance": 525,
      "Ġsediment": 526,
      "orm": 527,
      "able": 528,
      "rib": 529,
      "ap": 530,
      "port": 531,
      "Ġle": 532,
      "ugh": 533,
      "Ġdiff": 534,
      "ip": 535,
      "Ġstud": 536,
      "Ġ4": 537,
      "Ġspecies": 538,
      "Ġvari": 539,
      "so": 540,
      "Ġev": 541,
      "Ġlow": 542,
      "ill": 543,
      "ib": 544,
      "rop": 545,
      "Ġreg": 546,
      "tern": 547,
      "Ġpres": 548,
      "Ġval": 549,
      "Ġsur": 550,
      "ite": 551,
      "Ġpl": 552,
      "rap": 553,
      "Ġme": 554,
      "ord": 555,
      "Ġduring": 556,
      "ard": 557,
      "Ġdata": 558,
      "Ġwhe": 559,
      "Ġpart": 560,
      "ia": 561,
      "Ġk": 562,
      "ign": 563,
      "Ġint": 564,
      "Ġbas": 565,
      "ces": 566,
      "ution": 567,
      "Ġwe": 568,
      "Ġstr": 569,
      "Ġy": 570,
      "Ġshow": 571,
      "Ġfo": 572,
      "Ġhigh": 573,
      "Ġcor": 574,
      "aly": 575,
      "Ġcan": 576,
      "Ġdis": 577,
      "Ġincreas": 578,
      "age": 579,
      "ach": 580,
      "Ġthan": 581,
      "Ġvalu": 582,
      "Ġbi": 583,
      "ight": 584,
      "ĠU": 585,
      "Ġtim": 586,
      "Ġalso": 587,
      "Ġdiffere": 588,
      "Ġdi": 589,
      "ust": 590,
      "Ġbeen": 591,
      "Ġun": 592,
      "Ġtem": 593,
      "Ġsub": 594,
      "ual": 595,
      "Ġad": 596,
      "cean": 597,
      "Ġup": 598,
      "Ġdist": 599,
      "serv": 600,
      "duct": 601,
      "ĠThis": 602,
      "face": 603,
      "Ġmar": 604,
      "entr": 605,
      "uld": 606,
      "yst": 607,
      "Ġover": 608,
      "ax": 609,
      "Ġmodel": 610,
      "ae": 611,
      "ene": 612,
      "ale": 613,
      "Ġthese": 614,
      "ew": 615,
      "ents": 616,
      "red": 617,
      "rans": 618,
      "Ġ19": 619,
      "pt": 620,
      "Ġlar": 621,
      "ange": 622,
      "Ġcons": 623,
      "Ġgro": 624,
      "Ġcol": 625,
      "ature": 626,
      "Ġsampl": 627,
      "arb": 628,
      "Ġhe": 629,
      "Ġhas": 630,
      "oss": 631,
      "Ġsc": 632,
      "ber": 633,
      "Ġresult": 634,
      "Ġsim": 635,
      "Ġapp": 636,
      "one": 637,
      "Ġobserv": 638,
      "ied": 639,
      "Ġall": 640,
      "erm": 641,
      "Ġconc": 642,
      "Ġbot": 643,
      "ide": 644,
      "Ġanaly": 645,
      "Ġsign": 646,
      "Ġ6": 647,
      "Ġsea": 648,
      "Ġtemper": 649,
      "Ġtrans": 650,
      "ative": 651,
      "yp": 652,
      "ced": 653,
      "Ġmore": 654,
      "iron": 655,
      "ccur": 656,
      "Ġindic": 657,
      "Ġest": 658,
      "ank": 659,
      "Ġcal": 660,
      "Ġmay": 661,
      "ob": 662,
      "ever": 663,
      "arbon": 664,
      "gg": 665,
      "Ġso": 666,
      "ility": 667,
      "Ġdec": 668,
      "Ġinf": 669,
      "Ġsurface": 670,
      "Ġbut": 671,
      "ea": 672,
      "rad": 673,
      "Ġgen": 674,
      "Ġgl": 675,
      "Ġvalues": 676,
      "ĠK": 677,
      "ric": 678,
      "end": 679,
      "oll": 680,
      "Ġtime": 681,
      "ments": 682,
      "wo": 683,
      "Ġother": 684,
      "anges": 685,
      "Ġext": 686,
      "ont": 687,
      "ction": 688,
      "ll": 689,
      "viron": 690,
      "vi": 691,
      "ue": 692,
      "eral": 693,
      "Ġdet": 694,
      "ystem": 695,
      "Ġ20": 696,
      "Ġloc": 697,
      "eg": 698,
      "ffect": 699,
      "rough": 700,
      "ond": 701,
      "imate": 702,
      "Ġoccur": 703,
      "ert": 704,
      "ĠV": 705,
      "aus": 706,
      "acter": 707,
      "unt": 708,
      "ĠJ": 709,
      "ice": 710,
      "ological": 711,
      "ively": 712,
      "sis": 713,
      "ree": 714,
      "Ġstudy": 715,
      "cul": 716,
      "Ġused": 717,
      "orth": 718,
      "itions": 719,
      "ph": 720,
      "Ġlevel": 721,
      "Ġund": 722,
      "Ġtwo": 723,
      "gan": 724,
      "iod": 725,
      "Ġrecord": 726,
      "amin": 727,
      "Ġmet": 728,
      "ple": 729,
      "ors": 730,
      "ome": 731,
      "Ġcond": 732,
      "bl": 733,
      "Ġz": 734,
      "ish": 735,
      "Ġresp": 736,
      "hern": 737,
      "owever": 738,
      "Ġtheir": 739,
      "arly": 740,
      "ose": 741,
      "ton": 742,
      "Ġabund": 743,
      "Ġcarbon": 744,
      "Ġ7": 745,
      "ocene": 746,
      "ress": 747,
      "rent": 748,
      "Ġwh": 749,
      "lud": 750,
      "Ġform": 751,
      "Ġdepth": 752,
      "ile": 753,
      "Ġmost": 754,
      "ail": 755,
      "Ġam": 756,
      "ered": 757,
      "Ġacc": 758,
      "Ġ8": 759,
      "ures": 760,
      "Ġhig": 761,
      "Ġrep": 762,
      "ind": 763,
      "Ġchanges": 764,
      "Ġenviron": 765,
      "Ġconcentr": 766,
      "Ġcomm": 767,
      "Ġpresent": 768,
      "Ġet": 769,
      "Ġperiod": 770,
      "Ġ10": 771,
      "Ġusing": 772,
      "osition": 773,
      "ability": 774,
      "ities": 775,
      "Ġdifferent": 776,
      "Ġonly": 777,
      "Ġtemperature": 778,
      "ating": 779,
      "Ġshe": 780,
      "Ġsugg": 781,
      "Ġsamples": 782,
      "Ġsuggest": 783,
      "ĠSea": 784,
      "Ġocean": 785,
      "ted": 786,
      "Ġarea": 787,
      "Ġthere": 788,
      "str": 789,
      "ection": 790,
      "Ġqu": 791,
      "Ġproduct": 792,
      "Ġsignific": 793,
      "Ġsout": 794,
      "val": 795,
      "Ġconditions": 796,
      "Ġ9": 797,
      "rain": 798,
      "Ġro": 799,
      "lect": 800,
      "Ġboth": 801,
      "ankton": 802,
      "ik": 803,
      "les": 804,
      "Ġmeas": 805,
      "Ġobserved": 806,
      "ites": 807,
      "ould": 808,
      "Ġregion": 809,
      "land": 810,
      "Ġdes": 811,
      "Ġpo": 812,
      "du": 813,
      "ix": 814,
      "ack": 815,
      "ry": 816,
      "Ġunder": 817,
      "mer": 818,
      "Ġsuch": 819,
      "Ġinto": 820,
      "Ġdistrib": 821,
      "ason": 822,
      "av": 823,
      "Ġsm": 824,
      "Ġpat": 825,
      "ward": 826,
      "ĠCh": 827,
      "ake": 828,
      "Ġac": 829,
      "ĠAt": 830,
      "Ġsignificant": 831,
      "Ġorgan": 832,
      "Ġnum": 833,
      "Ġar": 834,
      "Ġexp": 835,
      "Ġwithin": 836,
      "Ġsl": 837,
      "Ġwhere": 838,
      "Ġfound": 839,
      "ase": 840,
      "ros": 841,
      "Ġthrough": 842,
      "ize": 843,
      "ound": 844,
      "water": 845,
      "Ġeach": 846,
      "eed": 847,
      "ount": 848,
      "hed": 849,
      "Ġinclud": 850,
      "Ġyear": 851,
      "Ġout": 852,
      "Ġpartic": 853,
      "ov": 854,
      "ages": 855,
      "ology": 856,
      "Ġcorre": 857,
      "Ġwell": 858,
      "tic": 859,
      "ann": 860,
      "cess": 861,
      "Ġprov": 862,
      "ilar": 863,
      "Ġ200": 864,
      "ograp": 865,
      "Ġchar": 866,
      "ĠSt": 867,
      "omin": 868,
      "Ġrem": 869,
      "ough": 870,
      "ivers": 871,
      "Ġmeasure": 872,
      "yc": 873,
      "nce": 874,
      "Ġphy": 875,
      "oci": 876,
      "Ġec": 877,
      "form": 878,
      "Ġtre": 879,
      "olution": 880,
      "ivity": 881,
      "ized": 882,
      "Ġph": 883,
      "osit": 884,
      "Ġbec": 885,
      "ally": 886,
      "ident": 887,
      "Ġeffect": 888,
      "itud": 889,
      "ope": 890,
      "Ġflu": 891,
      "gen": 892,
      "Ġsmall": 893,
      "Ġlower": 894,
      "Ġimp": 895,
      "Ġmean": 896,
      "Ġhigher": 897,
      "Ġclimate": 898,
      "Ġcoast": 899,
      "ts": 900,
      "ĠAl": 901,
      "Ġcur": 902,
      "Ġrepres": 903,
      "atic": 904,
      "Ġenvironment": 905,
      "own": 906,
      "Ġlarge": 907,
      "Ġmarine": 908,
      "Ġits": 909,
      "Ġone": 910,
      "ause": 911,
      "ef": 912,
      "Ġact": 913,
      "ĠHowever": 914,
      "io": 915,
      "ient": 916,
      "ub": 917,
      "Ġcharacter": 918,
      "Ġsimilar": 919,
      "ained": 920,
      "Ġpr": 921,
      "ected": 922,
      "ically": 923,
      "imum": 924,
      "Ġrat": 925,
      "Ġsystem": 926,
      "fore": 927,
      "ism": 928,
      "Ġice": 929,
      "Ġref": 930,
      "ex": 931,
      "Ġadd": 932,
      "Ġchange": 933,
      "embl": 934,
      "Ġmic": 935,
      "Ġsome": 936,
      "Ġtyp": 937,
      "ible": 938,
      "Ġresults": 939,
      "Ġprocess": 940,
      "Ġanalysis": 941,
      "Ġ|": 942,
      "Ġmin": 943,
      "opl": 944,
      "eld": 945,
      "Ġmain": 946,
      "ined": 947,
      "iver": 948,
      "Ġconsid": 949,
      "Ġman": 950,
      "velop": 951,
      "Ġimport": 952,
      "our": 953,
      "ina": 954,
      "Ġsediments": 955,
      "ĠAr": 956,
      "Ġag": 957,
      "ified": 958,
      "Ġincrease": 959,
      "hem": 960,
      "Ġgrow": 961,
      "lu": 962,
      "Ġlay": 963,
      "ides": 964,
      "Ġestim": 965,
      "Ġlim": 966,
      "Ġ13": 967,
      "ics": 968,
      "Ġno": 969,
      "Ġdecreas": 970,
      "Ġstudies": 971,
      "Ġmon": 972,
      "Ġassoci": 973,
      "Ġcorrel": 974,
      "ulation": 975,
      "Ġfact": 976,
      "Ġdeep": 977,
      "Ġdue": 978,
      "aminif": 979,
      "Ġequ": 980,
      "ĠThese": 981,
      "Ġtra": 982,
      "Ġpar": 983,
      "ks": 984,
      "ise": 985,
      "Ġseason": 986,
      "ery": 987,
      "ĠFor": 988,
      "Ġassembl": 989,
      "Ġglac": 990,
      "Ġdistribution": 991,
      "Ġfra": 992,
      "Ġdevelop": 993,
      "Ġtax": 994,
      "tal": 995,
      "Ġcr": 996,
      "hes": 997,
      "Ġsal": 998,
      "Ġpattern": 999,
      "Ġour": 1000,
      "Ġset": 1001,
      "oplankton": 1002,
      "ctic": 1003,
      "arm": 1004,
      "ĠAs": 1005,
      "ons": 1006,
      "Ġareas": 1007,
      "ield": 1008,
      "ollow": 1009,
      "ret": 1010,
      "Ġlong": 1011,
      "Ġwaters": 1012,
      "Ġcontin": 1013,
      "Ġappro": 1014,
      "Ġbased": 1015,
      "han": 1016,
      "xy": 1017,
      "ory": 1018,
      "der": 1019,
      "Ġ15": 1020,
      "Ġforaminif": 1021,
      "ins": 1022,
      "Ġsum": 1023,
      "ential": 1024,
      "Ġ18": 1025,
      "Ġprec": 1026,
      "Ġtotal": 1027,
      "Ġabout": 1028,
      "alae": 1029,
      "Ġer": 1030,
      "Ġthey": 1031,
      "aun": 1032,
      "als": 1033,
      "ood": 1034,
      "Ġcould": 1035,
      "Ġsize": 1036,
      "Ġrepresent": 1037,
      "Ġgeneral": 1038,
      "Ġabundance": 1039,
      "ean": 1040,
      "round": 1041,
      "Ġalong": 1042,
      "Ġdomin": 1043,
      "Ġisot": 1044,
      "Ġ201": 1045,
      "ium": 1046,
      "Ġgre": 1047,
      "Ġstrong": 1048,
      "Ġident": 1049,
      "atively": 1050,
      "ĠMar": 1051,
      "Ġnear": 1052,
      "ĠIt": 1053,
      "ume": 1054,
      "itation": 1055,
      "yn": 1056,
      "fter": 1057,
      "Ġpred": 1058,
      "Ġfollow": 1059,
      "osp": 1060,
      "Ġaver": 1061,
      "Ġwhen": 1062,
      "ĠWe": 1063,
      "Ġmat": 1064,
      "Ġinv": 1065,
      "Ġupper": 1066,
      "Ġdo": 1067,
      "are": 1068,
      "ormation": 1069,
      "era": 1070,
      "irst": 1071,
      "amet": 1072,
      "hod": 1073,
      "nces": 1074,
      "ove": 1075,
      "Ġexper": 1076,
      "ross": 1077,
      "Ġmax": 1078,
      "Ġge": 1079,
      "ĠZ": 1080,
      "agn": 1081,
      "enc": 1082,
      "ification": 1083,
      "Ġorganic": 1084,
      "Ġrates": 1085,
      "Ġav": 1086,
      "Ġsupp": 1087,
      "Ġ12": 1088,
      "Ġprob": 1089,
      "atures": 1090,
      "Ġdesc": 1091,
      "iversity": 1092,
      "Ġinterval": 1093,
      "Ġbel": 1094,
      "ivid": 1095,
      "Ġvery": 1096,
      "Ġcalcul": 1097,
      "Ġthree": 1098,
      "Ġdisc": 1099,
      "of": 1100,
      "lant": 1101,
      "Ġposs": 1102,
      "Ġ199": 1103,
      "sh": 1104,
      "ular": 1105,
      "ement": 1106,
      "ved": 1107,
      "Ġnumber": 1108,
      "ĠNorth": 1109,
      "Ġhy": 1110,
      "Ġrange": 1111,
      "Ġwould": 1112,
      "Ġgroup": 1113,
      "Ġcurrent": 1114,
      "Ġcyc": 1115,
      "urther": 1116,
      "ork": 1117,
      "te": 1118,
      "Ġexpl": 1119,
      "Ġsame": 1120,
      "Ġcommun": 1121,
      "Ġconcentrations": 1122,
      "ĠSc": 1123,
      "Ġbound": 1124,
      "Ġgrowth": 1125,
      "ossil": 1126,
      "Ġlik": 1127,
      "estern": 1128,
      "uch": 1129,
      "though": 1130,
      "osed": 1131,
      "inity": 1132,
      "Ġassociated": 1133,
      "ays": 1134,
      "Ġconsist": 1135,
      "lantic": 1136,
      "Ġthose": 1137,
      "ones": 1138,
      "Ġimportant": 1139,
      "Ġnort": 1140,
      "The": 1141,
      "Ġj": 1142,
      "ire": 1143,
      "Ġdeterm": 1144,
      "cept": 1145,
      "Ġbl": 1146,
      "Ġflux": 1147,
      "Ġlarg": 1148,
      "aj": 1149,
      "Ġflow": 1150,
      "Ġyears": 1151,
      "line": 1152,
      "ably": 1153,
      "Ġmass": 1154,
      "Ġele": 1155,
      "ring": 1156,
      "sc": 1157,
      "ĠOcean": 1158,
      "idence": 1159,
      "ared": 1160,
      "Ġstruct": 1161,
      "onstr": 1162,
      "Ġinflu": 1163,
      "Ġ-": 1164,
      "ported": 1165,
      "Ġwill": 1166,
      "Ġproduction": 1167,
      "Ġrate": 1168,
      "Ġbecause": 1169,
      "obal": 1170,
      "Ġincreased": 1171,
      "Ġfirst": 1172,
      "itude": 1173,
      "Ġdire": 1174,
      "ĠAtlantic": 1175,
      "Ġmix": 1176,
      "ĠSout": 1177,
      "Ġcore": 1178,
      "ĠFig": 1179,
      "Ġcomple": 1180,
      "Ġnorth": 1181,
      "Ġvariability": 1182,
      "ince": 1183,
      "its": 1184,
      "ier": 1185,
      "Ġmicro": 1186,
      "Ġmethod": 1187,
      "Ġra": 1188,
      "ids": 1189,
      "ately": 1190,
      "eng": 1191,
      "Ġtrend": 1192,
      "iter": 1193,
      "ĠPl": 1194,
      "Ġless": 1195,
      "iven": 1196,
      "vious": 1197,
      "Ġrelative": 1198,
      "ern": 1199,
      "Ġlat": 1200,
      "urb": 1201,
      "lf": 1202,
      "orph": 1203,
      "ensity": 1204,
      "Ġdeposit": 1205,
      "000": 1206,
      "dro": 1207,
      "Ġcm": 1208,
      "Ġcompar": 1209,
      "astern": 1210,
      "hn": 1211,
      "ially": 1212,
      "Ġprecip": 1213,
      "ribut": 1214,
      "ick": 1215,
      "Ġwind": 1216,
      "Ġpe": 1217,
      "ĠAn": 1218,
      "Ġ14": 1219,
      "hen": 1220,
      "Ġsites": 1221,
      "Ġfish": 1222,
      "Ġavail": 1223,
      "enthic": 1224,
      "ently": 1225,
      "Ġinterp": 1226,
      "inter": 1227,
      "ajor": 1228,
      "Ġtest": 1229,
      "otential": 1230,
      "10": 1231,
      "ront": 1232,
      "ogen": 1233,
      "Ġlocal": 1234,
      "Ġaddition": 1235,
      "ck": 1236,
      "Ġsour": 1237,
      "Ġi": 1238,
      "Ġafter": 1239,
      "ited": 1240,
      "over": 1241,
      "Ġwhile": 1242,
      "pec": 1243,
      "Ġmaximum": 1244,
      "xygen": 1245,
      "Ġabove": 1246,
      "ividual": 1247,
      "Ġrelatively": 1248,
      "por": 1249,
      "Ġvol": 1250,
      "ains": 1251,
      "Ġenvironmental": 1252,
      "rest": 1253,
      "Ġsection": 1254,
      "Ġwarm": 1255,
      "par": 1256,
      "duced": 1257,
      "Ġed": 1258,
      "ĠBas": 1259,
      "tom": 1260,
      "igrap": 1261,
      "etic": 1262,
      "Ġsouth": 1263,
      "Ġexperiment": 1264,
      "resp": 1265,
      "uss": 1266,
      "Ġsample": 1267,
      "Ġpotential": 1268,
      "atigrap": 1269,
      "iss": 1270,
      "here": 1271,
      "Ġdescrib": 1272,
      "abit": 1273,
      "Ġoff": 1274,
      "Ġconst": 1275,
      "Ġphyt": 1276,
      "Ġprim": 1277,
      "Ġkn": 1278,
      "ox": 1279,
      "Ġprecipitation": 1280,
      "Ġlayer": 1281,
      "erg": 1282,
      "Ġaverage": 1283,
      "Ġu": 1284,
      "rophic": 1285,
      "Ġmajor": 1286,
      "Ġzone": 1287,
      "ĠThere": 1288,
      "Ġpop": 1289,
      "hip": 1290,
      "imens": 1291,
      "Ġnut": 1292,
      "lected": 1293,
      "ophy": 1294,
      "ales": 1295,
      "Ġrespect": 1296,
      "Ġindividual": 1297,
      "Ġdr": 1298,
      "Ġmid": 1299,
      "Ġtaxa": 1300,
      "Ġobt": 1301,
      "Ġatt": 1302,
      "atom": 1303,
      "Ġparamet": 1304,
      "Ġaut": 1305,
      "50": 1306,
      "ting": 1307,
      "respond": 1308,
      "radi": 1309,
      "Ġsand": 1310,
      "ived": 1311,
      "allow": 1312,
      "Ġcalc": 1313,
      "Ġcoastal": 1314,
      "Ġ11": 1315,
      "entral": 1316,
      "Ġspat": 1317,
      "Ġglobal": 1318,
      "ole": 1319,
      "ĠUn": 1320,
      "Ġdiss": 1321,
      "Ġage": 1322,
      "Ġbasin": 1323,
      "Ġland": 1324,
      "Ġtop": 1325,
      "Ġlevels": 1326,
      "Ġcontro": 1327,
      "Ġimpact": 1328,
      "Ġap": 1329,
      "Ġcell": 1330,
      "Ġpale": 1331,
      "Ġcle": 1332,
      "Ġvert": 1333,
      "ram": 1334,
      "Ġbiom": 1335,
      "row": 1336,
      "ffic": 1337,
      "Ġprocesses": 1338,
      "ans": 1339,
      "gin": 1340,
      "Ġnorthern": 1341,
      "Ġshown": 1342,
      "Ġshallow": 1343,
      "ĠY": 1344,
      "iqu": 1345,
      "plic": 1346,
      "lor": 1347,
      "Ġboundary": 1348,
      "Ġdef": 1349,
      "Ġsummer": 1350,
      "ience": 1351,
      "Ġshows": 1352,
      "Ġcompared": 1353,
      "Ġhydro": 1354,
      "Ġem": 1355,
      "Ġconcentration": 1356,
      "requ": 1357,
      "Ġrelations": 1358,
      "Ġdifferences": 1359,
      "mosp": 1360,
      "int": 1361,
      "Ġoxygen": 1362,
      "Ġregions": 1363,
      "ie": 1364,
      "Ġsequ": 1365,
      "Ġnutri": 1366,
      "ĠĠ": 1367,
      "Ġmodels": 1368,
      "abitat": 1369,
      "ĠPac": 1370,
      "Ġ;": 1371,
      "ict": 1372,
      "Ġbenthic": 1373,
      "Ġsever": 1374,
      "ĠQ": 1375,
      "ural": 1376,
      "Ġreported": 1377,
      "Ġsalinity": 1378,
      "Ġrelated": 1379,
      "br": 1380,
      "osystem": 1381,
      "ental": 1382,
      "ron": 1383,
      "Ġhad": 1384,
      "sequ": 1385,
      "Ġexam": 1386,
      "ĠOn": 1387,
      "Ġfun": 1388,
      "Ġuse": 1389,
      "Ġterm": 1390,
      "Ġfaun": 1391,
      "umn": 1392,
      "ject": 1393,
      "Ġsouthern": 1394,
      "Ġend": 1395,
      "Ġsil": 1396,
      "Ġcorrespond": 1397,
      "ines": 1398,
      "lac": 1399,
      "ST": 1400,
      "Ġanalys": 1401,
      "Ġ30": 1402,
      "Ġrelationship": 1403,
      "ances": 1404,
      "ys": 1405,
      "Ġthen": 1406,
      "Ġappear": 1407,
      "ink": 1408,
      "ulations": 1409,
      "Ġtransport": 1410,
      "Ġvalue": 1411,
      "ustr": 1412,
      "aterial": 1413,
      "Ġassemblages": 1414,
      "Ġearly": 1415,
      "idal": 1416,
      "Ġshelf": 1417,
      "ynam": 1418,
      "Ġseveral": 1419,
      "Ġcommon": 1420,
      "Ġcir": 1421,
      "ator": 1422,
      "well": 1423,
      "Ġdiatom": 1424,
      "Ġsite": 1425,
      "Ġlikely": 1426,
      "ency": 1427,
      "Ġbottom": 1428,
      "Ġcomposition": 1429,
      "Ġkm": 1430,
      "Ġnon": 1431,
      "Ġevents": 1432,
      "Ġphytoplankton": 1433,
      "Ġcarbonate": 1434,
      "Ġprevious": 1435,
      "Ġabs": 1436,
      "ha": 1437,
      "Ġop": 1438,
      "Ġline": 1439,
      "uc": 1440,
      "Ġcover": 1441,
      "ization": 1442,
      "Ġecosystem": 1443,
      "oz": 1444,
      "Ġser": 1445,
      "Ġmagn": 1446,
      "Ġdirect": 1447,
      "ĠPacific": 1448,
      "Ġindicate": 1449,
      "Ġent": 1450,
      "Ġaround": 1451,
      "Ġclim": 1452,
      "Ġcalculated": 1453,
      "Ġann": 1454,
      "Ġhabitat": 1455,
      "dle": 1456,
      "Ġseasonal": 1457,
      "Ġmeasured": 1458,
      "Ġsupport": 1459,
      "Ġwinter": 1460,
      "Ġorder": 1461,
      "Ġ/": 1462,
      "Ġconsidered": 1463,
      "ration": 1464,
      "ores": 1465,
      "ĠMarine": 1466,
      "ropical": 1467,
      "Ġeffects": 1468,
      "ade": 1469,
      "iocene": 1470,
      "Ġreef": 1471,
      "Ġcollected": 1472,
      "ational": 1473,
      "arctic": 1474,
      "Ġcompon": 1475,
      "Ġfield": 1476,
      "ark": 1477,
      "ĠInd": 1478,
      "Ġbed": 1479,
      "Ġatmosp": 1480,
      "20": 1481,
      "Ġbelow": 1482,
      "ift": 1483,
      "put": 1484,
      "iers": 1485,
      "Ġpossible": 1486,
      "Ġstand": 1487,
      "Ġ[": 1488,
      "Ġbiomass": 1489,
      "Ġspatial": 1490,
      "urn": 1491,
      "13": 1492,
      "ings": 1493,
      "Ġnew": 1494,
      "Ġprof": 1495,
      "ences": 1496,
      "igin": 1497,
      "ished": 1498,
      "Ġfurther": 1499,
      "ional": 1500,
      "aw": 1501,
      "ĠCO": 1502,
      "Ġacross": 1503,
      "Ġfrequ": 1504,
      "Ġlate": 1505,
      "resh": 1506,
      "econd": 1507,
      "ten": 1508,
      "Ġthick": 1509,
      "med": 1510,
      "olved": 1511,
      "Ġpa": 1512,
      "Ġshould": 1513,
      "Ġmuch": 1514,
      "Ġter": 1515,
      "ness": 1516,
      "Ġpatterns": 1517,
      "Ġinvest": 1518,
      "Ġpresence": 1519,
      "Ġaffect": 1520,
      "get": 1521,
      "ually": 1522,
      "Ġpoll": 1523,
      "Ġmany": 1524,
      "onom": 1525,
      "Ġincluding": 1526,
      "hemical": 1527,
      "Ġobtained": 1528,
      "Ġfossil": 1529,
      "Ġfe": 1530,
      "xim": 1531,
      "Ġ~": 1532,
      "Ġmult": 1533,
      "isms": 1534,
      "Ġlast": 1535,
      "Ġsens": 1536,
      "Ġmaterial": 1537,
      "Ġrecords": 1538,
      "arch": 1539,
      "Ġdescribed": 1540,
      "Ġ50": 1541,
      "ertain": 1542,
      "old": 1543,
      "rm": 1544,
      "ves": 1545,
      "ica": 1546,
      "Ġsect": 1547,
      "ases": 1548,
      "Ġavailable": 1549,
      "Ġwestern": 1550,
      "Ġorigin": 1551,
      "ym": 1552,
      "Ġvertical": 1553,
      "ĠAC": 1554,
      "Ġrequ": 1555,
      "Ġconsider": 1556,
      "Ġshowed": 1557,
      "Ġevidence": 1558,
      "Ġstations": 1559,
      "Ġes": 1560,
      "Ġassess": 1561,
      "ĠAN": 1562,
      "ised": 1563,
      "ĠDe": 1564,
      "lim": 1565,
      "Ġdem": 1566,
      "ographic": 1567,
      "Ġconf": 1568,
      "cing": 1569,
      "most": 1570,
      "Ġder": 1571,
      "Ġhowever": 1572,
      "Ġdensity": 1573,
      "Ġany": 1574,
      "olar": 1575,
      "ify": 1576,
      "ld": 1577,
      "Ġ=": 1578,
      "eget": 1579,
      "Ġmatter": 1580,
      "ĠIs": 1581,
      "Ġdeg": 1582,
      "Ġcap": 1583,
      "itu": 1584,
      "Ġdeposition": 1585,
      "ulf": 1586,
      "Ġcorrelation": 1587,
      "OC": 1588,
      "olith": 1589,
      "oy": 1590,
      "Ġgr": 1591,
      "Ġcomb": 1592,
      "Ġneg": 1593,
      "stand": 1594,
      "onse": 1595,
      "Ġvariations": 1596,
      "Ġunc": 1597,
      "cent": 1598,
      "ography": 1599,
      "Ġinvestig": 1600,
      "Ġthus": 1601,
      "Ġdecrease": 1602,
      "Ġobservations": 1603,
      "ĠPalae": 1604,
      "Ġ100": 1605,
      "rich": 1606,
      "ĠBasin": 1607,
      "ĠPro": 1608,
      "shore": 1609,
      "Ġsampling": 1610,
      "Ġallow": 1611,
      "Ġradi": 1612,
      "Ġestimated": 1613,
      "Ġfew": 1614,
      "ccess": 1615,
      "Ġlight": 1616,
      "Ġif": 1617,
      "Ġannual": 1618,
      "Ġgra": 1619,
      "Ġveget": 1620,
      "Ġ16": 1621,
      "Ġincreasing": 1622,
      "heric": 1623,
      "els": 1624,
      "Ġmorph": 1625,
      "Ġcaus": 1626,
      "Ġmeasurements": 1627,
      "Ġtemperatures": 1628,
      "ĠSouth": 1629,
      "ergy": 1630,
      "Ġlo": 1631,
      "Ġshell": 1632,
      "ength": 1633,
      "Ġcent": 1634,
      "uary": 1635,
      "tle": 1636,
      "ption": 1637,
      "Ġsince": 1638,
      "acies": 1639,
      "Ġeven": 1640,
      "Ġsoil": 1641,
      "onstruct": 1642,
      "Ġstructure": 1643,
      "ven": 1644,
      "Ġspecimens": 1645,
      "Ġtimes": 1646,
      "ok": 1647,
      "Ġeastern": 1648,
      "Ġresponse": 1649,
      "inc": 1650,
      "occ": 1651,
      "Ġinformation": 1652,
      "Ġrecorded": 1653,
      "ĠMed": 1654,
      "ios": 1655,
      "Ġpeak": 1656,
      "ember": 1657,
      "iterran": 1658,
      "Ġgenerally": 1659,
      "Ġcircul": 1660,
      "Ġdown": 1661,
      "CO": 1662,
      "Ġdevelopment": 1663,
      "Ġquant": 1664,
      "Ġfunction": 1665,
      "yr": 1666,
      "Ġthem": 1667,
      "Ġtak": 1668,
      "Ġnit": 1669,
      "Ġsuccess": 1670,
      "au": 1671,
      "Ġhere": 1672,
      "Ġreflect": 1673,
      "Ġalg": 1674,
      "Ġins": 1675,
      "ily": 1676,
      "Ġanalyses": 1677,
      "Ġscale": 1678,
      "Ġisotop": 1679,
      "ock": 1680,
      "IS": 1681,
      "Ġ25": 1682,
      "ĠAnt": 1683,
      "Ġprovide": 1684,
      "Ġfollowing": 1685,
      "rast": 1686,
      "Ġsecond": 1687,
      "ww": 1688,
      "ival": 1689,
      "Ġgrad": 1690,
      "Ġcar": 1691,
      "omet": 1692,
      "Ġcolumn": 1693,
      "oriz": 1694,
      "Ġdepend": 1695,
      "Ġret": 1696,
      "Ġexc": 1697,
      "ren": 1698,
      "Ġperiods": 1699,
      "Ġlead": 1700,
      "Ġrespectively": 1701,
      "Ġcontent": 1702,
      "Ġfeed": 1703,
      "Ġsel": 1704,
      "Ġdiversity": 1705,
      "ĠTo": 1706,
      "iterranean": 1707,
      "Ġlarger": 1708,
      "rit": 1709,
      "Ġparticul": 1710,
      "duction": 1711,
      "ĠScience": 1712,
      "Ġmonth": 1713,
      "Ġfood": 1714,
      "Ġratio": 1715,
      "18": 1716,
      "Ġreconstruct": 1717,
      "Ġcontribut": 1718,
      "Ġforaminifera": 1719,
      "welling": 1720,
      "Ġcharacterist": 1721,
      "Ġperform": 1722,
      "ison": 1723,
      "Ġphys": 1724,
      "Ġassum": 1725,
      "Ġaccum": 1726,
      "ality": 1727,
      "Ġfactors": 1728,
      "Ġinfluence": 1729,
      "Ġprimary": 1730,
      "Ġstat": 1731,
      "Ġlake": 1732,
      "Ġglacial": 1733,
      "Ġtherefore": 1734,
      "Ġdynam": 1735,
      "Ġneed": 1736,
      "eloc": 1737,
      "Ġexample": 1738,
      "Ġopen": 1739,
      "Ġdeposits": 1740,
      "Ġhum": 1741,
      "Ġcommunity": 1742,
      "Ġphot": 1743,
      "Ġcase": 1744,
      "Ġclass": 1745,
      "reg": 1746,
      "ĠFormation": 1747,
      "olocene": 1748,
      "Ġoccurred": 1749,
      "Ġsignificantly": 1750,
      "Ġadv": 1751,
      "Ġamong": 1752,
      "ination": 1753,
      "Ġknown": 1754,
      "Ġgiven": 1755,
      "Ġisotope": 1756,
      "ĠRes": 1757,
      "ĠSC": 1758,
      "read": 1759,
      "Ġinit": 1760,
      "Ġvegetation": 1761,
      "Ġbacter": 1762,
      "Ġseries": 1763,
      "Ġcentral": 1764,
      "Ġbeing": 1765,
      "ĠX": 1766,
      "ression": 1767,
      "Ġcontinental": 1768,
      "Ġep": 1769,
      "Ġstandard": 1770,
      "Ġnet": 1771,
      "ticle": 1772,
      "Ġpalae": 1773,
      "Ġabundant": 1774,
      "Ġposit": 1775,
      "Ġevent": 1776,
      "Ġtr": 1777,
      "hest": 1778,
      "ording": 1779,
      "Ġ17": 1780,
      "bers": 1781,
      "Ġlocated": 1782,
      "Ġpreserv": 1783,
      "ĠMa": 1784,
      "ubl": 1785,
      "ract": 1786,
      "Ġalthough": 1787,
      "Ġamount": 1788,
      "Ġslope": 1789,
      "ning": 1790,
      "Ġproductivity": 1791,
      "oun": 1792,
      "oge": 1793,
      "Ġsepar": 1794,
      "Ġprobably": 1795,
      "Ġidentified": 1796,
      "inct": 1797,
      "Ġtherm": 1798,
      "ĠMediterranean": 1799,
      "ogenic": 1800,
      "Ġveloc": 1801,
      "iving": 1802,
      "ey": 1803,
      "oth": 1804,
      "ĠIP": 1805,
      "ĠFe": 1806,
      "Ġcontrast": 1807,
      "Ġvariation": 1808,
      "Ġenergy": 1809,
      "Ġsource": 1810,
      "Ġshort": 1811,
      "rem": 1812,
      "ulated": 1813,
      "ables": 1814,
      "Ġmainly": 1815,
      "Ġregional": 1816,
      "Ġparameters": 1817,
      "ĠSp": 1818,
      "Ġfour": 1819,
      "Ġfil": 1820,
      "Ġnutrient": 1821,
      "Ġcirculation": 1822,
      "Ġestimates": 1823,
      "Ġfis": 1824,
      "Ġcomplex": 1825,
      "Ġrese": 1826,
      "Ġprop": 1827,
      "Ġwork": 1828,
      "wards": 1829,
      "Ġspect": 1830,
      "Ġsitu": 1831,
      "Ġcontinu": 1832,
      "fl": 1833,
      "Ġoccurre": 1834,
      "Ġprovid": 1835,
      "ants": 1836,
      "Ġrest": 1837,
      "Ġsuggests": 1838,
      "Ġassemblage": 1839,
      "Ġpollen": 1840,
      "lacial": 1841,
      "Ġrun": 1842,
      "Ġ23": 1843,
      "Ġactivity": 1844,
      "Ġriver": 1845,
      "Ġelev": 1846,
      "Ġhoriz": 1847,
      "Ġdetail": 1848,
      "Ġenvironments": 1849,
      "erest": 1850,
      "Ġprog": 1851,
      "atigraphic": 1852,
      "Ġcoral": 1853,
      "Ġhist": 1854,
      "Ġmm": 1855,
      "aining": 1856,
      "ext": 1857,
      "fficient": 1858,
      "echn": 1859,
      "Ġinput": 1860,
      "12": 1861,
      "Ġaccount": 1862,
      "Ġhighest": 1863,
      "abl": 1864,
      "ased": 1865,
      "Ġfraction": 1866,
      "ĠAntarctic": 1867,
      "iles": 1868,
      "Ġbar": 1869,
      "aries": 1870,
      "Ġgroups": 1871,
      "ath": 1872,
      "Ġexist": 1873,
      "Ġcores": 1874,
      "Ġdat": 1875,
      "Ġmodern": 1876,
      "Ġ40": 1877,
      "Ġconsistent": 1878,
      "Ġ:": 1879,
      "Ġdiscuss": 1880,
      "Ġcontrol": 1881,
      "can": 1882,
      "Ġrecent": 1883,
      "Ġwhereas": 1884,
      "Ġlength": 1885,
      "Ġapproxim": 1886,
      "elag": 1887,
      "Ġformation": 1888,
      "ower": 1889,
      "ither": 1890,
      "Ġplankton": 1891,
      "ĠGe": 1892,
      "ĠSST": 1893,
      "ĠAlthough": 1894,
      "lands": 1895,
      "ull": 1896,
      "ĠAm": 1897,
      "Ġ198": 1898,
      "Ġwave": 1899,
      "Ġgener": 1900,
      "Ġrain": 1901,
      "ĠHolocene": 1902,
      "Ġgreater": 1903,
      "Ġmargin": 1904,
      "ozo": 1905,
      "ĠEu": 1906,
      "Ġatmospheric": 1907,
      "Ġforaminiferal": 1908,
      "Ġcool": 1909,
      "ty": 1910,
      "elt": 1911,
      "isc": 1912,
      "ĠBay": 1913,
      "ĠVol": 1914,
      "ute": 1915,
      "lying": 1916,
      "Ġapproach": 1917,
      "Ġsystems": 1918,
      "19": 1919,
      "Ġinterpret": 1920,
      "ĠCon": 1921,
      "oor": 1922,
      "app": 1923,
      "Ġmight": 1924,
      "oph": 1925,
      "Ġcount": 1926,
      "Ġclimatic": 1927,
      "ters": 1928,
      "ĠThus": 1929,
      "ives": 1930,
      "Ġbu": 1931,
      "echan": 1932,
      "man": 1933,
      "rial": 1934,
      "Ġdetermined": 1935,
      "Ġmark": 1936,
      "Ġpercent": 1937,
      "lus": 1938,
      "ape": 1939,
      "onomic": 1940,
      "Ġleast": 1941,
      "Ġrap": 1942,
      "Ġtempor": 1943,
      "plied": 1944,
      "inal": 1945,
      "ods": 1946,
      "ĠFront": 1947,
      "Ġpositive": 1948,
      "oid": 1949,
      "Ġdifference": 1950,
      "Ġpopulation": 1951,
      "ĠEP": 1952,
      "ingle": 1953,
      "Ġhyp": 1954,
      "Ġfresh": 1955,
      "ĠLate": 1956,
      "Ġlater": 1957,
      "Ġdistribut": 1958,
      "Ġindicates": 1959,
      "Ġx": 1960,
      "nal": 1961,
      "Ġauth": 1962,
      "ophyll": 1963,
      "hib": 1964,
      "atch": 1965,
      "Ġsections": 1966,
      "Ġcharacterized": 1967,
      "ĠTE": 1968,
      "Ġspring": 1969,
      "Ġslight": 1970,
      "Ġunderstand": 1971,
      "Ġthroughout": 1972,
      "medi": 1973,
      "Ġchlor": 1974,
      "Ġderived": 1975,
      "omp": 1976,
      "ĠAll": 1977,
      "Ġinst": 1978,
      "Ġdepths": 1979,
      "Ġrapid": 1980,
      "AR": 1981,
      "Ġstudied": 1982,
      "Ġstill": 1983,
      "Ġ+": 1984,
      "Ġanom": 1985,
      "atory": 1986,
      "onic": 1987,
      "ime": 1988,
      "atural": 1989,
      "Ġmes": 1990,
      "Ġbefore": 1991,
      "ĠEurop": 1992,
      "ĠArctic": 1993,
      "aps": 1994,
      "Ġoften": 1995,
      "Ġmade": 1996,
      "term": 1997,
      "Ġcycle": 1998,
      "Ġsuggested": 1999,
      "Ġmechan": 2000,
      "Ġresolution": 2001,
      "Ġerr": 2002,
      "Ġupwelling": 2003,
      "oom": 2004,
      "Ġdominated": 2005,
      "led": 2006,
      "Ġreve": 2007,
      "Ġstation": 2008,
      "Ġdid": 2009,
      "Ġresearch": 2010,
      "Ġmixed": 2011,
      "Ġstress": 2012,
      "Ġlayers": 2013,
      "Ġsingle": 2014,
      "Ġ24": 2015,
      "erence": 2016,
      "ner": 2017,
      "enced": 2018,
      "ets": 2019,
      "Ġrele": 2020,
      "Ġmac": 2021,
      "Ġbase": 2022,
      "Ġdoes": 2023,
      "Ġtype": 2024,
      "ĠEl": 2025,
      "Ġsubs": 2026,
      "Ġcommunities": 2027,
      "ich": 2028,
      "Ġclose": 2029,
      "Ġnegative": 2030,
      "Ġcold": 2031,
      "erred": 2032,
      "astic": 2033,
      "Ġanalyz": 2034,
      "ĠGl": 2035,
      "Ġear": 2036,
      "Ġorg": 2037,
      "vers": 2038,
      "ms": 2039,
      "Ġsat": 2040,
      "Ġvariables": 2041,
      "ĠWh": 2042,
      "lig": 2043,
      "Ġexcept": 2044,
      "Ġtaken": 2045,
      "Ġsurve": 2046,
      "uture": 2047,
      "Ġrather": 2048,
      "ues": 2049,
      "Ġsol": 2050,
      "ĠAd": 2051,
      "Ġratios": 2052,
      "Ġmud": 2053,
      "Ġevolution": 2054,
      "pers": 2055,
      "Ġextrem": 2056,
      "Ġdeveloped": 2057,
      "Ġincreases": 2058,
      "rac": 2059,
      "pr": 2060,
      "ane": 2061,
      "Ġinteract": 2062,
      "Ġtrends": 2063,
      "ument": 2064,
      "ogn": 2065,
      "Ġreduced": 2066,
      "other": 2067,
      "Ġphase": 2068,
      "Ġtechn": 2069,
      "ft": 2070,
      "ii": 2071,
      "level": 2072,
      "osph": 2073,
      "Ġseem": 2074,
      "ense": 2075,
      "pecially": 2076,
      "Ġvolume": 2077,
      "mon": 2078,
      "Ġlimited": 2079,
      "arine": 2080,
      "ĠRiver": 2081,
      "ried": 2082,
      "Ġbiological": 2083,
      "Ġisotopic": 2084,
      "duce": 2085,
      "Ġcomparison": 2086,
      "Ġstatist": 2087,
      "Ġeros": 2088,
      "ĠBP": 2089,
      "Ġeast": 2090,
      "Ġdry": 2091,
      "Ġback": 2092,
      "ĠCal": 2093,
      "sure": 2094,
      "ream": 2095,
      "orn": 2096,
      "arent": 2097,
      "ĠVolume": 2098,
      "Ġrole": 2099,
      "Ġestimate": 2100,
      "ended": 2101,
      "char": 2102,
      "rate": 2103,
      "Ġinclude": 2104,
      "akes": 2105,
      "uration": 2106,
      "Ġfactor": 2107,
      "Ġtypes": 2108,
      "ula": 2109,
      "ĠArticle": 2110,
      "ribution": 2111,
      "urrent": 2112,
      "hel": 2113,
      "Ġecological": 2114,
      "Ġwww": 2115,
      "Ġfront": 2116,
      "Ġbur": 2117,
      "Ġparticular": 2118,
      "och": 2119,
      "otic": 2120,
      "Ġlit": 2121,
      "Ġgrain": 2122,
      "ties": 2123,
      "Ġwid": 2124,
      "Ġoccurs": 2125,
      "ley": 2126,
      "Ġeither": 2127,
      "Ġapproximately": 2128,
      "ĠTherefore": 2129,
      "ols": 2130,
      "Ġpast": 2131,
      "Ġca": 2132,
      "Ġoccurrence": 2133,
      "ĠTable": 2134,
      "ĠEn": 2135,
      "Ġdistinct": 2136,
      "Ġdemonstr": 2137,
      "Ġpresented": 2138,
      "aceous": 2139,
      "way": 2140,
      "met": 2141,
      "Ġfisher": 2142,
      "Ġ22": 2143,
      "Ġespecially": 2144,
      "Ġdominant": 2145,
      "urface": 2146,
      "scale": 2147,
      "15": 2148,
      "assic": 2149,
      "fall": 2150,
      "Ġintervals": 2151,
      "Ġsedimentation": 2152,
      "Ġseawater": 2153,
      "Ġmanag": 2154,
      "Ġexperiments": 2155,
      "NA": 2156,
      "ling": 2157,
      "Ġfeatures": 2158,
      "ples": 2159,
      "elagic": 2160,
      "ering": 2161,
      "aches": 2162,
      "ored": 2163,
      "Ġestabl": 2164,
      "Ġnatural": 2165,
      "Ġvi": 2166,
      "Ġbro": 2167,
      "Ġclear": 2168,
      "ella": 2169,
      "now": 2170,
      "Ġnorm": 2171,
      "Ġbloom": 2172,
      "Ġparticularly": 2173,
      "Ġedd": 2174,
      "ateg": 2175,
      "ful": 2176,
      "rated": 2177,
      "havi": 2178,
      "ĠFurther": 2179,
      "Ġmixing": 2180,
      "Ġexpected": 2181,
      "Ġwest": 2182,
      "Ġpoly": 2183,
      "ynt": 2184,
      "Ġsmaller": 2185,
      "Ġparticles": 2186,
      "Ġresulting": 2187,
      "hesis": 2188,
      "ino": 2189,
      "Ġhighly": 2190,
      "OM": 2191,
      "Ġground": 2192,
      "Ġvelocity": 2193,
      "Ġpubl": 2194,
      "Ġstable": 2195,
      "ĠFrontiers": 2196,
      "Ġka": 2197,
      "Ġvariable": 2198,
      "Ġbehavi": 2199,
      "Ġfoc": 2200,
      "ĠII": 2201,
      "Ġvarious": 2202,
      "ogene": 2203,
      "otrophic": 2204,
      "Ġspecific": 2205,
      "Ġtropical": 2206,
      "ators": 2207,
      "Ġposition": 2208,
      "Ġpredict": 2209,
      "Ġyield": 2210,
      "Ġsedimentary": 2211,
      "Ġlith": 2212,
      "Ġfuture": 2213,
      "Ġproport": 2214,
      "aves": 2215,
      "ĠMiocene": 2216,
      "Ġweak": 2217,
      "ĠDuring": 2218,
      "iffiff": 2219,
      "Ġextens": 2220,
      "Ġheat": 2221,
      "Ġfacies": 2222,
      "ĠLake": 2223,
      "anging": 2224,
      "Ġmiddle": 2225,
      "Ġprovided": 2226,
      "ots": 2227,
      "30": 2228,
      "Ġfluxes": 2229,
      "Ġloss": 2230,
      "Ġtidal": 2231,
      "Ġprot": 2232,
      "annel": 2233,
      "ĠSe": 2234,
      "any": 2235,
      "rogen": 2236,
      "Ġorganisms": 2237,
      "Ġlab": 2238,
      "Ġpoint": 2239,
      "Ġturb": 2240,
      "ral": 2241,
      "Ġperformed": 2242,
      "uctu": 2243,
      "ĠThey": 2244,
      "Ġtemporal": 2245,
      "Ġaccumulation": 2246,
      "ĠQu": 2247,
      "Ġincluded": 2248,
      "Ġsequence": 2249,
      "Ġwarming": 2250,
      "Ġday": 2251,
      "Ġred": 2252,
      "Ġindividuals": 2253,
      "40": 2254,
      "IC": 2255,
      "ĠCl": 2256,
      "Ġuncertain": 2257,
      "Ġindicated": 2258,
      "Ġdispl": 2259,
      "Ġwor": 2260,
      "Ġagain": 2261,
      "west": 2262,
      "ĠChina": 2263,
      "oring": 2264,
      "ision": 2265,
      "Ġdays": 2266,
      "Ġcaused": 2267,
      "Ġmed": 2268,
      "ĠSh": 2269,
      "usp": 2270,
      "Ġabundances": 2271,
      "day": 2272,
      "Ġrespons": 2273,
      "af": 2274,
      "Ġ60": 2275,
      "Ġbre": 2276,
      "ostr": 2277,
      "itudes": 2278,
      "Ġadj": 2279,
      "ired": 2280,
      "Ġlink": 2281,
      "Ġair": 2282,
      "Ġtransition": 2283,
      "Ġyr": 2284,
      "Ġconduct": 2285,
      "Ġlack": 2286,
      "imal": 2287,
      "Ġ27": 2288,
      "Ġcoe": 2289,
      "Ġne": 2290,
      "epend": 2291,
      "enari": 2292,
      "Ġclos": 2293,
      "Ġentire": 2294,
      "ird": 2295,
      "Ġmethods": 2296,
      "view": 2297,
      "11": 2298,
      "Ġflood": 2299,
      "Ġcells": 2300,
      "anc": 2301,
      "Ġcross": 2302,
      "alu": 2303,
      "60": 2304,
      "ached": 2305,
      "Ġsources": 2306,
      "Ġacid": 2307,
      "Ġterms": 2308,
      "ou": 2309,
      "mental": 2310,
      "Ġmov": 2311,
      "ĠEx": 2312,
      "Ġsensit": 2313,
      "Ġchlorophyll": 2314,
      "Ġmineral": 2315,
      "stone": 2316,
      "Ġcharacteristics": 2317,
      "ĠGre": 2318,
      "soon": 2319,
      "Ġcomponent": 2320,
      "Ġhow": 2321,
      "glacial": 2322,
      "Ġreveal": 2323,
      "Ġproper": 2324,
      "Ġinteg": 2325,
      "Ġpopulations": 2326,
      "Ġslightly": 2327,
      "ique": 2328,
      "amm": 2329,
      "arp": 2330,
      "Ġopt": 2331,
      "Ġdynamics": 2332,
      "til": 2333,
      "Ġevalu": 2334,
      "Ġfocus": 2335,
      "rior": 2336,
      "Ġapplied": 2337,
      "Ġconstant": 2338,
      "let": 2339,
      "Ġrecogn": 2340,
      "Ġfauna": 2341,
      "ochemical": 2342,
      "Ġlocation": 2343,
      "urs": 2344,
      "ustral": 2345,
      "Ġste": 2346,
      "ĠCor": 2347,
      "LA": 2348,
      "ept": 2349,
      "Ġindex": 2350,
      "Ġstrat": 2351,
      "vent": 2352,
      "Ġbal": 2353,
      "rab": 2354,
      "Ġpoin": 2355,
      "Ġinitial": 2356,
      "ĠNe": 2357,
      "ĠPle": 2358,
      "Ġvary": 2359,
      "occolith": 2360,
      "ĠSouthern": 2361,
      "lik": 2362,
      "Ġpossib": 2363,
      "Ġimpro": 2364,
      "Ġexhib": 2365,
      "Ġscenari": 2366,
      "Ġgreat": 2367,
      "Ġenc": 2368,
      "reted": 2369,
      "Ġpost": 2370,
      "icult": 2371,
      "Ġdefined": 2372,
      "sea": 2373,
      "earch": 2374,
      "Ġlimit": 2375,
      "Ġfa": 2376,
      "Ġnumer": 2377,
      "Ġunit": 2378,
      "Ġreason": 2379,
      "Ġel": 2380,
      "Ġhypot": 2381,
      "Ġir": 2382,
      "Ġcomponents": 2383,
      "onian": 2384,
      "agell": 2385,
      "Ġaccording": 2386,
      "Ġstate": 2387,
      "restrial": 2388,
      "Ġminimum": 2389,
      "Ġfrequency": 2390,
      "une": 2391,
      "Ġmicrob": 2392,
      "ĠSub": 2393,
      "Ġdissolved": 2394,
      "Ġ21": 2395,
      "ĠGulf": 2396,
      "Ġoceanic": 2397,
      "Ġwet": 2398,
      "ĠMore": 2399,
      "Ġmig": 2400,
      "ĠMid": 2401,
      "Ġpaper": 2402,
      "ĠUS": 2403,
      "ects": 2404,
      "eper": 2405,
      "'s": 2406,
      "Ġsk": 2407,
      "ĠResearch": 2408,
      "ger": 2409,
      "Ġbetter": 2410,
      "ote": 2411,
      "ĠAf": 2412,
      "Ġ197": 2413,
      "ĠAmer": 2414,
      "Ġzones": 2415,
      "Ġfrag": 2416,
      "Ġsubst": 2417,
      "Ġexamin": 2418,
      "ather": 2419,
      "Ġthough": 2420,
      "Ġtreat": 2421,
      "Ġmanagement": 2422,
      "Ġweight": 2423,
      "ograph": 2424,
      "enn": 2425,
      "Ġagg": 2426,
      "more": 2427,
      "Ġremains": 2428,
      "tered": 2429,
      "Ġscales": 2430,
      "Ġrare": 2431,
      "Ġpressure": 2432,
      "ru": 2433,
      "idge": 2434,
      "Ġmacro": 2435,
      "Ġfollowed": 2436,
      "Ġproble": 2437,
      "Ġthickness": 2438,
      "iation": 2439,
      "Ġ28": 2440,
      "Ġformed": 2441,
      "Ġfind": 2442,
      "Ġbod": 2443,
      "Ġproduced": 2444,
      "Ġcurrents": 2445,
      "Ġextent": 2446,
      "Ġerosion": 2447,
      "ĠUniversity": 2448,
      "Ġdoc": 2449,
      "Ġphysical": 2450,
      "ĠEast": 2451,
      "ild": 2452,
      "otyp": 2453,
      "to": 2454,
      "arily": 2455,
      "ising": 2456,
      "Ġindicating": 2457,
      "Ġhal": 2458,
      "ĠWater": 2459,
      "Ġconn": 2460,
      "Ġlif": 2461,
      "Ġrepresented": 2462,
      "Ġvis": 2463,
      "Ġvolcan": 2464,
      "Ġpreviously": 2465,
      "off": 2466,
      "set": 2467,
      "Ġgood": 2468,
      "Ġdel": 2469,
      "istocene": 2470,
      "iple": 2471,
      "ĠEarly": 2472,
      "Ġoverall": 2473,
      "Ġcorrelated": 2474,
      "Ġrise": 2475,
      "Ġox": 2476,
      "Ġsignal": 2477,
      "Ġcontribution": 2478,
      "Ġforcing": 2479,
      "ĠSite": 2480,
      "amp": 2481,
      "by": 2482,
      "Ġenhan": 2483,
      "ĠPA": 2484,
      "yl": 2485,
      "Ġstrongly": 2486,
      "Ġearl": 2487,
      "Ġforest": 2488,
      "ploy": 2489,
      "ĠSim": 2490,
      "Ġlocations": 2491,
      "ĠZone": 2492,
      "ĠRe": 2493,
      "Ġhabitats": 2494,
      "ior": 2495,
      "Ġdin": 2496,
      "Ġappears": 2497,
      "ozoic": 2498,
      "Ġbasins": 2499,
      "Ġanalyzed": 2500,
      "Ġmust": 2501,
      "Ġstorm": 2502,
      "Ġdischar": 2503,
      "Ġagre": 2504,
      "Ġterrestrial": 2505,
      "Ġaccur": 2506,
      "Ġinterpreted": 2507,
      "Ġcolon": 2508,
      "ĠOur": 2509,
      "osa": 2510,
      "Ġview": 2511,
      "Ġrepro": 2512,
      "ĠAfric": 2513,
      "Ġrainfall": 2514,
      "Ġcorresponding": 2515,
      "Ġsubt": 2516,
      "Ġprofiles": 2517,
      "ĠNew": 2518,
      "Ġuntil": 2519,
      "Ġanomal": 2520,
      "Ġill": 2521,
      "aced": 2522,
      "Ġconsequ": 2523,
      "usc": 2524,
      "Ġdifficult": 2525,
      "Ġlinear": 2526,
      "Ġfall": 2527,
      "Ġclay": 2528,
      "areous": 2529,
      "ury": 2530,
      "MS": 2531,
      "Ġgradient": 2532,
      "14": 2533,
      "ches": 2534,
      "Ġstart": 2535,
      "rel": 2536,
      "Ġreach": 2537,
      "ĠCom": 2538,
      "Ġfreshwater": 2539,
      "Ġalmost": 2540,
      "Ġpers": 2541,
      "retaceous": 2542,
      "Ġbeds": 2543,
      "Ġprior": 2544,
      "Ġparts": 2545,
      "Ġte": 2546,
      "Ġfluctu": 2547,
      "Ġbroad": 2548,
      "ĠBl": 2549,
      "az": 2550,
      "ges": 2551,
      "Ġreduction": 2552,
      "ises": 2553,
      "Ġparameter": 2554,
      "Ġdecreased": 2555,
      "Ġglacier": 2556,
      "ES": 2557,
      "Ġmo": 2558,
      "Ġdirectly": 2559,
      "Ġmagnitude": 2560,
      "Ġadditional": 2561,
      "Ġocc": 2562,
      "Ġseen": 2563,
      "olic": 2564,
      "Ġpref": 2565,
      "Ġecosystems": 2566,
      "anged": 2567,
      "Ġstage": 2568,
      "Ġcalib": 2569,
      "based": 2570,
      "aged": 2571,
      "ĠOr": 2572,
      "Ġnormal": 2573,
      "Ġdeeper": 2574,
      "Ġmonit": 2575,
      "Ġplanktonic": 2576,
      "Ġnitrogen": 2577,
      "Ġdocument": 2578,
      "istic": 2579,
      "rained": 2580,
      "Ġsampled": 2581,
      "ture": 2582,
      "Ġdiatoms": 2583,
      "Ġunderstanding": 2584,
      "Ġtowards": 2585,
      "Ġdatas": 2586,
      "Ġsumm": 2587,
      "Ġopp": 2588,
      "agen": 2589,
      "Ġshore": 2590,
      "ensis": 2591,
      "Ġrepresents": 2592,
      "aces": 2593,
      "Ġclearly": 2594,
      "not": 2595,
      "heast": 2596,
      "ĠCo": 2597,
      "Ġnec": 2598,
      "arc": 2599,
      "Ġmonsoon": 2600,
      "ps": 2601,
      "Ġ35": 2602,
      "cks": 2603,
      "athy": 2604,
      "ooplankton": 2605,
      "Ġcult": 2606,
      "Ġcycles": 2607,
      "itic": 2608,
      "mediate": 2609,
      "Ġampl": 2610,
      "Ġregard": 2611,
      "Ġimportance": 2612,
      "ĠCurrent": 2613,
      "apor": 2614,
      "ĠPale": 2615,
      "ining": 2616,
      "Ġthin": 2617,
      "ĠMic": 2618,
      "struct": 2619,
      "Ġstep": 2620,
      "oec": 2621,
      "Ġdetermine": 2622,
      "Ġla": 2623,
      "Ġauthors": 2624,
      "ichn": 2625,
      "Ġaffected": 2626,
      "ĠIf": 2627,
      "inium": 2628,
      "Ġfishing": 2629,
      "Ġcontroll": 2630,
      "ressed": 2631,
      "ceed": 2632,
      "Ġ29": 2633,
      "CM": 2634,
      "Ġspeed": 2635,
      "Ġcases": 2636,
      "Ġcop": 2637,
      "Ġlag": 2638,
      "Ġreal": 2639,
      "Ġresour": 2640,
      "Ġimpacts": 2641,
      "25": 2642,
      "ĠAustral": 2643,
      "ĠWith": 2644,
      "Ġshift": 2645,
      "work": 2646,
      "Ġwhole": 2647,
      "Ġcontinuous": 2648,
      "Ġhorizont": 2649,
      "ention": 2650,
      "Ġwithout": 2651,
      "oclim": 2652,
      "Ġgrid": 2653,
      "Ġtoget": 2654,
      "Ġpoor": 2655,
      "Ġtogether": 2656,
      "ctions": 2657,
      "ocl": 2658,
      "Ġselected": 2659,
      "Ġ26": 2660,
      "Ġprey": 2661,
      "Ġforms": 2662,
      "Ġattribut": 2663,
      "Ġsubsequ": 2664,
      "Ġapparent": 2665,
      "Ġnecess": 2666,
      "uced": 2667,
      "Ġknow": 2668,
      "ĠIsland": 2669,
      "ways": 2670,
      "Ġstratigraphic": 2671,
      "Ġequator": 2672,
      "200": 2673,
      "atus": 2674,
      "Ġdiver": 2675,
      "Ġcre": 2676,
      "Ġsuggesting": 2677,
      "bed": 2678,
      "ĠSam": 2679,
      "ript": 2680,
      "Ġhuman": 2681,
      "erent": 2682,
      "Ġstructures": 2683,
      "Ġunits": 2684,
      "ler": 2685,
      "Ġlittle": 2686,
      "Ġdirection": 2687,
      "Ġsetting": 2688,
      "ivities": 2689,
      "Ġcannot": 2690,
      "ĠPleistocene": 2691,
      "Ġcoccolith": 2692,
      "Ġtypical": 2693,
      "ĠCretaceous": 2694,
      "upt": 2695,
      "Ġoffshore": 2696,
      "inction": 2697,
      "ists": 2698,
      "Ġinterest": 2699,
      "ependent": 2700,
      "Ġdetailed": 2701,
      "ĠUp": 2702,
      "ĠNA": 2703,
      "Ġworld": 2704,
      "oratory": 2705,
      "Ġ2000": 2706,
      "pite": 2707,
      "ah": 2708,
      "ffici": 2709,
      "Ġbra": 2710,
      "Ġprovides": 2711,
      "ipp": 2712,
      "isp": 2713,
      "Ġheter": 2714,
      "log": 2715,
      "Ġsimulations": 2716,
      "Ġfeeding": 2717,
      "Ġsubstr": 2718,
      "Ġdust": 2719,
      "rig": 2720,
      "Ġcarried": 2721,
      "ifer": 2722,
      "Ġsequences": 2723,
      "Ġturn": 2724,
      "Ġrestric": 2725,
      "Ġavailability": 2726,
      "Ġinterpretation": 2727,
      "Ġcalcareous": 2728,
      "Ġproposed": 2729,
      "Ġsupply": 2730,
      "Ġwide": 2731,
      "iform": 2732,
      "Ġcatch": 2733,
      "Ġoverl": 2734,
      "Ġenhanced": 2735,
      "Ġplant": 2736,
      "Ġhand": 2737,
      "ofl": 2738,
      "Ġadap": 2739,
      "Ġfar": 2740,
      "Ġnumbers": 2741,
      "Ġdistributions": 2742,
      "Ġheight": 2743,
      "Ġages": 2744,
      "ged": 2745,
      "Ġfram": 2746,
      "ima": 2747,
      "Ġfine": 2748,
      "Ġdistance": 2749,
      "atform": 2750,
      "ĠPC": 2751,
      "Ġtrap": 2752,
      "Ġquest": 2753,
      "ledge": 2754,
      "Ġconsum": 2755,
      "Ġlimest": 2756,
      "Ġproperties": 2757,
      "Ġdeposited": 2758,
      "Ġdiscussed": 2759,
      "Ġproject": 2760,
      "Ġelements": 2761,
      "ĠLe": 2762,
      "vial": 2763,
      "Ġcomput": 2764,
      "Ġlife": 2765,
      "Ġwhether": 2766,
      "16": 2767,
      "Ġpoints": 2768,
      "Ġpreserved": 2769,
      "ellite": 2770,
      "rosc": 2771,
      "Ġconducted": 2772,
      "Ġport": 2773,
      "90": 2774,
      "Ġidentify": 2775,
      "Ġnutrients": 2776,
      "Ġdissolution": 2777,
      "Ġhistory": 2778,
      "ode": 2779,
      "ars": 2780,
      "Ġda": 2781,
      "Ġbacteria": 2782,
      "Ġchemical": 2783,
      "Ġcov": 2784,
      "Ġsurvey": 2785,
      "Ġliving": 2786,
      "Ġsilic": 2787,
      "osynt": 2788,
      "atigraphy": 2789,
      "Ġsnow": 2790,
      "oflagell": 2791,
      "igned": 2792,
      "Ġrelationships": 2793,
      "upl": 2794,
      "Ġaqu": 2795,
      "ĠIndian": 2796,
      "ĠSS": 2797,
      "Ġphosph": 2798,
      "Ġextend": 2799,
      "ĠMA": 2800,
      "roup": 2801,
      "Ġlatter": 2802,
      "uk": 2803,
      "ĠBal": 2804,
      "ame": 2805,
      "Ġaltern": 2806,
      "Ġbalance": 2807,
      "Ġcoinc": 2808,
      "rag": 2809,
      "Ġerror": 2810,
      "Ġhorizontal": 2811,
      "Ġever": 2812,
      "itative": 2813,
      "Ġoper": 2814,
      "Ġmarked": 2815,
      "Ġbasis": 2816,
      "ĠMay": 2817,
      "Ġapplic": 2818,
      "Ġprom": 2819,
      "Ġhel": 2820,
      "Ġbest": 2821,
      "Ġquality": 2822,
      "Ġpredic": 2823,
      "ux": 2824,
      "Ġmonths": 2825,
      "ĠCa": 2826,
      "Ġclus": 2827,
      "Ġstages": 2828,
      "Ġestu": 2829,
      "Ġlog": 2830,
      "vae": 2831,
      "ĠCan": 2832,
      "ĠMIS": 2833,
      "Ġreefs": 2834,
      "Ġcooling": 2835,
      "Ġtests": 2836,
      "Ġplace": 2837,
      "Ġside": 2838,
      "with": 2839,
      "Ġusually": 2840,
      "Ġintensity": 2841,
      "Ġtend": 2842,
      "aceae": 2843,
      "Ġmeans": 2844,
      "Ġcompr": 2845,
      "Ġconfir": 2846,
      "Ġ80": 2847,
      "ĠWhile": 2848,
      "Ġactive": 2849,
      "erc": 2850,
      "Ġtransf": 2851,
      "Ġvers": 2852,
      "Ġcoupl": 2853,
      "Ġsw": 2854,
      "80": 2855,
      "Ġcyst": 2856,
      "ĠRec": 2857,
      "Ġpath": 2858,
      "ective": 2859,
      "Ġeff": 2860,
      "Ġnann": 2861,
      "Ġranges": 2862,
      "ands": 2863,
      "ĠMiddle": 2864,
      "Th": 2865,
      "ĠpH": 2866,
      "Ġfive": 2867,
      "ĠPliocene": 2868,
      "Ġcombined": 2869,
      "organ": 2870,
      "aking": 2871,
      "Ġseems": 2872,
      "ats": 2873,
      "Ġreference": 2874,
      "Ġpass": 2875,
      "Ġcorals": 2876,
      "Ġcycl": 2877,
      "arse": 2878,
      "Ġjust": 2879,
      "Ġbody": 2880,
      "Ġ45": 2881,
      "ĠFurthermore": 2882,
      "Ġlike": 2883,
      "Ġreli": 2884,
      "Ġsubstant": 2885,
      "ĠPh": 2886,
      "Ġeddy": 2887,
      "Ġtect": 2888,
      "ults": 2889,
      "anian": 2890,
      "Ġnoted": 2891,
      "Ġfin": 2892,
      "ateau": 2893,
      "ai": 2894,
      "Ġdischarge": 2895,
      "Ġmultiple": 2896,
      "ĠAb": 2897,
      "lection": 2898,
      "ocline": 2899,
      "Ġinternal": 2900,
      "ethy": 2901,
      "Ġbacterial": 2902,
      "EO": 2903,
      "Ġabsence": 2904,
      "Ġdispers": 2905,
      "plement": 2906,
      "ĠTri": 2907,
      "vironmental": 2908,
      "Ġmicrobial": 2909,
      "Ġprofile": 2910,
      "Ġdegree": 2911,
      "Ġdens": 2912,
      "rim": 2913,
      "reng": 2914,
      "Ġpelagic": 2915,
      "Ġrequire": 2916,
      "Ġlowest": 2917,
      "emb": 2918,
      "Ġconserv": 2919,
      "Ġ\"": 2920,
      "Ġshif": 2921,
      "Ġax": 2922,
      "ety": 2923,
      "ĠPre": 2924,
      "tt": 2925,
      "onal": 2926,
      "Ġcertain": 2927,
      "Ġshells": 2928,
      "Ġactivities": 2929,
      "Ġload": 2930,
      "Ġlamin": 2931,
      "Ġlakes": 2932,
      "co": 2933,
      "Ġkey": 2934,
      "Ġwaves": 2935,
      "Ġfit": 2936,
      "Ġexplain": 2937,
      "Ġsee": 2938,
      "Ġisol": 2939,
      "chi": 2940,
      "Ġmostly": 2941,
      "uven": 2942,
      "Ġfix": 2943,
      "odel": 2944,
      "Ġnow": 2945,
      "ash": 2946,
      "like": 2947,
      "Ġpreservation": 2948,
      "17": 2949,
      "ĠPo": 2950,
      "Ġwinds": 2951,
      "ora": 2952,
      "ĠBec": 2953,
      "ulate": 2954,
      "son": 2955,
      "ĠDes": 2956,
      "Ġtrace": 2957,
      "Ġstreng": 2958,
      "ories": 2959,
      "mit": 2960,
      "Ġresulted": 2961,
      "Ġspp": 2962,
      "Ġdom": 2963,
      "western": 2964,
      "Ġbul": 2965,
      "In": 2966,
      "Ġpaleo": 2967,
      "Ġarch": 2968,
      "Ġfree": 2969,
      "ogeography": 2970,
      "Ġcontain": 2971,
      "Ġcru": 2972,
      "Ġtypically": 2973,
      "Ġ)": 2974,
      "Ġprogram": 2975,
      "ĠPar": 2976,
      "ĠSince": 2977,
      "Ġost": 2978,
      "Ġchannel": 2979,
      "Ġsusp": 2980,
      "Ġassumed": 2981,
      "aster": 2982,
      "Ġlarvae": 2983,
      "Ġearlier": 2984,
      "Ġlonger": 2985,
      "ingu": 2986,
      "Ġ33": 2987,
      "Ġcrust": 2988,
      "Ġalgae": 2989,
      "overed": 2990,
      "Ġbasal": 2991,
      "Ġbiot": 2992,
      "tical": 2993,
      "Ġden": 2994,
      "Ġlargest": 2995,
      "idity": 2996,
      "ermian": 2997,
      "Ġhalf": 2998,
      "ĠGreen": 2999,
      "Ġplot": 3000,
      "Ġanomalies": 3001,
      "ump": 3002,
      "ortun": 3003,
      "Ġdecad": 3004,
      "overy": 3005,
      "ĠLower": 3006,
      "Ġshowing": 3007,
      "Ġexplained": 3008,
      "rass": 3009,
      "Ġrequired": 3010,
      "Ġ32": 3011,
      "Ġhom": 3012,
      "Ġ70": 3013,
      "atter": 3014,
      "ĠFin": 3015,
      "ĠPer": 3016,
      "Ġelevation": 3017,
      "Ġsurf": 3018,
      "Ġcause": 3019,
      "ĠEurope": 3020,
      "Ġsatellite": 3021,
      "oxic": 3022,
      "Ġ34": 3023,
      "Ġzooplankton": 3024,
      "ĠSuch": 3025,
      "Ġdetected": 3026,
      "Ġmoist": 3027,
      "Ġregression": 3028,
      "ĠGlob": 3029,
      "amb": 3030,
      "idae": 3031,
      "grap": 3032,
      "Ġsem": 3033,
      "Ġillustr": 3034,
      "Ġfav": 3035,
      "hal": 3036,
      "Ġplatform": 3037,
      "Ġestablished": 3038,
      "Ġknowledge": 3039,
      "Ġplants": 3040,
      "Ġiron": 3041,
      "Ġsupported": 3042,
      "ĠOne": 3043,
      "rait": 3044,
      "Ġglaciers": 3045,
      "ray": 3046,
      "Ġcost": 3047,
      "aging": 3048,
      "Ġproportion": 3049,
      "erences": 3050,
      "atern": 3051,
      "Ġexamined": 3052,
      "ĠSch": 3053,
      "Ġinfluenced": 3054,
      "Ġchron": 3055,
      "Ġextract": 3056,
      "Ġbathy": 3057,
      "Ġcombination": 3058,
      "flow": 3059,
      "itical": 3060,
      "osc": 3061,
      "Ġrock": 3062,
      "odes": 3063,
      "ĠLa": 3064,
      "den": 3065,
      "DP": 3066,
      "ero": 3067,
      "ĠNort": 3068,
      "Ġbecome": 3069,
      "Ġagreement": 3070,
      "radation": 3071,
      "ements": 3072,
      "otal": 3073,
      "ĠDeep": 3074,
      "ĠFrom": 3075,
      "ER": 3076,
      "Ġsuccession": 3077,
      "Ġexposed": 3078,
      "Ġinvestigated": 3079,
      "uly": 3080,
      "Ġweather": 3081,
      "Ġintermediate": 3082,
      "ymb": 3083,
      "Ġdevi": 3084,
      "Ġbene": 3085,
      "ĠMost": 3086,
      "Ġextinction": 3087,
      "ĠUpper": 3088,
      "Ġtrophic": 3089,
      "Ġnature": 3090,
      "Ġol": 3091,
      "Ġexpos": 3092,
      "Ġway": 3093,
      "ĠAcc": 3094,
      "Ġher": 3095,
      "Ġ90": 3096,
      "Ġintens": 3097,
      "Ġvia": 3098,
      "iger": 3099,
      "ĠBecause": 3100,
      "acent": 3101,
      "ka": 3102,
      "izes": 3103,
      "Ġbehavior": 3104,
      "throp": 3105,
      "Ġcalcite": 3106,
      "ving": 3107,
      "stones": 3108,
      "ĠFigure": 3109,
      "Ġmonitoring": 3110,
      "icity": 3111,
      "imes": 3112,
      "omes": 3113,
      "aving": 3114,
      "Ġcoll": 3115,
      "Ġincludes": 3116,
      "elet": 3117,
      "ĠEocene": 3118,
      "Ġpercentage": 3119,
      "Ġut": 3120,
      "aternary": 3121,
      "Ġsurround": 3122,
      "ocks": 3123,
      "ugust": 3124,
      "Ġlargely": 3125,
      "Ġextreme": 3126,
      "ilib": 3127,
      "Ġeffort": 3128,
      "Ġreview": 3129,
      "Ġcomplete": 3130,
      "fish": 3131,
      "Ġanother": 3132,
      "Ġrevealed": 3133,
      "ĠGu": 3134,
      "Ġ500": 3135,
      "Ġpredomin": 3136,
      "ana": 3137,
      "heless": 3138,
      "Ġiss": 3139,
      "Ġpolar": 3140,
      "Ġgas": 3141,
      "Ġjuven": 3142,
      "ĠSome": 3143,
      "ĠBoth": 3144,
      "Ġsurv": 3145,
      "Ġreport": 3146,
      "Ġmount": 3147,
      "bris": 3148,
      "Ġcommonly": 3149,
      "ĠEuropean": 3150,
      "light": 3151,
      "Ġsolution": 3152,
      "Ġfluctuations": 3153,
      "Ġevapor": 3154,
      "asts": 3155,
      "Ġexceed": 3156,
      "Ġwar": 3157,
      "Ġcondition": 3158,
      "zing": 3159,
      "Ġlatitudes": 3160,
      "Ġthermal": 3161,
      "ĠSE": 3162,
      "Ġdark": 3163,
      "istry": 3164,
      "eful": 3165,
      "Ġintro": 3166,
      "Ġ00": 3167,
      "Ġgenus": 3168,
      "22": 3169,
      "Ġbival": 3170,
      "ission": 3171,
      "arth": 3172,
      "de": 3173,
      "Ġcomposed": 3174,
      "Ġarg": 3175,
      "Ġconstruct": 3176,
      "ofossil": 3177,
      "Ġpossibly": 3178,
      "Ġuseful": 3179,
      "Ġaggreg": 3180,
      "ital": 3181,
      "Ġdaily": 3182,
      "Ġphen": 3183,
      "Ġparticle": 3184,
      "Ġhypothesis": 3185,
      "pril": 3186,
      "ules": 3187,
      "Ġalt": 3188,
      "Ġinver": 3189,
      "Ġassessment": 3190,
      "Ġrestricted": 3191,
      "year": 3192,
      "Ġincor": 3193,
      "Ġsoft": 3194,
      "olari": 3195,
      "Ġphotosynt": 3196,
      "aunal": 3197,
      "ĠMoreover": 3198,
      "tes": 3199,
      "annual": 3200,
      "ĠInter": 3201,
      "Ġsimulation": 3202,
      "Ġmasses": 3203,
      "ober": 3204,
      "Ġmill": 3205,
      "Ġdemonstrated": 3206,
      "Ġdiffus": 3207,
      "vant": 3208,
      "Ġreact": 3209,
      "idation": 3210,
      "Ġrocks": 3211,
      "Ġproxy": 3212,
      "Ġbulk": 3213,
      "Ġtide": 3214,
      "Ġexch": 3215,
      "Ġlinked": 3216,
      "Ġmetab": 3217,
      "CE": 3218,
      "Ġfisheries": 3219,
      "ontin": 3220,
      "Ġproblem": 3221,
      "Ġadjacent": 3222,
      "Ġbegin": 3223,
      "min": 3224,
      "ded": 3225,
      "ĠJan": 3226,
      "Ġinteractions": 3227,
      "ĠCentral": 3228,
      "Ġstatistical": 3229,
      "Ġdocumented": 3230,
      "Ġmechanisms": 3231,
      "ĠNo": 3232,
      "ĠAfter": 3233,
      "ĠJune": 3234,
      "Ġvolcanic": 3235,
      "take": 3236,
      "erate": 3237,
      "Ġ300": 3238,
      "ead": 3239,
      "Ġreached": 3240,
      "ida": 3241,
      "Ġpublished": 3242,
      "Ġconver": 3243,
      "atology": 3244,
      "Ġcomparable": 3245,
      "Ġscient": 3246,
      "Ġfaunal": 3247,
      "luded": 3248,
      "Ġcentury": 3249,
      "Ġatmosphere": 3250,
      "ĠPermian": 3251,
      "rix": 3252,
      "70": 3253,
      "Ġtaxonomic": 3254,
      "Ġplay": 3255,
      "eptember": 3256,
      "Ġdebris": 3257,
      "ready": 3258,
      "ured": 3259,
      "Ġprimarily": 3260,
      "ĠWhen": 3261,
      "Ġdecreasing": 3262,
      "Ġlaboratory": 3263,
      "ne": 3264,
      "ĠAmerica": 3265,
      "Ġfinal": 3266,
      "eter": 3267,
      "Ġbioge": 3268,
      "ĠBi": 3269,
      "Ġhydrolog": 3270,
      "Ġresid": 3271,
      "spec": 3272,
      "rium": 3273,
      "ducing": 3274,
      "Ġbio": 3275,
      "Ġdecreases": 3276,
      "bs": 3277,
      "Ġostrac": 3278,
      "ĠAugust": 3279,
      "ices": 3280,
      "Ġsulf": 3281,
      "Ġranging": 3282,
      "eor": 3283,
      "me": 3284,
      "Ġ1000": 3285,
      "Ġindicators": 3286,
      "Ġremov": 3287,
      "ĠAfrica": 3288,
      "pro": 3289,
      "Ġpur": 3290,
      "illed": 3291,
      "ĠSpec": 3292,
      "ibility": 3293,
      "Ġshape": 3294,
      "RE": 3295,
      "ground": 3296,
      "Ġincub": 3297,
      "abil": 3298,
      "Ca": 3299,
      "Ġprinc": 3300,
      "Ġcorrect": 3301,
      "Ġant": 3302,
      "Ġupl": 3303,
      "Ġblack": 3304,
      "Ġevery": 3305,
      "Ġuptake": 3306,
      "Ġrecently": 3307,
      "Ġfaunas": 3308,
      "Ġalready": 3309,
      "Ġyoun": 3310,
      "Ġdecline": 3311,
      "ening": 3312,
      "23": 3313,
      "ĠQuaternary": 3314,
      "Ġschem": 3315,
      "ĠMarch": 3316,
      "ĠChl": 3317,
      "arget": 3318,
      "Ġhelp": 3319,
      "rier": 3320,
      "Ġmot": 3321,
      "omm": 3322,
      "Ġproced": 3323,
      "iques": 3324,
      "formation": 3325,
      "LAEO": 3326,
      "rient": 3327,
      "Ġmonthly": 3328,
      "Ġtrack": 3329,
      "Ġ36": 3330,
      "cence": 3331,
      "ires": 3332,
      "ĠTriassic": 3333,
      "ĠReg": 3334,
      "gl": 3335,
      "Ġsyn": 3336,
      "Ġoceans": 3337,
      "ĠDep": 3338,
      "Ġow": 3339,
      "Ġcharacteristic": 3340,
      "ara": 3341,
      "ĠAss": 3342,
      "03": 3343,
      "Ġconsists": 3344,
      "Ġmoisture": 3345,
      "Ġwho": 3346,
      "Ġburrow": 3347,
      "Ġduration": 3348,
      "Ġsimple": 3349,
      "ĠStrait": 3350,
      "ĠPALAEO": 3351,
      "emper": 3352,
      "Ġrelation": 3353,
      "ĠApril": 3354,
      "Ġdisplay": 3355,
      "Ġwhat": 3356,
      "Ġcontrolled": 3357,
      "ĠNov": 3358,
      "Ġequation": 3359,
      "ostratigraphic": 3360,
      "Ġagainst": 3361,
      "Ġcy": 3362,
      "ser": 3363,
      "scill": 3364,
      "Ġrivers": 3365,
      "Ġmethan": 3366,
      "Ġincorpor": 3367,
      "Ġmang": 3368,
      "raw": 3369,
      "Ġproduce": 3370,
      "elta": 3371,
      "hemistry": 3372,
      "outh": 3373,
      "alyn": 3374,
      "bb": 3375,
      "aneous": 3376,
      "21": 3377,
      "Ġbeach": 3378,
      "ework": 3379,
      "ada": 3380,
      "Ġflows": 3381,
      "Ġdinoflagell": 3382,
      "ositions": 3383,
      "ico": 3384,
      "Ġgreen": 3385,
      "Ġspaw": 3386,
      "Ġvariance": 3387,
      "Ġtoward": 3388,
      "Ġpredicted": 3389,
      "Ġlatitude": 3390,
      "olation": 3391,
      "Ġuncertainty": 3392,
      "Ġattributed": 3393,
      "Ġoriginal": 3394,
      "Ġvir": 3395,
      "Ġstrateg": 3396,
      "Ġ%": 3397,
      "Ġelevated": 3398,
      "Ġremain": 3399,
      "ĠAc": 3400,
      "low": 3401,
      "ĠCol": 3402,
      "Ġdataset": 3403,
      "Ġspace": 3404,
      "Ġable": 3405,
      "Ġrunoff": 3406,
      "ĠSA": 3407,
      "Ġtrad": 3408,
      "tidal": 3409,
      "cular": 3410,
      "uous": 3411,
      "ĠHigh": 3412,
      "Ġmort": 3413,
      "Ġsimulated": 3414,
      "ĠPen": 3415,
      "Ġequatorial": 3416,
      "oides": 3417,
      "Ġdisturb": 3418,
      "ĠAccording": 3419,
      "Ġdistingu": 3420,
      "ĠInst": 3421,
      "raction": 3422,
      "ĠBased": 3423,
      "vier": 3424,
      "Ġcorresponds": 3425,
      "02": 3426,
      "Ġmicrosc": 3427,
      "Ġbo": 3428,
      "Ġ#": 3429,
      "Ġminor": 3430,
      "Ġextensive": 3431,
      "eros": 3432,
      "Ġepis": 3433,
      "Ġcurve": 3434,
      "ĠShe": 3435,
      "Ġreconstruction": 3436,
      "Ġsix": 3437,
      "Ġexport": 3438,
      "Ġinferred": 3439,
      "Ġtransect": 3440,
      "iration": 3441,
      "Ġsubsequent": 3442,
      "apan": 3443,
      "Ġstream": 3444,
      "Ġsalt": 3445,
      "Ġnitrate": 3446,
      "ĠGreenland": 3447,
      "ĠSeptember": 3448,
      "Ġfore": 3449,
      "Ġbreak": 3450,
      "radients": 3451,
      "Ġegg": 3452,
      "rown": 3453,
      "rought": 3454,
      "Ġreserv": 3455,
      "ĠJuly": 3456,
      "equ": 3457,
      "Ġang": 3458,
      "Ġnecessary": 3459,
      "ĠAustralia": 3460,
      "Ġve": 3461,
      "Ġliter": 3462,
      "ĠEarth": 3463,
      "ĠMS": 3464,
      "Ġpeaks": 3465,
      "iforn": 3466,
      "Ġgenera": 3467,
      "alg": 3468,
      "ressive": 3469,
      "Ġsubtropical": 3470,
      "back": 3471,
      "Ġsuper": 3472,
      "ĠNO": 3473,
      "sl": 3474,
      "ounds": 3475,
      "heastern": 3476,
      "ameter": 3477,
      "ĠNor": 3478,
      "Ġmaint": 3479,
      "antly": 3480,
      "Ġdensities": 3481,
      "ĠVal": 3482,
      "Ġdiagen": 3483,
      "Ġess": 3484,
      "Ġgrass": 3485,
      "Ġgradients": 3486,
      "Ġcateg": 3487,
      "Ġnannofossil": 3488,
      "seud": 3489,
      "Ġconclus": 3490,
      "ĠHere": 3491,
      "auna": 3492,
      "Ġconstrain": 3493,
      "Ġ150": 3494,
      "Ġoutc": 3495,
      "Ġcorrelations": 3496,
      "Ġcritical": 3497,
      "Ġdam": 3498,
      "Ġneeded": 3499,
      "gence": 3500,
      "Ġmake": 3501,
      "ĠOther": 3502,
      "Ġtreatment": 3503,
      "bruary": 3504,
      "Ġtarget": 3505,
      "Ġresources": 3506,
      "Ġcat": 3507,
      "Ġlateral": 3508,
      "Ġfossils": 3509,
      "II": 3510,
      "%.": 3511,
      "Ġcontains": 3512,
      "Ġobservation": 3513,
      "Ġstratification": 3514,
      "osite": 3515,
      "Ġ2017": 3516,
      "isk": 3517,
      "Ġvaried": 3518,
      "ilation": 3519,
      "ĠJanuary": 3520,
      "ĠOct": 3521,
      "Ġresponses": 3522,
      "Ġnearly": 3523,
      "Ġrough": 3524,
      "ĠWest": 3525,
      "berg": 3526,
      "Ġsink": 3527,
      "sp": 3528,
      "Ġoccurring": 3529,
      "ologies": 3530,
      "reat": 3531,
      "Ġcovered": 3532,
      "Ġturbul": 3533,
      "Ġcoarse": 3534,
      "Ġov": 3535,
      "Ġconcern": 3536,
      "Ġcoupled": 3537,
      "Ġadapt": 3538,
      "side": 3539,
      "Ġmigration": 3540,
      "Ġdepositional": 3541,
      "arrow": 3542,
      "Ġsufficient": 3543,
      "Ġmuss": 3544,
      "rupt": 3545,
      "Ġasp": 3546,
      "ĠCaliforn": 3547,
      "Ġfull": 3548,
      "oecology": 3549,
      "ype": 3550,
      "Ġestuary": 3551,
      "ĠJapan": 3552,
      ":/": 3553,
      "Ġdiet": 3554,
      "Ġpersist": 3555,
      "Ġfac": 3556,
      "ĠAdd": 3557,
      "Ġyet": 3558,
      "cem": 3559,
      "Ġsensitivity": 3560,
      "Ġled": 3561,
      "ĠNE": 3562,
      "Ġlines": 3563,
      "dr": 3564,
      "Ġcoefficient": 3565,
      "Ġalgal": 3566,
      "Ġscenario": 3567,
      "SO": 3568,
      "Ġtoo": 3569,
      "Ġgo": 3570,
      "Ġdetrit": 3571,
      "Ġequilib": 3572,
      "Ġdistributed": 3573,
      "wise": 3574,
      "ĠBa": 3575,
      "ĠDi": 3576,
      "gian": 3577,
      "Ġequival": 3578,
      "Ġimplic": 3579,
      "kn": 3580,
      "atum": 3581,
      "Ġupon": 3582,
      "Ġtree": 3583,
      "Ġcham": 3584,
      "insula": 3585,
      "Ġleading": 3586,
      "IP": 3587,
      "Ġwarmer": 3588,
      "Ġexhibit": 3589,
      "Ġmulti": 3590,
      "uel": 3591,
      "acy": 3592,
      "reshold": 3593,
      "alled": 3594,
      "Ġexposure": 3595,
      "Ġdeploy": 3596,
      "aling": 3597,
      "Ġkyr": 3598,
      "Ġinterglacial": 3599,
      "ycl": 3600,
      "Ġ37": 3601,
      "ieved": 3602,
      "Ġgenerated": 3603,
      "Ġliterature": 3604,
      "ĠCalifornia": 3605,
      "Ġfields": 3606,
      "Ġregime": 3607,
      "Ġsilt": 3608,
      "Ġskelet": 3609,
      "ĠBy": 3610,
      "Ġpotentially": 3611,
      "omorph": 3612,
      "ication": 3613,
      "evert": 3614,
      "evertheless": 3615,
      "Ġedge": 3616,
      "izing": 3617,
      "Ġgrains": 3618,
      "Ġamounts": 3619,
      "bo": 3620,
      "imals": 3621,
      "elling": 3622,
      "Ġanthrop": 3623,
      "ries": 3624,
      "Ġhistor": 3625,
      "Ġcontents": 3626,
      "marine": 3627,
      "Ġmatrix": 3628,
      "Ġplank": 3629,
      "ancy": 3630,
      "Ġfragments": 3631,
      "Ġtransfer": 3632,
      "Ġdate": 3633,
      "Ġbiogenic": 3634,
      "Ġdecl": 3635,
      "Ġ38": 3636,
      "rust": 3637,
      "iffiffiffiff": 3638,
      "ĠEc": 3639,
      "olute": 3640,
      "Ġfund": 3641,
      "Ġcontext": 3642,
      "Ġ]": 3643,
      "ĠFebruary": 3644,
      "ze": 3645,
      "Ġsets": 3646,
      "Ġmagnetic": 3647,
      "Ġeas": 3648,
      "Ġobject": 3649,
      "ĠCR": 3650,
      "Ġwood": 3651,
      "Ġmorphology": 3652,
      "go": 3653,
      "ĠCen": 3654,
      "Ġalter": 3655,
      "Ġadded": 3656,
      "Ġtectonic": 3657,
      "Ġevident": 3658,
      "Ġthreshold": 3659,
      "Ġread": 3660,
      "Ġmorphological": 3661,
      "Ġinner": 3662,
      "Ġmole": 3663,
      "overn": 3664,
      "Ġoil": 3665,
      "Ġonset": 3666,
      "Ġ>": 3667,
      "Ġessential": 3668,
      "Ġtub": 3669,
      "Ġapproaches": 3670,
      "Ġ75": 3671,
      "Ġcluster": 3672,
      "Ġstrength": 3673,
      "Ġbeginning": 3674,
      "Ġammon": 3675,
      "Ġbiod": 3676,
      "Ġrapidly": 3677,
      "ĠIm": 3678,
      "://": 3679,
      "otrop": 3680,
      "ĠNorthern": 3681,
      "Ġhtt": 3682,
      "ule": 3683,
      "Ġexchange": 3684,
      "stream": 3685,
      "ivided": 3686,
      "ĠAD": 3687,
      "ĠOver": 3688,
      "Ġseparated": 3689,
      "Ġrecognized": 3690,
      "Ġvent": 3691,
      "erid": 3692,
      "Ġdig": 3693,
      "Ġexperimental": 3694,
      "Ġfeature": 3695,
      "odont": 3696,
      "ya": 3697,
      "ilarly": 3698,
      "hetic": 3699,
      "ĠOctober": 3700,
      "Ġaveraged": 3701,
      "Ġfam": 3702,
      "Ġspread": 3703,
      "Ġtopography": 3704,
      "plies": 3705,
      "Ġrecovery": 3706,
      "ension": 3707,
      "Ġmechanism": 3708,
      "sing": 3709,
      "Ġmodeling": 3710,
      "Ġabsor": 3711,
      "ging": 3712,
      "100": 3713,
      "Ġpen": 3714,
      "Ġ55": 3715,
      "Ġfores": 3716,
      "Ġsust": 3717,
      "ĠPlateau": 3718,
      "Ġimages": 3719,
      "Ġphases": 3720,
      "aria": 3721,
      "anning": 3722,
      "Ġic": 3723,
      "Ġanimals": 3724,
      "ĠPalaeoclim": 3725,
      "Ġcontaining": 3726,
      "Ġflat": 3727,
      "Ġslow": 3728,
      "Ġhard": 3729,
      "CP": 3730,
      "was": 3731,
      "Ġcopep": 3732,
      "ĠAddition": 3733,
      "gins": 3734,
      "Ġtri": 3735,
      "Ġindependent": 3736,
      "26": 3737,
      "oon": 3738,
      "Ġach": 3739,
      "24": 3740,
      "Ġoccup": 3741,
      "Ġconservation": 3742,
      "Ġmortality": 3743,
      "agrass": 3744,
      "Ġsuit": 3745,
      "Ġtechniques": 3746,
      "cal": 3747,
      "opes": 3748,
      "obacter": 3749,
      "ĠHe": 3750,
      "ili": 3751,
      "Ġdating": 3752,
      "Ġouter": 3753,
      "Ġmangro": 3754,
      "Ġamplitude": 3755,
      "ropri": 3756,
      "31": 3757,
      "allel": 3758,
      "Ġsurfaces": 3759,
      "Ġutil": 3760,
      "ndom": 3761,
      "inated": 3762,
      "Ġparticulate": 3763,
      "Ġwidely": 3764,
      "Ġconcept": 3765,
      "jected": 3766,
      "ĠCT": 3767,
      "isphere": 3768,
      "Ġprote": 3769,
      "ĠFinally": 3770,
      "Ġsurveys": 3771,
      "ismic": 3772,
      "she": 3773,
      "ĠCar": 3774,
      "ĠMe": 3775,
      "ĠTwo": 3776,
      "Ġframework": 3777,
      "Ġscenarios": 3778,
      "alk": 3779,
      "Ġide": 3780,
      "Ġdates": 3781,
      "Ġdetect": 3782,
      "ĠBaltic": 3783,
      "opy": 3784,
      "Ġtiss": 3785,
      "Ġfollows": 3786,
      "Ġpalyn": 3787,
      "Ġphysi": 3788,
      "Ġradiation": 3789,
      "Ġcollection": 3790,
      "ĠPalaeogeography": 3791,
      "Ġgy": 3792,
      "Ġsensitive": 3793,
      "cember": 3794,
      "Ġmode": 3795,
      "Ġdiverse": 3796,
      "known": 3797,
      "ĠRed": 3798,
      "Ġexpans": 3799,
      "ographical": 3800,
      "Ġshifts": 3801,
      "Ġ95": 3802,
      "Ġassociation": 3803,
      "floor": 3804,
      "ĠGroup": 3805,
      "ĠpCO": 3806,
      "Ġestablish": 3807,
      "Ġresponsible": 3808,
      "Ġmamm": 3809,
      "itute": 3810,
      "Ġcarbonates": 3811,
      "Ġcapture": 3812,
      "Ġolig": 3813,
      "Ġhem": 3814,
      "Ġquite": 3815,
      "Ġbelong": 3816,
      "mal": 3817,
      "Ġerrors": 3818,
      "utions": 3819,
      "ĠNovember": 3820,
      "rum": 3821,
      "Ġsurrounding": 3822,
      "itudinal": 3823,
      "ke": 3824,
      "Ġclosely": 3825,
      "RA": 3826,
      "Ġcany": 3827,
      "jord": 3828,
      "Ġ*": 3829,
      "alog": 3830,
      "Ġdiameter": 3831,
      "Ġradiolari": 3832,
      "Ġnarrow": 3833,
      "Ġallows": 3834,
      "ĠSP": 3835,
      "dep": 3836,
      "Ġindices": 3837,
      "Ġanthropogenic": 3838,
      "Ġremoved": 3839,
      "ologic": 3840,
      "organic": 3841,
      "Ġaim": 3842,
      "Ġbore": 3843,
      "ligocene": 3844,
      "tles": 3845,
      "Ġgrowing": 3846,
      "Ġrandom": 3847,
      "As": 3848,
      "Ġcalibration": 3849,
      "ontology": 3850,
      "Ġrecru": 3851,
      "Ġunderlying": 3852,
      "lat": 3853,
      "ĠAnd": 3854,
      "ĠData": 3855,
      "Ġnumerical": 3856,
      "Ġinstr": 3857,
      "isation": 3858,
      "Ġdesign": 3859,
      "Ġdriven": 3860,
      "Ġpower": 3861,
      "orith": 3862,
      "ully": 3863,
      "SC": 3864,
      "Ġhaving": 3865,
      "ĠAR": 3866,
      "for": 3867,
      "Ġdecades": 3868,
      "Ġelect": 3869,
      "Ġpack": 3870,
      "Ġtransg": 3871,
      "Ġcontamin": 3872,
      "Ġconv": 3873,
      "Ġboundaries": 3874,
      "Ġright": 3875,
      "Ġtemperate": 3876,
      "aph": 3877,
      "Ġplanktic": 3878,
      "Ġcapac": 3879,
      "Ġcharacterised": 3880,
      "Ġseagrass": 3881,
      "oids": 3882,
      "Ġchanging": 3883,
      "Ġ31": 3884,
      "Ġfem": 3885,
      "Ġintegrated": 3886,
      "Ġhost": 3887,
      "ras": 3888,
      "ĠCH": 3889,
      "gest": 3890,
      "Ġserv": 3891,
      "iated": 3892,
      "Ġalways": 3893,
      "ĠMg": 3894,
      "Ġ196": 3895,
      "Ġindicator": 3896,
      "SW": 3897,
      "eared": 3898,
      "Ġdominance": 3899,
      "Ġsom": 3900,
      "ĠLab": 3901,
      "Ġrad": 3902,
      "Ġdegradation": 3903,
      "Ġpig": 3904,
      "Ġtiming": 3905,
      "ĠSediment": 3906,
      "Ġcompare": 3907,
      "Ġpore": 3908,
      "ocyst": 3909,
      "Ġportion": 3910,
      "Ġtransported": 3911,
      "Ġsqu": 3912,
      "AT": 3913,
      "ĠĠĠĠ": 3914,
      "Ġnumerous": 3915,
      "Ġequivalent": 3916,
      "Ġspawning": 3917,
      "Ġlip": 3918,
      "esis": 3919,
      "Ġquestion": 3920,
      "ĠWestern": 3921,
      "Ġthird": 3922,
      "Ġstrata": 3923,
      "Ġmoll": 3924,
      "rus": 3925,
      "Ġgu": 3926,
      "roc": 3927,
      "Ġexplan": 3928,
      "Ġreconstructions": 3929,
      "ĠPT": 3930,
      "otypes": 3931,
      "rob": 3932,
      "ĠSi": 3933,
      "ĠBlack": 3934,
      "specific": 3935,
      "ĠPeninsula": 3936,
      "27": 3937,
      "ican": 3938,
      "Ġproducts": 3939,
      "ropale": 3940,
      "Ġabsolute": 3941,
      "Ġappropri": 3942,
      "Ġaddress": 3943,
      "Ġobtain": 3944,
      "Ġq": 3945,
      "illing": 3946,
      "Ġquantitative": 3947,
      "Ġfilter": 3948,
      "Ġothers": 3949,
      "irect": 3950,
      "oral": 3951,
      "ĠUSA": 3952,
      "Ġseas": 3953,
      "Ġart": 3954,
      "ĠDecember": 3955,
      "Ġtw": 3956,
      "Ġreduce": 3957,
      "Ġemer": 3958,
      "ware": 3959,
      "Ġ1990": 3960,
      "Ġexpressed": 3961,
      "Ġsemi": 3962,
      "ĠAg": 3963,
      "Ġsandy": 3964,
      "sal": 3965,
      "Ġmelt": 3966,
      "Ġpoorly": 3967,
      "surface": 3968,
      "Ġ48": 3969,
      "Ġ&": 3970,
      "Ġremaining": 3971,
      "Ġidentification": 3972,
      "Ġopportun": 3973,
      "ĠSm": 3974,
      "iences": 3975,
      "ĠBra": 3976,
      "Ġhighlight": 3977,
      "Ġbran": 3978,
      "omen": 3979,
      "Ġlimestone": 3980,
      "Ġpercentages": 3981,
      "Ġchall": 3982,
      "ON": 3983,
      "sevier": 3984,
      "Ġdrop": 3985,
      "ĠDOC": 3986,
      "ĠGen": 3987,
      "Ġaxis": 3988,
      "Ġtoday": 3989,
      "Ġdomain": 3990,
      "Ġcomputed": 3991,
      "ung": 3992,
      "Ġintertidal": 3993,
      "Ġcontribute": 3994,
      "ĠNP": 3995,
      "encies": 3996,
      "Ġnorthward": 3997,
      "inus": 3998,
      "alysis": 3999,
      "Ġolder": 4000,
      "Ġpalaeo": 4001,
      "Ġrespond": 4002,
      "Ġremained": 4003,
      "Ġvariety": 4004,
      "ĠNevertheless": 4005,
      "Ġalgorith": 4006,
      "olian": 4007,
      "ichness": 4008,
      "Ġabsent": 4009,
      "Ġlarval": 4010,
      "Ġfluvial": 4011,
      "Ġrepl": 4012,
      "Ġanalysed": 4013,
      "Ġinteraction": 4014,
      "orescence": 4015,
      "ription": 4016,
      "opod": 4017,
      "imen": 4018,
      "bust": 4019,
      "Ġsizes": 4020,
      "Ġrecovered": 4021,
      "ĠGerm": 4022,
      "Ġwidth": 4023,
      "Ġpp": 4024,
      "iance": 4025,
      "Ġsignificance": 4026,
      "aer": 4027,
      "AM": 4028,
      "empor": 4029,
      "ĠST": 4030,
      "Ġstri": 4031,
      "Ġsubstantial": 4032,
      "where": 4033,
      "Ġflo": 4034,
      "Ġexpansion": 4035,
      "sequently": 4036,
      "Ġrelevant": 4037,
      "Ġtraw": 4038,
      "35": 4039,
      "Ġblooms": 4040,
      "ounced": 4041,
      "98": 4042,
      "inary": 4043,
      "Ġgenetic": 4044,
      "Ġ'": 4045,
      "Ġconsiderable": 4046,
      "Ġha": 4047,
      "Ġsilica": 4048,
      "Ġrepresenting": 4049,
      "Ġinputs": 4050,
      "Ġsubstrate": 4051,
      "Ġtox": 4052,
      "ĠMP": 4053,
      "lo": 4054,
      "ouse": 4055,
      "Ġtested": 4056,
      "Ġequilibrium": 4057,
      "Ġseasons": 4058,
      "ĠOM": 4059,
      "Ġrichness": 4060,
      "ĠNational": 4061,
      "Ġdynamic": 4062,
      "eration": 4063,
      "Ġcollect": 4064,
      "Ġamb": 4065,
      "ls": 4066,
      "Ġult": 4067,
      "udget": 4068,
      "Ġmagnet": 4069,
      "Ġeffective": 4070,
      "Ġ2016": 4071,
      "aet": 4072,
      "Ġinorganic": 4073,
      "GM": 4074,
      "OS": 4075,
      "Ġwall": 4076,
      "anth": 4077,
      "Ġimplement": 4078,
      "Ġdated": 4079,
      "Ġmedium": 4080,
      "ĠSamples": 4081,
      "Ġsettings": 4082,
      "rat": 4083,
      "Ġ400": 4084,
      "28": 4085,
      "imet": 4086,
      "Ġorient": 4087,
      "ĠMet": 4088,
      "enous": 4089,
      "ĠBe": 4090,
      "Ġisolated": 4091,
      "less": 4092,
      "Ġprev": 4093,
      "osen": 4094,
      "ira": 4095,
      "Ġreturn": 4096,
      "Ġuplift": 4097,
      "Ġpool": 4098,
      "Ġvaries": 4099,
      "Ġbathymet": 4100,
      "ĠSection": 4101,
      "Ġcompet": 4102,
      "Ġhence": 4103,
      "Ġuppermost": 4104,
      "inian": 4105,
      "tebr": 4106,
      "IN": 4107,
      "Ġmethane": 4108,
      "ED": 4109,
      "Ġmajority": 4110,
      "Ġthermocline": 4111,
      "Ġadjust": 4112,
      "ĠSal": 4113,
      "ĠJur": 4114,
      "pread": 4115,
      "Ġship": 4116,
      "ĠEN": 4117,
      "Ġeddies": 4118,
      "Ġcapacity": 4119,
      "Ġpron": 4120,
      "Ġability": 4121,
      "Ġcontributed": 4122,
      "Ġpeat": 4123,
      "Ġinvolved": 4124,
      "%,": 4125,
      "idespread": 4126,
      "Ġdrain": 4127,
      "Ġfunctional": 4128,
      "Ġlist": 4129,
      "Ġstronger": 4130,
      "Ġfully": 4131,
      "Ġhydrograp": 4132,
      "Ġplaced": 4133,
      "Ġpronounced": 4134,
      "Ġgeochemical": 4135,
      "Ġranged": 4136,
      "Ġestuarine": 4137,
      "embers": 4138,
      "ĠSr": 4139,
      "ternal": 4140,
      "Ġavoid": 4141,
      "Ġsharp": 4142,
      "Ġcirc": 4143,
      "Ġzero": 4144,
      "Ġbuoy": 4145,
      "Ġsubsurface": 4146,
      "ĠCent": 4147,
      "riched": 4148,
      "95": 4149,
      "ĠOnly": 4150,
      "Ġbecame": 4151,
      "Ġ^": 4152,
      "ĠDNA": 4153,
      "Ġlac": 4154,
      "ournal": 4155,
      "ĠMount": 4156,
      "Ġcut": 4157,
      "Ġrece": 4158,
      "Ġisland": 4159,
      "Ġdisapp": 4160,
      "Ġvelocities": 4161,
      "anks": 4162,
      "Ġplan": 4163,
      "Ġaccess": 4164,
      "Ġbenef": 4165,
      "Ġdatab": 4166,
      "vere": 4167,
      "isons": 4168,
      "Ġseismic": 4169,
      "45": 4170,
      "ustrine": 4171,
      "pos": 4172,
      "Ġexception": 4173,
      "Ġinvol": 4174,
      "empt": 4175,
      "ĠPS": 4176,
      "Ġhttp": 4177,
      "Ġextremely": 4178,
      "ieve": 4179,
      "ofacies": 4180,
      "Ġbias": 4181,
      "Ġrelease": 4182,
      "ĠSW": 4183,
      "ĠInt": 4184,
      "hat": 4185,
      "Ġvarying": 4186,
      "IG": 4187,
      "Ġprox": 4188,
      "umb": 4189,
      "Ġparallel": 4190,
      "oir": 4191,
      "Ġgeological": 4192,
      "Ġoscill": 4193,
      "Ġtaxon": 4194,
      "Ġpropag": 4195,
      "Ġextended": 4196,
      "Ġcriter": 4197,
      "Ġbehaviour": 4198,
      "everal": 4199,
      "Ġdraw": 4200,
      "Ġforests": 4201,
      "ious": 4202,
      "Ġislands": 4203,
      "ĠIslands": 4204,
      "Ġsubject": 4205,
      "Ġplastic": 4206,
      "Ġpert": 4207,
      "Ġ2003": 4208,
      "Ġvess": 4209,
      "ĠAlso": 4210,
      "Ġanomaly": 4211,
      "Ġappropriate": 4212,
      "orous": 4213,
      "Ġseafloor": 4214,
      "fossil": 4215,
      "cer": 4216,
      "Ġbudget": 4217,
      "Ġbiodiversity": 4218,
      "Ġmeasurement": 4219,
      "Ġtake": 4220,
      "Ġ<": 4221,
      "CC": 4222,
      "emperature": 4223,
      "Ġsett": 4224,
      "AS": 4225,
      "environmental": 4226,
      "ĠCE": 4227,
      "37": 4228,
      "Ġgrazing": 4229,
      "oud": 4230,
      "Ġsoils": 4231,
      "order": 4232,
      "ev": 4233,
      "Ġlive": 4234,
      "Ġshear": 4235,
      "Ġenrich": 4236,
      "Ġaff": 4237,
      "resolution": 4238,
      "ĠPhy": 4239,
      "Ġeffici": 4240,
      "Ġsymb": 4241,
      "ĠDespite": 4242,
      "Ġ1998": 4243,
      "Ġclasses": 4244,
      "ĠFran": 4245,
      "Ġoys": 4246,
      "Ġdeviation": 4247,
      "ometric": 4248,
      "Ġallowed": 4249,
      "Ġmap": 4250,
      "Ġcruise": 4251,
      "agnetic": 4252,
      "Ġsecondary": 4253,
      "Ġcysts": 4254,
      "Ġoutside": 4255,
      "Ġsmo": 4256,
      "oles": 4257,
      "Ġoutput": 4258,
      "Ġwidespread": 4259,
      "Ġsimilarity": 4260,
      "Ġequal": 4261,
      "ĠRidge": 4262,
      "inate": 4263,
      "Ġoverlying": 4264,
      "Ġrobust": 4265,
      "Ġperm": 4266,
      "lets": 4267,
      "Ġmeteor": 4268,
      "Ġ2002": 4269,
      "gent": 4270,
      "Ġbr": 4271,
      "Ġsheet": 4272,
      "Ġdependent": 4273,
      "ĠBar": 4274,
      "Ġrepresentative": 4275,
      "wide": 4276,
      "ened": 4277,
      "Ġevaluate": 4278,
      "Ġbuild": 4279,
      "ogeneous": 4280,
      "Ġta": 4281,
      "Ġplume": 4282,
      "were": 4283,
      "Ġstock": 4284,
      "Ġinvestigate": 4285,
      "related": 4286,
      "Ġfixed": 4287,
      "Ġpolic": 4288,
      "Ġautumn": 4289,
      "grained": 4290,
      "rep": 4291,
      "mediately": 4292,
      "99": 4293,
      "ĠNW": 4294,
      "Ġ2010": 4295,
      "itr": 4296,
      "ĠEst": 4297,
      "otype": 4298,
      "Ġconnect": 4299,
      "encing": 4300,
      "DW": 4301,
      "Ġisotopes": 4302,
      "Ġold": 4303,
      "Ġadvection": 4304,
      "Sea": 4305,
      "ĠArab": 4306,
      "Ġmention": 4307,
      "enth": 4308,
      "ocarbon": 4309,
      "Ġproxim": 4310,
      "ĠHence": 4311,
      "Ġapplication": 4312,
      "Ġprocedure": 4313,
      "Ġfacil": 4314,
      "ropaleontology": 4315,
      "Ġnote": 4316,
      "Ġ65": 4317,
      "fficients": 4318,
      "Ġbackground": 4319,
      "Ġenough": 4320,
      "Ġstatus": 4321,
      "OP": 4322,
      "Ġexcurs": 4323,
      "Ġmeasures": 4324,
      "Ġcomplet": 4325,
      "34": 4326,
      "ĠTOC": 4327,
      "ĠOligocene": 4328,
      "Ġaccuracy": 4329,
      "Ġgovern": 4330,
      "TM": 4331,
      "Ġassigned": 4332,
      "IA": 4333,
      "Ġleft": 4334,
      "Ġdespite": 4335,
      "Ġarticle": 4336,
      "Ġcurves": 4337,
      "imensional": 4338,
      "Ġformer": 4339,
      "Ġinterannual": 4340,
      "Ġproviding": 4341,
      "Ġproxies": 4342,
      "arv": 4343,
      "ĠPalaeoecology": 4344,
      "AP": 4345,
      "be": 4346,
      "Ġmg": 4347,
      "ĠIce": 4348,
      "ma": 4349,
      "ĠElsevier": 4350,
      "ipal": 4351,
      "carbon": 4352,
      "uscept": 4353,
      "ulture": 4354,
      "Ġreflects": 4355,
      "Ġintense": 4356,
      "avy": 4357,
      "duces": 4358,
      "icul": 4359,
      "Ġseg": 4360,
      "Ġconsumption": 4361,
      "EM": 4362,
      "avel": 4363,
      "Ġbox": 4364,
      "ĠAsia": 4365,
      "Ġattempt": 4366,
      "Ġimplications": 4367,
      "Ġdispersal": 4368,
      "Ġnam": 4369,
      "Ġdil": 4370,
      "Ġtreatments": 4371,
      "ellow": 4372,
      "Ġseparate": 4373,
      "ĠGlobal": 4374,
      "Ġcoefficients": 4375,
      "Ġbecomes": 4376,
      "ethys": 4377,
      "Ġrequires": 4378,
      "Ġmaps": 4379,
      "Ġdone": 4380,
      "Ġ46": 4381,
      "Ġauthor": 4382,
      "ĠCarbon": 4383,
      "Ġweathering": 4384,
      "Ġspecimen": 4385,
      "Ġchosen": 4386,
      "Ġreaches": 4387,
      "Ġslopes": 4388,
      "Ġuniform": 4389,
      "uph": 4390,
      "ĠLag": 4391,
      "Ġsevere": 4392,
      "erestim": 4393,
      "Ġdol": 4394,
      "Ġstability": 4395,
      "Ġrepe": 4396,
      "ĠRoss": 4397,
      "ĠZe": 4398,
      "Ġfindings": 4399,
      "Ġassim": 4400,
      "Ġstratigraphy": 4401,
      "Ġ54": 4402,
      "Ġseep": 4403,
      "Ġgrav": 4404,
      "ester": 4405,
      "Ġdivided": 4406,
      "Ġspecial": 4407,
      "Ġdefin": 4408,
      "Ġsuitable": 4409,
      "Ġsuccessful": 4410,
      "Ġleads": 4411,
      "Ġcauses": 4412,
      "Ġreaching": 4413,
      "Ġconsequence": 4414,
      "Ġcompounds": 4415,
      "utrophic": 4416,
      "osphere": 4417,
      "Ġglob": 4418,
      "Ġsomew": 4419,
      "Ġemploy": 4420,
      "ocean": 4421,
      "aprop": 4422,
      "Ġmovement": 4423,
      "Ġhistorical": 4424,
      "Ġtechnique": 4425,
      "OD": 4426,
      "Ġchanged": 4427,
      "Ġbrachi": 4428,
      "ĠUnit": 4429,
      "ĠTrans": 4430,
      "ĠRh": 4431,
      "ĠJurassic": 4432,
      "po": 4433,
      "Ġobvious": 4434,
      "ĠPalaeoclimatology": 4435,
      "Ġion": 4436,
      "Ġtrees": 4437,
      "Ġdescribe": 4438,
      "mar": 4439,
      "Ġrecruit": 4440,
      "Ġanoxic": 4441,
      "Ġdierent": 4442,
      "Ġevaporation": 4443,
      "Ġsuscept": 4444,
      "Ġfault": 4445,
      "Ġshallower": 4446,
      "cl": 4447,
      "ĠHem": 4448,
      "Ġexisting": 4449,
      "Ġaccept": 4450,
      "Ġabrupt": 4451,
      "ĠUsing": 4452,
      "Ġextracted": 4453,
      "Ġelement": 4454,
      "Ġsignic": 4455,
      "ĠEqu": 4456,
      "ĠMon": 4457,
      "Ġtrue": 4458,
      "ĠSeveral": 4459,
      "Ġjuvenile": 4460,
      "ĠAntarctica": 4461,
      "Ġsettle": 4462,
      "Ġ44": 4463,
      "Ġcontained": 4464,
      "Ġspectral": 4465,
      "Ġmoderate": 4466,
      "cel": 4467,
      "opods": 4468,
      "Ġassumption": 4469,
      "Ġrich": 4470,
      "rie": 4471,
      "Ġfrequently": 4472,
      "Ġhydrological": 4473,
      "Ġinflow": 4474,
      "Ġdrought": 4475,
      "Ġsignals": 4476,
      "atically": 4477,
      "formed": 4478,
      "Ġord": 4479,
      "Ġ39": 4480,
      "ĠMAR": 4481,
      "ĠStation": 4482,
      "Ġcoverage": 4483,
      "Ġlocalities": 4484,
      "Ġantic": 4485,
      "Ġsector": 4486,
      "ynamic": 4487,
      "Ġimmediately": 4488,
      "Ġreservoir": 4489,
      "artment": 4490,
      "ĠFirst": 4491,
      "lex": 4492,
      "Ġ53": 4493,
      "Ġdiffer": 4494,
      "Ġphenomen": 4495,
      "Ġdepending": 4496,
      "Ġreplic": 4497,
      "ij": 4498,
      "Ġseab": 4499,
      "Ġinduced": 4500,
      "eph": 4501,
      "ĠCoast": 4502,
      "Ġreliable": 4503,
      "ocial": 4504,
      "Ġthought": 4505,
      "itive": 4506,
      "ruct": 4507,
      "Ġcryst": 4508,
      "Ġshel": 4509,
      "Ġnext": 4510,
      "Ġspectra": 4511,
      "Ġinstance": 4512,
      "OV": 4513,
      "29": 4514,
      "ĠMc": 4515,
      "oster": 4516,
      "chin": 4517,
      "Ġeconomic": 4518,
      "Ġuncertainties": 4519,
      "leted": 4520,
      "Ġcounted": 4521,
      "Ġtext": 4522,
      "haps": 4523,
      "Ġtur": 4524,
      "Ġstatistically": 4525,
      "eth": 4526,
      "ĠCC": 4527,
      "Ġindicative": 4528,
      "ming": 4529,
      "rost": 4530,
      "rete": 4531,
      "Ġ2014": 4532,
      "Ġprobability": 4533,
      "Ġwee": 4534,
      "Ġgive": 4535,
      "Ġstocks": 4536,
      "Ġbivalves": 4537,
      "Ġfragment": 4538,
      "Ġnorthwest": 4539,
      "Ġprevail": 4540,
      "Ġcompletely": 4541,
      "Ġmangrove": 4542,
      "umes": 4543,
      "Ġbey": 4544,
      "ĠPOC": 4545,
      "ills": 4546,
      "Ġ1997": 4547,
      "Ġbeyond": 4548,
      "Ġoligotrophic": 4549,
      "33": 4550,
      "Ġ1999": 4551,
      "LE": 4552,
      "].": 4553,
      "Ġefficiency": 4554,
      "Ġproblems": 4555,
      "Ġones": 4556,
      "Ġterra": 4557,
      "asc": 4558,
      "ocy": 4559,
      "Ġintern": 4560,
      "Ġnm": 4561,
      "Ġimplies": 4562,
      "Ġunknown": 4563,
      "uth": 4564,
      "Ġ47": 4565,
      "ifying": 4566,
      "Ġsup": 4567,
      "astrop": 4568,
      "sical": 4569,
      "PS": 4570,
      "Ġrisk": 4571,
      "Al": 4572,
      "Ġexcess": 4573,
      "mm": 4574,
      "Ġcho": 4575,
      "Ġpartly": 4576,
      "Ġexperi": 4577,
      "ĠMD": 4578,
      "Ġscientific": 4579,
      "Ġscheme": 4580,
      "ush": 4581,
      "Ġminerals": 4582,
      "Ġoceanographic": 4583,
      "Ġexamine": 4584,
      "elf": 4585,
      "ĠLGM": 4586,
      "Ġdetection": 4587,
      "ĠPR": 4588,
      "Ġadult": 4589,
      "Ġanalog": 4590,
      "Ġmaxima": 4591,
      "Ġnortheast": 4592,
      "ĠSw": 4593,
      "Ġdelta": 4594,
      "Ġexternal": 4595,
      "Ġalk": 4596,
      "bedded": 4597,
      "ilt": 4598,
      "Ġfluorescence": 4599,
      "Ġtoler": 4600,
      "Ġrespiration": 4601,
      "Ġsomet": 4602,
      "Ġherb": 4603,
      "annels": 4604,
      "Ġresidual": 4605,
      "ĠRecent": 4606,
      "ĠPart": 4607,
      "Ġcontributions": 4608,
      "Ġrework": 4609,
      "rian": 4610,
      "ĠSo": 4611,
      "We": 4612,
      "mic": 4613,
      "iber": 4614,
      "Ġpaleos": 4615,
      "ĠSimilar": 4616,
      "Ġcloud": 4617,
      "Ġecology": 4618,
      "phas": 4619,
      "apping": 4620,
      "Ġunique": 4621,
      "Ġcomparisons": 4622,
      "Ġ2005": 4623,
      "Ġcalculate": 4624,
      "Ġreconstructed": 4625,
      "tian": 4626,
      "ĠMont": 4627,
      "Ġgeographic": 4628,
      "ĠIN": 4629,
      "Ġinvertebr": 4630,
      "version": 4631,
      "ĠPlan": 4632,
      "Ġsomewhat": 4633,
      "pir": 4634,
      "ours": 4635,
      "Ġsynt": 4636,
      "Ġkg": 4637,
      "alth": 4638,
      "Ġeutrophic": 4639,
      "ĠDS": 4640,
      "Ġcurrently": 4641,
      "ĠAnother": 4642,
      "Ġacqu": 4643,
      "Ġbone": 4644,
      "omer": 4645,
      "Ġdatabase": 4646,
      "derived": 4647,
      "ĠModel": 4648,
      "ĠHy": 4649,
      "Ġstead": 4650,
      "Ġmolecular": 4651,
      "AN": 4652,
      "Ġorb": 4653,
      "ĠInc": 4654,
      "Ġsaprop": 4655,
      "Ġinsight": 4656,
      "Ġaccel": 4657,
      "Ġband": 4658,
      "ĠMod": 4659,
      "Ġ2009": 4660,
      "Ġfiltered": 4661,
      "Ġequations": 4662,
      "Ġfunctions": 4663,
      "adi": 4664,
      "ĠGlac": 4665,
      "artz": 4666,
      "Ġvisible": 4667,
      "ĠMes": 4668,
      "Ġreflected": 4669,
      "Ġlimits": 4670,
      "Ġfocused": 4671,
      "ĠEach": 4672,
      "ĠEastern": 4673,
      "Ġinterface": 4674,
      "Ġrot": 4675,
      "Ġsouthward": 4676,
      "Ġdepends": 4677,
      "Ġenrichment": 4678,
      "Ġ2018": 4679,
      "Ġgroundwater": 4680,
      "Ġ2001": 4681,
      "ĠEv": 4682,
      "Ġmargins": 4683,
      "Ġoutcrop": 4684,
      "Ġdead": 4685,
      "Ġcoccolithoph": 4686,
      "Ġnod": 4687,
      "Ġ56": 4688,
      "Ġmembers": 4689,
      "Ġ2004": 4690,
      "Ġ2015": 4691,
      "Ġsuspended": 4692,
      "Ġanc": 4693,
      "Ġ250": 4694,
      "rid": 4695,
      "Ġaccurate": 4696,
      "Ġtrig": 4697,
      "itut": 4698,
      "ĠConsequently": 4699,
      "Ġfrequent": 4700,
      "Ġconsidering": 4701,
      "oval": 4702,
      "chron": 4703,
      "uf": 4704,
      "orage": 4705,
      "ĠApp": 4706,
      "Ġcontact": 4707,
      "Ġmentioned": 4708,
      "ĠPort": 4709,
      "Ġaccomp": 4710,
      "Ġfeedback": 4711,
      "Ġsteep": 4712,
      "atur": 4713,
      "ĠMex": 4714,
      "Ġoccas": 4715,
      "lude": 4716,
      "obacteria": 4717,
      "Ġstra": 4718,
      "ĠMn": 4719,
      "iest": 4720,
      "Ġmodified": 4721,
      "ostratigraphy": 4722,
      "oration": 4723,
      "ech": 4724,
      "Ġphosphate": 4725,
      "Ġhyd": 4726,
      "urbation": 4727,
      "ician": 4728,
      "aching": 4729,
      "ĠKu": 4730,
      "Ġagric": 4731,
      "Ġdescription": 4732,
      "Ġeasily": 4733,
      "SS": 4734,
      "Ġmarginal": 4735,
      "algae": 4736,
      "anced": 4737,
      "rigenous": 4738,
      "ini": 4739,
      "Ġlimestones": 4740,
      "01": 4741,
      "che": 4742,
      "Ġvalid": 4743,
      "Ġlacustrine": 4744,
      "Ġrecruitment": 4745,
      "lit": 4746,
      "Ġpossibility": 4747,
      "Ġimage": 4748,
      "ĠMember": 4749,
      "acement": 4750,
      "Ġmarsh": 4751,
      "Ġmouth": 4752,
      "Ġinvestigation": 4753,
      "Ġphyl": 4754,
      "Ġsustain": 4755,
      "inoides": 4756,
      "Ġmassive": 4757,
      "Ġsocial": 4758,
      "Ġactual": 4759,
      "Ġconfirmed": 4760,
      "ĠAM": 4761,
      "use": 4762,
      "uscript": 4763,
      "zed": 4764,
      "linear": 4765,
      "Ġ2007": 4766,
      "Ġfractions": 4767,
      "hens": 4768,
      "Ġappearance": 4769,
      "Ġperformance": 4770,
      "Ġhorizon": 4771,
      "Ġstored": 4772,
      "istance": 4773,
      "inent": 4774,
      "Ġhorizons": 4775,
      "Ġarid": 4776,
      "Ġexpand": 4777,
      "Ġdiag": 4778,
      "Ġimprove": 4779,
      "hance": 4780,
      "Ġeuph": 4781,
      "ĠLar": 4782,
      "ĠAdditionally": 4783,
      "URE": 4784,
      "ĠBel": 4785,
      "latitude": 4786,
      "aland": 4787,
      "Ġtow": 4788,
      "zone": 4789,
      "ĠUnd": 4790,
      "Ġmaking": 4791,
      "Ġlandsc": 4792,
      "Ġti": 4793,
      "bre": 4794,
      "ĠAmerican": 4795,
      "ĠMicropaleontology": 4796,
      "Ġburial": 4797,
      "verse": 4798,
      "Ġhead": 4799,
      "Ġvalley": 4800,
      "Ġassessed": 4801,
      "Ġconsiderably": 4802,
      "ĠSimilarly": 4803,
      "ĠCanada": 4804,
      "Ġchannels": 4805,
      "Ġinh": 4806,
      "anes": 4807,
      "Ġmanuscript": 4808,
      "time": 4809,
      "Ġ2008": 4810,
      "Ġcalculations": 4811,
      "Ġaquatic": 4812,
      "domin": 4813,
      "96": 4814,
      "Ġquestions": 4815,
      "org": 4816,
      "Ġlocally": 4817,
      "rec": 4818,
      "Ġ43": 4819,
      "Ġpenet": 4820,
      "onform": 4821,
      "ĠGlobiger": 4822,
      "rol": 4823,
      "Ġpel": 4824,
      "Ġ195": 4825,
      "Ġheavy": 4826,
      "ĠScot": 4827,
      "uble": 4828,
      "Ġextension": 4829,
      "Ġvul": 4830,
      "Ġimproved": 4831,
      "Ġestimation": 4832,
      "ided": 4833,
      "ĠLim": 4834,
      "Ġdu": 4835,
      "Ġreferred": 4836,
      "Ġemphas": 4837,
      "cast": 4838,
      "astrich": 4839,
      "ĠENSO": 4840,
      "Ġabsorption": 4841,
      "lay": 4842,
      "ĠED": 4843,
      "Ġprevent": 4844,
      "Ġestuaries": 4845,
      "ĠCari": 4846,
      "ĠAfrican": 4847,
      "Ġhypothes": 4848,
      "Ġdense": 4849,
      "Ġonto": 4850,
      "Ġspectrum": 4851,
      "oscale": 4852,
      "induced": 4853,
      "Ġsituation": 4854,
      "Ġsinking": 4855,
      "Ġenhance": 4856,
      "aped": 4857,
      "ĠMean": 4858,
      "Ġaspects": 4859,
      "Ġissues": 4860,
      "ĠChannel": 4861,
      "Ġaway": 4862,
      "Ġ2011": 4863,
      "Ġoccurrences": 4864,
      "Ġens": 4865,
      "Ġlatest": 4866,
      "Ġstorage": 4867,
      "inn": 4868,
      "ĠArabian": 4869,
      "eli": 4870,
      "ano": 4871,
      "Ġdrift": 4872,
      "Ġfacilit": 4873,
      "Ġterrigenous": 4874,
      "sel": 4875,
      "Ġappeared": 4876,
      "ĠCompar": 4877,
      "Ġroughly": 4878,
      "Ġpul": 4879,
      "onn": 4880,
      "Ġsouthwest": 4881,
      "ĠNote": 4882,
      "ĠDue": 4883,
      "Ġtraps": 4884,
      "Ġped": 4885,
      "Ġtool": 4886,
      "ĠAsian": 4887,
      "Ġ1980": 4888,
      "Ġambient": 4889,
      "ĠSystem": 4890,
      "thermal": 4891,
      "itional": 4892,
      "Ġwavel": 4893,
      "gal": 4894,
      "Ġmel": 4895,
      "ĠOb": 4896,
      "Ġfishes": 4897,
      "ĠClimate": 4898,
      "Ġdiscussion": 4899,
      "Ġinside": 4900,
      "44": 4901,
      "iotic": 4902,
      "Ġfloor": 4903,
      "Ar": 4904,
      "Ġrs": 4905,
      "opsis": 4906,
      "ĠVari": 4907,
      "Ġheterotrophic": 4908,
      "ressions": 4909,
      "Ġradiocarbon": 4910,
      "Ġforaminifers": 4911,
      "Ġphysiological": 4912,
      "ottom": 4913,
      "astrichtian": 4914,
      "Ġtheory": 4915,
      "Ġgene": 4916,
      "Ġinterior": 4917,
      "ĠEq": 4918,
      "Ġnetwork": 4919,
      "Ġsoci": 4920,
      "ifically": 4921,
      "Ġcomparing": 4922,
      "IR": 4923,
      "Ġcommerc": 4924,
      "ching": 4925,
      "ductive": 4926,
      "Ġot": 4927,
      "ĠPE": 4928,
      "hers": 4929,
      "dy": 4930,
      "Ġoxidation": 4931,
      "Ġyounger": 4932,
      "ta": 4933,
      "aximum": 4934,
      "Ġpredominantly": 4935,
      "inities": 4936,
      "Ġshales": 4937,
      "Ġdatasets": 4938,
      "ched": 4939,
      "Ġindust": 4940,
      "Ġremoval": 4941,
      "Ġpair": 4942,
      "Ġassume": 4943,
      "--": 4944,
      "Ġfail": 4945,
      "ĠCenozoic": 4946,
      "icit": 4947,
      "Ġcolonies": 4948,
      "Ġcatchment": 4949,
      "igen": 4950,
      "ama": 4951,
      "Ġprogress": 4952,
      "ĠTheir": 4953,
      "ometry": 4954,
      "Ġadvant": 4955,
      "Ġbiogeochemical": 4956,
      "Ġplotted": 4957,
      "ĠStud": 4958,
      "ĠAp": 4959,
      "ki": 4960,
      "lation": 4961,
      "Ġdemonstrate": 4962,
      "ipl": 4963,
      "Ġclassification": 4964,
      "ĠGiven": 4965,
      "Ġmiss": 4966,
      "Ġche": 4967,
      "Ġ41": 4968,
      "Ġmountain": 4969,
      "Ġly": 4970,
      "ĠMany": 4971,
      "48": 4972,
      "ĠFIG": 4973,
      "75": 4974,
      "Ġloess": 4975,
      "Ġdiagenetic": 4976,
      "Ġsaline": 4977,
      "Ġcontrols": 4978,
      "ĠOf": 4979,
      "Ġversus": 4980,
      "Ġenriched": 4981,
      "Ġcalculation": 4982,
      "Ġleaf": 4983,
      "Ġcanyon": 4984,
      "Ġ120": 4985,
      "ĠDr": 4986,
      "oxia": 4987,
      "aut": 4988,
      "Ġdrif": 4989,
      "ams": 4990,
      "Ġconfidence": 4991,
      "Ġ2006": 4992,
      "Ġdev": 4993,
      "romat": 4994,
      "Ġrevers": 4995,
      "Ġzonal": 4996,
      "Ġremote": 4997,
      "Ġcour": 4998,
      "Ġtimesc": 4999,
      "ĠOrd": 5000,
      "ĠMexico": 5001,
      "Cl": 5002,
      "Ġsurvival": 5003,
      "Ġnest": 5004,
      "adr": 5005,
      "ĠMal": 5006,
      "Ġsoftware": 5007,
      "Ġfishery": 5008,
      "ogenetic": 5009,
      "Ġgeneration": 5010,
      "Ġcounts": 5011,
      "ĠFIGURE": 5012,
      "Ġsummari": 5013,
      "Ġmor": 5014,
      "Ġfig": 5015,
      "hyd": 5016,
      "Ġcorrection": 5017,
      "Ġrev": 5018,
      "Ġexplo": 5019,
      "aera": 5020,
      "Ġdest": 5021,
      "ultaneous": 5022,
      "Ġsolar": 5023,
      "Ġlimitation": 5024,
      "Ġexperienced": 5025,
      "Ġinstead": 5026,
      "Ġexclus": 5027,
      "Ġdinoflagellate": 5028,
      "ĠPr": 5029,
      "Ġselection": 5030,
      "Ġcalibrated": 5031,
      "Ġshoreline": 5032,
      "Ġelse": 5033,
      "Ġearth": 5034,
      "Ġts": 5035,
      "Ġinvestigations": 5036,
      "IM": 5037,
      "ille": 5038,
      "Ġtissue": 5039,
      "ĠCont": 5040,
      "ĠCTD": 5041,
      "Ġridge": 5042,
      "Ġchl": 5043,
      "emble": 5044,
      "Ġcyan": 5045,
      "atigraph": 5046,
      "hs": 5047,
      "Ġdivers": 5048,
      "Ġyielded": 5049,
      "Ġsandstone": 5050,
      "iting": 5051,
      "odinium": 5052,
      "Ġphotosynthetic": 5053,
      "Ġmoor": 5054,
      "Ġperhaps": 5055,
      "Ġstates": 5056,
      "Ġ58": 5057,
      "Ġplots": 5058,
      "Ġresource": 5059,
      "air": 5060,
      "Ġretreat": 5061,
      "Ġsituated": 5062,
      "orus": 5063,
      "ele": 5064,
      "Ġexplanation": 5065,
      "pped": 5066,
      "Ġplate": 5067,
      "Ġneeds": 5068,
      "uber": 5069,
      "Ġcalcification": 5070,
      "ĠComp": 5071,
      "Ġalternative": 5072,
      "Ġexistence": 5073,
      "ulating": 5074,
      "Ġwhose": 5075,
      "Ġmigr": 5076,
      "Ġcod": 5077,
      "Ġempir": 5078,
      "Ġpatch": 5079,
      "36": 5080,
      "onia": 5081,
      "ĠSup": 5082,
      "ĠODP": 5083,
      "zen": 5084,
      "herent": 5085,
      "uments": 5086,
      "Ġregarding": 5087,
      "32": 5088,
      "atives": 5089,
      "pping": 5090,
      "Ġpract": 5091,
      "Ġchalleng": 5092,
      "ĠLo": 5093,
      "oliths": 5094,
      "ĠSO": 5095,
      "Ġprincipal": 5096,
      "AB": 5097,
      "Ġfluid": 5098,
      "gram": 5099,
      "Ġmetabolic": 5100,
      "Ġdrainage": 5101,
      "Ġanimal": 5102,
      "Ġconcentrated": 5103,
      "osm": 5104,
      "Ġpredators": 5105,
      "orp": 5106,
      "iferous": 5107,
      "Ġsometimes": 5108,
      "ĠIber": 5109,
      "col": 5110,
      "Ġ42": 5111,
      "Ġbrack": 5112,
      "Ġdiagram": 5113,
      "Ġmaterials": 5114,
      "Ġmodelling": 5115,
      "Ġtransects": 5116,
      "86": 5117,
      "Ġtook": 5118,
      "ovician": 5119,
      "Ġstrategies": 5120,
      "opic": 5121,
      "inations": 5122,
      "ask": 5123,
      "Ġae": 5124,
      "Ġstructural": 5125,
      "Ġgreatly": 5126,
      "oustic": 5127,
      "39": 5128,
      "Ġlagoon": 5129,
      "Ġdetails": 5130,
      "Ġconodont": 5131,
      "Ġscatter": 5132,
      "ĠHemisphere": 5133,
      "ĠEnvironmental": 5134,
      "ĠCD": 5135,
      "Ġprominent": 5136,
      "Ġdisturbance": 5137,
      "amount": 5138,
      "ococc": 5139,
      "Ġquartz": 5140,
      "Ġhi": 5141,
      "ament": 5142,
      "Ġgastrop": 5143,
      "ĠBet": 5144,
      "ĠML": 5145,
      "ĠWithin": 5146,
      "ucle": 5147,
      "ĠLow": 5148,
      "Ġgives": 5149,
      "Ġrepeated": 5150,
      "earing": 5151,
      "Ġnorthwestern": 5152,
      "Ġconcluded": 5153,
      "Ġid": 5154,
      "Ġdistinguish": 5155,
      "ĠMor": 5156,
      "ĠTur": 5157,
      "Ġupward": 5158,
      "Ġmetal": 5159,
      "onite": 5160,
      "Ġgradual": 5161,
      "fauna": 5162,
      "Ġmakes": 5163,
      "This": 5164,
      "ometer": 5165,
      "Ġmetabol": 5166,
      "orest": 5167,
      "ĠIR": 5168,
      "Ġcrab": 5169,
      "elled": 5170,
      "ĠDet": 5171,
      "ĠInstitute": 5172,
      "Ġcontinued": 5173,
      "Ġcriteria": 5174,
      "core": 5175,
      "Ġingest": 5176,
      "Ġgrap": 5177,
      "Ġkin": 5178,
      "Ġgrey": 5179,
      "Ġni": 5180,
      "Ġ87": 5181,
      "Ġcoord": 5182,
      "Ġgravel": 5183,
      "ĠCaCO": 5184,
      "bbean": 5185,
      "ulina": 5186,
      "Ġcolor": 5187,
      "otes": 5188,
      "long": 5189,
      "ĠCamp": 5190,
      "Ġspectrom": 5191,
      "ĠSM": 5192,
      "Ġmussel": 5193,
      "ĠSu": 5194,
      "ĠCu": 5195,
      "ĠEven": 5196,
      "ĠDiff": 5197,
      "Ġke": 5198,
      "Ġblue": 5199,
      "ĠEm": 5200,
      "ued": 5201,
      "unter": 5202,
      "ĠMaastrichtian": 5203,
      "Ġ85": 5204,
      "Ġ1996": 5205,
      "Ġevaluated": 5206,
      "Ġchem": 5207,
      "ĠCons": 5208,
      "Ġreproduction": 5209,
      "Ġmicroscope": 5210,
      "Ġradiolarian": 5211,
      "ĠCF": 5212,
      "ĠZealand": 5213,
      "Ġ1995": 5214,
      "Ġintroduced": 5215,
      "Ġdominate": 5216,
      "Ġ2012": 5217,
      "Ġgyre": 5218,
      "Ġconnected": 5219,
      "Ġcopepods": 5220,
      "Ġfarm": 5221,
      "Ġdesert": 5222,
      "Ġversion": 5223,
      "Ġimm": 5224,
      "duc": 5225,
      "Ġexpression": 5226,
      "Ġce": 5227,
      "ĠMin": 5228,
      "likely": 5229,
      "ĠSer": 5230,
      "Ġirreg": 5231,
      "Ġpublic": 5232,
      "Ġbrown": 5233,
      "rief": 5234,
      "Ġshale": 5235,
      "ulative": 5236,
      "ows": 5237,
      "Ġstorms": 5238,
      "irds": 5239,
      "iol": 5240,
      "ĠBut": 5241,
      "ĠBio": 5242,
      "ĠDepartment": 5243,
      "Ġvisual": 5244,
      "Ġreducing": 5245,
      "Ġeight": 5246,
      "Ġcenter": 5247,
      "ĠCore": 5248,
      "Ġpredation": 5249,
      "ĠSur": 5250,
      "Ġcomplexity": 5251,
      "Ġichn": 5252,
      "Ġsoutheast": 5253,
      "osity": 5254,
      "ĠIndeed": 5255,
      "Ġcompositions": 5256,
      "ĠChanges": 5257,
      "Ġsettling": 5258,
      "ĠTotal": 5259,
      "wegian": 5260,
      "ĠFlor": 5261,
      "Ġtopographic": 5262,
      "Ġprocessing": 5263,
      "Ġstratified": 5264,
      "Ġlaminated": 5265,
      "ein": 5266,
      "Ġunlikely": 5267,
      "astics": 5268,
      "Ġcourse": 5269,
      "Ġallowing": 5270,
      "Ġdram": 5271,
      "Ġmillion": 5272,
      "Ġdiv": 5273,
      "Ġpump": 5274,
      "Ġapparently": 5275,
      "Ġcruises": 5276,
      "Ġsolutions": 5277,
      "Ġqual": 5278,
      "CEP": 5279,
      "Ġissue": 5280,
      "type": 5281,
      "cm": 5282,
      "ĠPolar": 5283,
      "Ġincubation": 5284,
      "acc": 5285,
      "Ġsmooth": 5286,
      "Ġsimultaneous": 5287,
      "Ġ63": 5288,
      "Ġseven": 5289,
      "Ġleaves": 5290,
      "tion": 5291,
      "Ġshr": 5292,
      "Ġsteady": 5293,
      "Ġexact": 5294,
      "ifications": 5295,
      "down": 5296,
      "Ġgradually": 5297,
      "Ġpredictions": 5298,
      "omic": 5299,
      "Ġreleased": 5300,
      "ingly": 5301,
      "ĠRep": 5302,
      "Ġpresum": 5303,
      "ĠBr": 5304,
      "Ġdecomp": 5305,
      "Ġfast": 5306,
      "Ġdecay": 5307,
      "Ġsubsidence": 5308,
      "ĠSan": 5309,
      "Ġminim": 5310,
      "ĠIndia": 5311,
      "Ġvulner": 5312,
      "Ġadop": 5313,
      "ĠAlb": 5314,
      "ĠBering": 5315,
      "ians": 5316,
      "ĠPat": 5317,
      "mark": 5318,
      "ĠBraz": 5319,
      "lines": 5320,
      "etary": 5321,
      "ĠOk": 5322,
      "ius": 5323,
      "ĠBo": 5324,
      "eline": 5325,
      "Ġhis": 5326,
      "Ġvort": 5327,
      "Ġelsewhere": 5328,
      "mod": 5329,
      "mail": 5330,
      "Ġmerid": 5331,
      "Ġhydrographic": 5332,
      "Ġelectron": 5333,
      "Ġgreatest": 5334,
      "Ġfrequencies": 5335,
      "Ġassuming": 5336,
      "celand": 5337,
      "Ġsul": 5338,
      "Ġdetermination": 5339,
      "Ġstarted": 5340,
      "Ġ1993": 5341,
      "Ġproportions": 5342,
      "Ġpac": 5343,
      "Ġver": 5344,
      "ĠJournal": 5345,
      "retion": 5346,
      "Ġexhibited": 5347,
      "ymmet": 5348,
      "ĠIII": 5349,
      "Ġdisappear": 5350,
      "Ġtaph": 5351,
      "Ġsubsequently": 5352,
      "Ġalgorithm": 5353,
      "Ġsort": 5354,
      "orter": 5355,
      "Ġinfluences": 5356,
      "Ġtun": 5357,
      "Ġclosed": 5358,
      "Ġextraction": 5359,
      "Ġassociations": 5360,
      "Ġexamples": 5361,
      "Ġseparation": 5362,
      "Ġoptical": 5363,
      "Ġopposite": 5364,
      "ĠSa": 5365,
      "Ġitself": 5366,
      "Ġroot": 5367,
      "ampl": 5368,
      "Ġstrain": 5369,
      "Ġcosts": 5370,
      "ĠPP": 5371,
      "Ġfemales": 5372,
      "Ġaer": 5373,
      "Ġ1970": 5374,
      "ignific": 5375,
      "Ġur": 5376,
      "Ġgravity": 5377,
      "Ġremark": 5378,
      "Ġblock": 5379,
      "Ġmob": 5380,
      "Ġobser": 5381,
      "Ġefforts": 5382,
      "Ġexpect": 5383,
      "Ġturbulence": 5384,
      "Ġinternational": 5385,
      "ĠOrdovician": 5386,
      "Ġregimes": 5387,
      "Ġinsolation": 5388,
      "Ġyields": 5389,
      "ĠFA": 5390,
      "ĠSurface": 5391,
      "Ġpartially": 5392,
      "Ġextinct": 5393,
      "ĠNAO": 5394,
      "Ġevolutionary": 5395,
      "Ġremove": 5396,
      "Ġbiostratigraphic": 5397,
      "Ch": 5398,
      "Ġassimilation": 5399,
      "amples": 5400,
      "Ġdetermining": 5401,
      "85": 5402,
      "adal": 5403,
      "Ġaeros": 5404,
      "Ġperman": 5405,
      "Ġphotosynthesis": 5406,
      "Ġhydrothermal": 5407,
      "ĠSil": 5408,
      "rehens": 5409,
      "Ġresol": 5410,
      "ĠDE": 5411,
      "Ġsoutheastern": 5412,
      "Ġgeographical": 5413,
      "iary": 5414,
      "Ġnoise": 5415,
      "IW": 5416,
      "ding": 5417,
      "Ġrid": 5418,
      "rill": 5419,
      "Ġhealth": 5420,
      "Ġaccompan": 5421,
      "Ġstom": 5422,
      "ĠMo": 5423,
      "ogeneity": 5424,
      "Ġnearby": 5425,
      "ĠPaleocene": 5426,
      "dominated": 5427,
      "letion": 5428,
      "ĠUnder": 5429,
      "ĠThree": 5430,
      "Ġpigment": 5431,
      "itz": 5432,
      "oming": 5433,
      "Ġspatially": 5434,
      "Ġcategories": 5435,
      "issions": 5436,
      "Ġexcluded": 5437,
      "ĠNorwegian": 5438,
      "ĠIceland": 5439,
      "aine": 5440,
      "Ġri": 5441,
      "Ġfair": 5442,
      "Ġalone": 5443,
      "Ġspores": 5444,
      "Ġ67": 5445,
      "Ġpseud": 5446,
      "ares": 5447,
      "Ġio": 5448,
      "EN": 5449,
      "Ġseasonality": 5450,
      "Ġmol": 5451,
      "ether": 5452,
      "Ġonce": 5453,
      "Ġ96": 5454,
      "isher": 5455,
      "Ġ2013": 5456,
      "onomy": 5457,
      "Ġcontrolling": 5458,
      "Ġsusceptibility": 5459,
      "Ġturbid": 5460,
      "Ġconsequences": 5461,
      "Ġchemistry": 5462,
      "ĠPseud": 5463,
      "Ġrst": 5464,
      "Ġprep": 5465,
      "ĠThal": 5466,
      "ipation": 5467,
      "ambrian": 5468,
      "Ġ1994": 5469,
      "enu": 5470,
      "att": 5471,
      "ĠCape": 5472,
      "Ġinteresting": 5473,
      "Sr": 5474,
      "Ġcountries": 5475,
      "Ġmeteorological": 5476,
      "Ġlandscape": 5477,
      "house": 5478,
      "ocal": 5479,
      "Ġdinoflagellates": 5480,
      "Ġeggs": 5481,
      "Ġml": 5482,
      "Ġconclusion": 5483,
      "ĠCaribbean": 5484,
      "Ġirrad": 5485,
      "ochemistry": 5486,
      "Ġcooler": 5487,
      "Ġindirect": 5488,
      "Ġprotein": 5489,
      "ĠPa": 5490,
      "Ġhumid": 5491,
      "Ġsettlement": 5492,
      "Ġconsistently": 5493,
      "Ġclean": 5494,
      "pine": 5495,
      "Ġreproductive": 5496,
      "ĠChange": 5497,
      "ĠPF": 5498,
      "ĠMountains": 5499,
      "Ġmit": 5500,
      "Ġquantify": 5501,
      "ĠBrazil": 5502,
      "eb": 5503,
      "Ġexcursion": 5504,
      "ĠSecond": 5505,
      "Ġartic": 5506,
      "Ġeastward": 5507,
      "Ġdetrital": 5508,
      "Ġobl": 5509,
      "ĠSpecies": 5510,
      "Ġmom": 5511,
      "Ġlipid": 5512,
      "Ġcovering": 5513,
      "Ġhea": 5514,
      "field": 5515,
      "Ġ210": 5516,
      "Ġfjord": 5517,
      "Ġlig": 5518,
      "Ġaffecting": 5519,
      "Ġbarrier": 5520,
      "Ġsin": 5521,
      "ĠJo": 5522,
      "Ġ1992": 5523,
      "Ġculture": 5524,
      "Ġanalytical": 5525,
      "ĠIntern": 5526,
      "Ġjuveniles": 5527,
      "ses": 5528,
      "Ġtides": 5529,
      "Ġ57": 5530,
      "Ġfilters": 5531,
      "Ġchamber": 5532,
      "Ġlob": 5533,
      "wan": 5534,
      "Ġturbulent": 5535,
      "Ġaccompanied": 5536,
      "ĠMass": 5537,
      "Ġsupports": 5538,
      "Ġchambers": 5539,
      "Ġbiotic": 5540,
      "ken": 5541,
      "Ġpositions": 5542,
      "di": 5543,
      "haline": 5544,
      "Ġextends": 5545,
      "Ġmesoscale": 5546,
      "Ġnor": 5547,
      "Ġillustrated": 5548,
      "Ġteph": 5549,
      "Ġ52": 5550,
      "OF": 5551,
      "ford": 5552,
      "Ġreasons": 5553,
      "hu": 5554,
      "Ġdried": 5555,
      "Ġdefine": 5556,
      "Ġ68": 5557,
      "Ġgray": 5558,
      "Ġtools": 5559,
      "Ġmodes": 5560,
      "Ġwhite": 5561,
      "relation": 5562,
      "ollen": 5563,
      "ĠLand": 5564,
      "plementary": 5565,
      "ococcus": 5566,
      "arvest": 5567,
      ").": 5568,
      "Ġscience": 5569,
      "edd": 5570,
      "ople": 5571,
      "Ġbivalve": 5572,
      "Ġcrop": 5573,
      "Ġglass": 5574,
      "Ġsilicic": 5575,
      "Ġreveals": 5576,
      "Ġcounter": 5577,
      "Ġeng": 5578,
      "Ġweb": 5579,
      "Ġvs": 5580,
      "Ġwhales": 5581,
      "Ġburrows": 5582,
      "ards": 5583,
      "Ġround": 5584,
      "ris": 5585,
      "Ġhydrod": 5586,
      "ĠAct": 5587,
      "Ġbasic": 5588,
      "Ġemployed": 5589,
      "ien": 5590,
      "orks": 5591,
      "ariate": 5592,
      "Ġbegan": 5593,
      "erve": 5594,
      "Ġdimens": 5595,
      "crib": 5596,
      "ss": 5597,
      "Ġgenes": 5598,
      "driven": 5599,
      "Ġ600": 5600,
      "chaet": 5601,
      "ĠGermany": 5602,
      "Ġrequirements": 5603,
      "Ġbay": 5604,
      "unc": 5605,
      "ermost": 5606,
      "bearing": 5607,
      "omagnetic": 5608,
      "Ġswim": 5609,
      "Ġonline": 5610,
      "iang": 5611,
      "Ġempirical": 5612,
      "versely": 5613,
      "embran": 5614,
      "rock": 5615,
      "Ġtracer": 5616,
      "Ġearliest": 5617,
      "Ġsubstantially": 5618,
      "inic": 5619,
      "Ġcomprehens": 5620,
      "Ġreasonable": 5621,
      "Ġconstraints": 5622,
      "Ġunconform": 5623,
      "Ġclassified": 5624,
      "ply": 5625,
      "ivation": 5626,
      "ĠRel": 5627,
      "Ġmodeled": 5628,
      "ormal": 5629,
      "Ġturnover": 5630,
      "Ġdamage": 5631,
      "Ġcommercial": 5632,
      "Ġlies": 5633,
      "Ġ51": 5634,
      "ĠUK": 5635,
      "Ġsubd": 5636,
      "polar": 5637,
      "Ġcare": 5638,
      "Ġzon": 5639,
      "lut": 5640,
      "ĠSand": 5641,
      "Ġlatitudinal": 5642,
      "ĠGlacier": 5643,
      "bas": 5644,
      "Ġshorter": 5645,
      "Ġuses": 5646,
      "riatic": 5647,
      "ĠGreat": 5648,
      "46": 5649,
      "Ġbuoyancy": 5650,
      "SL": 5651,
      "obic": 5652,
      "Ġreflecting": 5653,
      "ĠDev": 5654,
      "Ġelong": 5655,
      "apse": 5656,
      "Ġepisodes": 5657,
      "ĠSciences": 5658,
      "dimensional": 5659,
      "onge": 5660,
      "ME": 5661,
      "sch": 5662,
      "Ġ?": 5663,
      "ultural": 5664,
      "Ġhomogeneous": 5665,
      "Ġunderst": 5666,
      "Ġsystematic": 5667,
      "Ġcreated": 5668,
      "shelf": 5669,
      "ĠThalass": 5670,
      "Ġcoccoliths": 5671,
      "CS": 5672,
      "ĠDist": 5673,
      "Ġforming": 5674,
      "Ġidentical": 5675,
      "Ġpolicy": 5676,
      "Ġdistinguished": 5677,
      "Ġsteps": 5678,
      "ĠShelf": 5679,
      "erated": 5680,
      "Ġmeridional": 5681,
      "Ġattention": 5682,
      "47": 5683,
      "emat": 5684,
      "Ġchronology": 5685,
      "Ġconstrained": 5686,
      "38": 5687,
      "ĠBed": 5688,
      "acing": 5689,
      "dependent": 5690,
      "lob": 5691,
      "ĠHole": 5692,
      "Ġ49": 5693,
      "ertiary": 5694,
      "Ġmeg": 5695,
      "Ġtrop": 5696,
      "Ġfractionation": 5697,
      "Ġcorrected": 5698,
      "la": 5699,
      "Ġarag": 5700,
      "ĠDisc": 5701,
      "Ġsands": 5702,
      "aska": 5703,
      "www": 5704,
      "ĠResults": 5705,
      "ĠCA": 5706,
      "resent": 5707,
      "toplankton": 5708,
      "Ġgran": 5709,
      "Ġsimpl": 5710,
      "Ġdepletion": 5711,
      "Ġglaciation": 5712,
      "rary": 5713,
      "Ġlin": 5714,
      "Ġcloser": 5715,
      "Ġcum": 5716,
      "ami": 5717,
      "Ġtraject": 5718,
      "Ġattached": 5719,
      "slope": 5720,
      "Ġoyster": 5721,
      "Ġcomplic": 5722,
      "ĠMac": 5723,
      "iana": 5724,
      "Ġdesigned": 5725,
      "Ġinhib": 5726,
      "Ġensure": 5727,
      "Ġadapted": 5728,
      "Ġdiscrep": 5729,
      "65": 5730,
      "enthos": 5731,
      "Ġtheore": 5732,
      "Ġformations": 5733,
      "urnal": 5734,
      "Ġdiffusion": 5735,
      "Ġfamily": 5736,
      "Ġdistances": 5737,
      "CA": 5738,
      "Fe": 5739,
      "Ġsec": 5740,
      "Ġdepleted": 5741,
      "Ġconstructed": 5742,
      "top": 5743,
      "Ġaeolian": 5744,
      "onous": 5745,
      "anus": 5746,
      "isions": 5747,
      "Ġskeletal": 5748,
      "Ġ!": 5749,
      "ĠOverall": 5750,
      "icular": 5751,
      "Ġretrie": 5752,
      "mission": 5753,
      "ĠSk": 5754,
      "ĠArch": 5755,
      "afrost": 5756,
      "Ġvic": 5757,
      "ĠBul": 5758,
      "Ġmammals": 5759,
      "ĠUnited": 5760,
      "adden": 5761,
      "Ġrepresentation": 5762,
      "Ġnortheastern": 5763,
      "Ġacoustic": 5764,
      "mann": 5765,
      "ĠSR": 5766,
      "ĠStr": 5767,
      "ĠGeneral": 5768,
      "arents": 5769,
      "model": 5770,
      "Ġirradiance": 5771,
      "lastic": 5772,
      "Ġfert": 5773,
      "Ġadequ": 5774,
      "ĠGlacial": 5775,
      "Ġdescript": 5776,
      "ostrophic": 5777,
      "Ġcorrelate": 5778,
      "ĠEng": 5779,
      "va": 5780,
      "eddell": 5781,
      "Ġclusters": 5782,
      "Ġaccounted": 5783,
      "Ġmedian": 5784,
      "going": 5785,
      "ught": 5786,
      "Ġpresents": 5787,
      "Ġpathways": 5788,
      "Ġmoment": 5789,
      "Ġmussels": 5790,
      "Ġconvection": 5791,
      "ike": 5792,
      "Ġachieved": 5793,
      "Ġmollusc": 5794,
      "Ġcalled": 5795,
      "Ġbones": 5796,
      "opro": 5797,
      "osaur": 5798,
      "con": 5799,
      "ĠLO": 5800,
      "ophytes": 5801,
      "yssal": 5802,
      "ĠInternational": 5803,
      "unction": 5804,
      "mitted": 5805,
      "ĠAmong": 5806,
      "Ġeuphotic": 5807,
      "ĠHa": 5808,
      "Ġtaking": 5809,
      "Ġsaturation": 5810,
      "Ġfixation": 5811,
      "SM": 5812,
      "Ġefficient": 5813,
      "Ġwhale": 5814,
      "ĠNeogene": 5815,
      "vironment": 5816,
      "Ġaccumulated": 5817,
      "ĠLong": 5818,
      "Ġtreated": 5819,
      "rea": 5820,
      "ett": 5821,
      "Ġemissions": 5822,
      "ophysical": 5823,
      "Ġvect": 5824,
      "ĠNa": 5825,
      "ider": 5826,
      "icus": 5827,
      "zym": 5828,
      "Ġbeaches": 5829,
      "Ġherbiv": 5830,
      "max": 5831,
      "ias": 5832,
      "pose": 5833,
      "Ġlocality": 5834,
      "ĠNio": 5835,
      "Ġmetals": 5836,
      "Ġinfaunal": 5837,
      "Ġirregular": 5838,
      "bur": 5839,
      "ĠCany": 5840,
      "Ġdistal": 5841,
      "layer": 5842,
      "hick": 5843,
      "ĠSpain": 5844,
      "Ġpapers": 5845,
      "Ġregarded": 5846,
      "Ġextending": 5847,
      "Ġconfirm": 5848,
      "aled": 5849,
      "ĠPoly": 5850,
      "Ġlisted": 5851,
      "ĠCoastal": 5852,
      "hold": 5853,
      "rozen": 5854,
      "Ġbrackish": 5855,
      "Ġdim": 5856,
      "Ġsubstrates": 5857,
      "Ġconclusions": 5858,
      "fold": 5859,
      "aken": 5860,
      "Ġbeneath": 5861,
      "Ġsignicant": 5862,
      "At": 5863,
      "Ġcry": 5864,
      "ĠFl": 5865,
      "Ġsignature": 5866,
      "Ġexists": 5867,
      "ĠBarents": 5868,
      "que": 5869,
      "Ġmotion": 5870,
      "Ġnearshore": 5871,
      "Ġtrawl": 5872,
      "ĠNH": 5873,
      "ĠRo": 5874,
      "ĠSeas": 5875,
      "ĠPrevious": 5876,
      "Ġoscillations": 5877,
      "ĠEd": 5878,
      "Ġexpon": 5879,
      "cy": 5880,
      "Ġmovements": 5881,
      "hio": 5882,
      "ĠStates": 5883,
      "undred": 5884,
      "ĠAmaz": 5885,
      "ĠNon": 5886,
      "Ġvalves": 5887,
      "Ġ98": 5888,
      "Ġwavelength": 5889,
      "izations": 5890,
      "reen": 5891,
      "Ġcycling": 5892,
      "IT": 5893,
      "aring": 5894,
      "Ġthereby": 5895,
      "osphaera": 5896,
      "Ġbuff": 5897,
      "oclimate": 5898,
      "Ġforced": 5899,
      "ibet": 5900,
      "ebr": 5901,
      "sw": 5902,
      "Ġnight": 5903,
      "Ġundert": 5904,
      "Ġsolid": 5905,
      "Ġrarely": 5906,
      "Ġinterpretations": 5907,
      "Ġbottles": 5908,
      "ĠFrance": 5909,
      "ĠSant": 5910,
      "Ġstarting": 5911,
      "Ġash": 5912,
      "Ġcheck": 5913,
      "Ġmissing": 5914,
      "requency": 5915,
      "rite": 5916,
      "Ġadvantage": 5917,
      "Ġoxid": 5918,
      "Ġ99": 5919,
      "Ġreports": 5920,
      "Ġmelting": 5921,
      "oreal": 5922,
      "Ġharvest": 5923,
      "OT": 5924,
      "uted": 5925,
      "Ġanomalous": 5926,
      "orotal": 5927,
      "Ġcomposite": 5928,
      "Ġfavor": 5929,
      "Ġbrief": 5930,
      "etro": 5931,
      "estone": 5932,
      "iph": 5933,
      "Ġprecise": 5934,
      "Ġnic": 5935,
      "Ġstrategy": 5936,
      "Ġemb": 5937,
      "ignificant": 5938,
      "hood": 5939,
      "ĠPD": 5940,
      "ĠConc": 5941,
      "olated": 5942,
      "ĠYoun": 5943,
      "Ġancient": 5944,
      "Ġforaging": 5945,
      "ĠRuss": 5946,
      "Ġprecision": 5947,
      "Cs": 5948,
      "Ġturbidity": 5949,
      "ona": 5950,
      "Ġpra": 5951,
      "ĠAdriatic": 5952,
      "Ġelevations": 5953,
      "uvial": 5954,
      "ĠAustralian": 5955,
      "Ġsex": 5956,
      "Ġgenerate": 5957,
      "Ġorbital": 5958,
      "Ġcomprehensive": 5959,
      "ptions": 5960,
      "Ġinfer": 5961,
      "Ġproductive": 5962,
      "niv": 5963,
      "sum": 5964,
      "roph": 5965,
      "Ġrespective": 5966,
      "aya": 5967,
      "Ġridges": 5968,
      "ocation": 5969,
      "Ġsandstones": 5970,
      "Ġpermafrost": 5971,
      "ita": 5972,
      "Ġble": 5973,
      "Ġring": 5974,
      "itan": 5975,
      "Ġpyr": 5976,
      "ĠDOM": 5977,
      "ola": 5978,
      "ĠAP": 5979,
      "Ġ01": 5980,
      "Ġregular": 5981,
      "Ġ66": 5982,
      "flu": 5983,
      "reek": 5984,
      "Ġdigest": 5985,
      "Ġsimply": 5986,
      "ochth": 5987,
      "Ġseabed": 5988,
      "ĠCanyon": 5989,
      "uan": 5990,
      "Ġsi": 5991,
      "Ġcruc": 5992,
      "Ġreaction": 5993,
      "Ġmembran": 5994,
      "Ġhundred": 5995,
      "Ġopal": 5996,
      "ĠDIC": 5997,
      "the": 5998,
      "Ġbeh": 5999,
      "Ġmesh": 6000,
      "ĠCalc": 6001,
      "RIP": 6002,
      "ĠSiber": 6003,
      "ĠDry": 6004,
      "Ġlimiting": 6005,
      "ĠTer": 6006,
      "Ġsho": 6007,
      "wave": 6008,
      "Ġcontinent": 6009,
      "Ġagglut": 6010,
      "otope": 6011,
      "Ġoutl": 6012,
      "Ġsensing": 6013,
      "Ġconverted": 6014,
      "free": 6015,
      "Ġsplit": 6016,
      "Ġpatches": 6017,
      "Ġmicropl": 6018,
      "iding": 6019,
      "Ġerupt": 6020,
      "apped": 6021,
      "ura": 6022,
      "Ġdeployed": 6023,
      "ĠMaximum": 6024,
      "Ġrecomm": 6025,
      "ems": 6026,
      "Ġsuspension": 6027,
      "toral": 6028,
      "ollowing": 6029,
      "ĠIT": 6030,
      "ua": 6031,
      "ineral": 6032,
      "Ġacids": 6033,
      "Ġmarks": 6034,
      "ĠExt": 6035,
      "Ġservices": 6036,
      "erma": 6037,
      "Ġevaluation": 6038,
      "97": 6039,
      "ivariate": 6040,
      "rowth": 6041,
      "scatter": 6042,
      "ilst": 6043,
      "Ġrout": 6044,
      "Ġ125": 6045,
      "Ġruns": 6046,
      "SA": 6047,
      "awa": 6048,
      "ĠSCS": 6049,
      "iled": 6050,
      "oclimatic": 6051,
      "Ġmixture": 6052,
      "Ġisop": 6053,
      "ĠRE": 6054,
      "Ġamph": 6055,
      "Ġpolychaet": 6056,
      "ionally": 6057,
      "Ġunderestim": 6058,
      "Ġpan": 6059,
      "Ġcontempor": 6060,
      "Ġpollution": 6061,
      "Ġdownstream": 6062,
      "eren": 6063,
      "Ġnucle": 6064,
      "ĠBur": 6065,
      "Ġmorphotypes": 6066,
      "ĠIts": 6067,
      "Ġfrontal": 6068,
      "abilities": 6069,
      "Ġign": 6070,
      "Ġnever": 6071,
      "Ġwhy": 6072,
      "iling": 6073,
      "Ġsalinities": 6074,
      "ĠIberian": 6075,
      "Ġcharacterize": 6076,
      "ĠProgram": 6077,
      "Ġincreasingly": 6078,
      "Ġoverlap": 6079,
      "ĠBu": 6080,
      "ĠNum": 6081,
      "Ġsensor": 6082,
      "Ġdetritus": 6083,
      "ena": 6084,
      "Ġbull": 6085,
      "ints": 6086,
      "ĠObserv": 6087,
      "ĠFlorida": 6088,
      "group": 6089,
      "Ġbrachiopods": 6090,
      "Ġpartial": 6091,
      "Ġvaluable": 6092,
      "Ġbands": 6093,
      "uras": 6094,
      "Ġhol": 6095,
      "ota": 6096,
      "Ġdirections": 6097,
      "Ġcausing": 6098,
      "arian": 6099,
      "Ġalteration": 6100,
      "shaped": 6101,
      "aver": 6102,
      "ocer": 6103,
      "Ġsheets": 6104,
      "Ġsulph": 6105,
      "93": 6106,
      "Ġtu": 6107,
      "sized": 6108,
      "ĠType": 6109,
      "Ġinvertebrates": 6110,
      "Ġconfig": 6111,
      "Ġdefinition": 6112,
      "ĠCP": 6113,
      "Ġpress": 6114,
      "Ġseasonally": 6115,
      "Ġconversion": 6116,
      "04": 6117,
      "Ġlosses": 6118,
      "Ġprotection": 6119,
      "Ġcomprises": 6120,
      "ĠAnalysis": 6121,
      "oxide": 6122,
      "leyi": 6123,
      "cribed": 6124,
      "omanian": 6125,
      "Ġunderstood": 6126,
      "depth": 6127,
      "Ġfec": 6128,
      "Ġteeth": 6129,
      "Ġadaptation": 6130,
      "Ġcontamination": 6131,
      "orphic": 6132,
      "Ġsn": 6133,
      "Ġassumptions": 6134,
      "Ġvicinity": 6135,
      "Ġplateau": 6136,
      "Ġpole": 6137,
      "Ġ05": 6138,
      "Ġinitially": 6139,
      "Ġsynchron": 6140,
      "Ġsignatures": 6141,
      "roshio": 6142,
      "Ġdeveloping": 6143,
      "Ġimply": 6144,
      "Ġopening": 6145,
      "Ġprediction": 6146,
      "Ġfaults": 6147,
      "coal": 6148,
      "idium": 6149,
      "Ġvar": 6150,
      "ĠAlaska": 6151,
      "Ġwestward": 6152,
      "ĠGCM": 6153,
      "Ġdiagn": 6154,
      "ĠSl": 6155,
      "Ġprojected": 6156,
      "ycn": 6157,
      "Ġdisplayed": 6158,
      "Ġprepared": 6159,
      "ĠTP": 6160,
      "ĠSSTs": 6161,
      "Ġostracod": 6162,
      "ĠGra": 6163,
      "ĠCL": 6164,
      "chlor": 6165,
      "Ġbodies": 6166,
      "Ġostracods": 6167,
      "eding": 6168,
      "Ġacidification": 6169,
      "ountered": 6170,
      "amental": 6171,
      "emic": 6172,
      "Ġcompens": 6173,
      "aceans": 6174,
      "Ġessentially": 6175,
      "Ġsymbion": 6176,
      "osis": 6177,
      "Ġreplaced": 6178,
      "Ġencountered": 6179,
      "ca": 6180,
      "Ġ1991": 6181,
      "Ġphenomenon": 6182,
      "Ġdinocyst": 6183,
      "anner": 6184,
      "ĠProv": 6185,
      "series": 6186,
      "Ġanticycl": 6187,
      "Ġcolder": 6188,
      "Ġtrough": 6189,
      "Ġresusp": 6190,
      "Ġkind": 6191,
      "Ġtrigg": 6192,
      "ĠMan": 6193,
      "Ġarchae": 6194,
      "ĠWeddell": 6195,
      "Ġdy": 6196,
      "ĠTr": 6197,
      "Ġenzym": 6198,
      "Ġexhibits": 6199,
      "iffiffiffiffiffiffiffiff": 6200,
      "ochthonous": 6201,
      "Ġaction": 6202,
      "Ġdiscrete": 6203,
      "Ġfilled": 6204,
      "Ġhux": 6205,
      "Ġsummary": 6206,
      "ections": 6207,
      "Ġrising": 6208,
      "Ġbelt": 6209,
      "Ġworks": 6210,
      "ĠKuroshio": 6211,
      "ĠCy": 6212,
      "Ġarr": 6213,
      "Ġnormalized": 6214,
      "tropical": 6215,
      "Ġoccupied": 6216,
      "Ġtransgression": 6217,
      "Ġemission": 6218,
      "Ġorientation": 6219,
      "Ġcongl": 6220,
      "ĠBrit": 6221,
      "hydro": 6222,
      "ĠBank": 6223,
      "Ġcoasts": 6224,
      "urian": 6225,
      "Ġhold": 6226,
      "urning": 6227,
      "Ġsapropel": 6228,
      "Ġrefer": 6229,
      "Ġdependence": 6230,
      "Ġseamount": 6231,
      "Ġtrade": 6232,
      "Ġwester": 6233,
      "Ġpurpose": 6234,
      "Ġdeformation": 6235,
      "Ġclimat": 6236,
      "Ġvessels": 6237,
      "Ġfat": 6238,
      "Ġaltered": 6239,
      "ĠPal": 6240,
      "sen": 6241,
      "then": 6242,
      "omb": 6243,
      "Ġcoars": 6244,
      "prising": 6245,
      "Ġflooding": 6246,
      "orad": 6247,
      "Ġ110": 6248,
      "Ġleg": 6249,
      "Ġdeglac": 6250,
      "ĠReef": 6251,
      "na": 6252,
      "Ġ1960": 6253,
      "Ġexplicit": 6254,
      "Ġity": 6255,
      "Ġalkal": 6256,
      "AE": 6257,
      "Ġaltitude": 6258,
      "Ġtakes": 6259,
      "Ġfronts": 6260,
      "Ġcyclonic": 6261,
      "ĠCir": 6262,
      "ĠDec": 6263,
      "Ġnecessarily": 6264,
      "rench": 6265,
      "Ġdecade": 6266,
      "Ġconclude": 6267,
      "Ġbiota": 6268,
      "ecting": 6269,
      "Ġintegr": 6270,
      "rophy": 6271,
      "Ġvertebr": 6272,
      "Ġcement": 6273,
      "opelagic": 6274,
      "ĠEk": 6275,
      "Ġassign": 6276,
      "Ġpolarity": 6277,
      "elihood": 6278,
      "Ġlost": 6279,
      "Ġinstrument": 6280,
      "Ġsa": 6281,
      "lement": 6282,
      "Ġkrill": 6283,
      "ligible": 6284,
      "Ġmeters": 6285,
      "Ġelim": 6286,
      "Ġ64": 6287,
      "ords": 6288,
      "Ġcalcium": 6289,
      "Ġdriving": 6290,
      "ĠBeng": 6291,
      "ott": 6292,
      "ops": 6293,
      "Ġinform": 6294,
      "Ġjo": 6295,
      "Ġscientists": 6296,
      "olites": 6297,
      "Ġspeeds": 6298,
      "Ġagricultural": 6299,
      "mass": 6300,
      "Ġprepar": 6301,
      "ĠAlps": 6302,
      "Ġcumulative": 6303,
      "orld": 6304,
      "Ġput": 6305,
      "aculture": 6306,
      "Ġmaintained": 6307,
      "fossils": 6308,
      "Ġhuxleyi": 6309,
      "ĠEp": 6310,
      "Ġoptimal": 6311,
      "Ġcopepod": 6312,
      "ilic": 6313,
      "apes": 6314,
      "Ġindication": 6315,
      "Ġpersp": 6316,
      "Ġbathymetry": 6317,
      "],": 6318,
      "cor": 6319,
      "Ġdun": 6320,
      "Ġindeed": 6321,
      "Ġfairly": 6322,
      "Ġhydrocarbon": 6323,
      "Ġseparately": 6324,
      "Ġhumidity": 6325,
      "CH": 6326,
      "Ġstatistics": 6327,
      "Ġcoincides": 6328,
      "ĠNot": 6329,
      "Ġspecifically": 6330,
      "Ġsensors": 6331,
      "Ġdiagenesis": 6332,
      "Ġfire": 6333,
      "ĠCer": 6334,
      "Ġcoastline": 6335,
      "Ġmoving": 6336,
      "Ġplain": 6337,
      "TU": 6338,
      "Ġconnection": 6339,
      "Ġmaintain": 6340,
      "section": 6341,
      "etry": 6342,
      "ĠAge": 6343,
      "Ġchain": 6344,
      "Ġrealistic": 6345,
      "rup": 6346,
      "ĠPrec": 6347,
      "king": 6348,
      "Ġnational": 6349,
      "Ġdiscrim": 6350,
      "Ġtecton": 6351,
      "Ġdecadal": 6352,
      "ĠSD": 6353,
      "Ġdecision": 6354,
      "SP": 6355,
      "rador": 6356,
      "500": 6357,
      "Ġthank": 6358,
      "Ġconsisting": 6359,
      "Ġimprov": 6360,
      "Ġobjective": 6361,
      "bottom": 6362,
      "arks": 6363,
      "ulata": 6364,
      "Ġfrozen": 6365,
      "Ġcontinuously": 6366,
      "ĠBol": 6367,
      "Ġpeople": 6368,
      ",,": 6369,
      "Ġmammal": 6370,
      "ĠMess": 6371,
      "Ġregul": 6372,
      "Ġconsideration": 6373,
      "Ġmollus": 6374,
      "imately": 6375,
      "ĠBer": 6376,
      "Ġcome": 6377,
      "TP": 6378,
      "07": 6379,
      "Ġpresumably": 6380,
      "su": 6381,
      "iceous": 6382,
      "Ġforecast": 6383,
      "ĠPe": 6384,
      "Ġshrim": 6385,
      "Ġstanding": 6386,
      "Ġbackscatter": 6387,
      "Ġangle": 6388,
      "ĠFour": 6389,
      "Ġpreced": 6390,
      "ethyan": 6391,
      "Ġwider": 6392,
      "Ġprotoc": 6393,
      "ĠTibet": 6394,
      "Ġpositively": 6395,
      "Ġten": 6396,
      "Ġreworked": 6397,
      "Ġsch": 6398,
      "Ġ105": 6399,
      "Ġcharcoal": 6400,
      "Ġchoice": 6401,
      "Ġpond": 6402,
      "Ġadvance": 6403,
      "Ġown": 6404,
      "43": 6405,
      "rs": 6406,
      "Ġplaces": 6407,
      "Ġobservational": 6408,
      "Ġconstitut": 6409,
      "Ġartific": 6410,
      "Ġplatforms": 6411,
      "49": 6412,
      "ortunately": 6413,
      "63": 6414,
      "nes": 6415,
      "Ġsouthwestern": 6416,
      "ennial": 6417,
      "OW": 6418,
      "ria": 6419,
      "Ġ1950": 6420,
      "Ġpaleocean": 6421,
      "Ġcatches": 6422,
      "frequency": 6423,
      "oted": 6424,
      "ESS": 6425,
      "jection": 6426,
      "Ġforaminifer": 6427,
      "iel": 6428,
      "ĠFisher": 6429,
      "hole": 6430,
      "ĠWadden": 6431,
      "Ġsubmarine": 6432,
      "Ġscores": 6433,
      "ĠSv": 6434,
      "eller": 6435,
      "LC": 6436,
      "ĠIncreas": 6437,
      "Pb": 6438,
      "Ġerod": 6439,
      "mat": 6440,
      "olin": 6441,
      "ilies": 6442,
      "ĠCorrespond": 6443,
      "Ġcoupling": 6444,
      "Ġpachyd": 6445,
      "Ġnurs": 6446,
      "Ġcompetition": 6447,
      "ĠEU": 6448,
      "Ġpure": 6449,
      "Ġentirely": 6450,
      "Ġshelves": 6451,
      "Ġways": 6452,
      "Ġprecipit": 6453,
      "Ġstraight": 6454,
      "icial": 6455,
      "ogram": 6456,
      "Ġsulfate": 6457,
      "ĠCM": 6458,
      "Ġpredator": 6459,
      "Ġfundamental": 6460,
      "ĠLi": 6461,
      "Ġupstream": 6462,
      "Ġpermanent": 6463,
      "Ġcam": 6464,
      "Ġpor": 6465,
      "Ġstim": 6466,
      "ĠHig": 6467,
      "Ġconstruction": 6468,
      "Ġfaster": 6469,
      "Ġnegligible": 6470,
      "Ġtraditional": 6471,
      "urity": 6472,
      "Ġweaker": 6473,
      "Ġtransformation": 6474,
      "Ġdilution": 6475,
      "isf": 6476,
      "asp": 6477,
      "ĠTemperature": 6478,
      "Ġresearc": 6479,
      "Ġminimal": 6480,
      "Ġspan": 6481,
      "Ġded": 6482,
      "Ġmant": 6483,
      "Ġvan": 6484,
      "Ġvalve": 6485,
      "hol": 6486,
      "Ġpol": 6487,
      "Ġbelonging": 6488,
      "Ġrank": 6489,
      "Ġaggregates": 6490,
      "alline": 6491,
      "Ġquick": 6492,
      "aren": 6493,
      "Ġbulloides": 6494,
      "ĠFollowing": 6495,
      "Ġlimitations": 6496,
      "Ġpreferent": 6497,
      "ĠDevonian": 6498,
      "Ġintegration": 6499,
      "Ġsilicate": 6500,
      "Ġcyanobacteria": 6501,
      "Ġincorporated": 6502,
      "Ġmooring": 6503,
      "ohaline": 6504,
      "ĠMAN": 6505,
      "Ġagglutinated": 6506,
      "ades": 6507,
      "Ġdrivers": 6508,
      "cont": 6509,
      "rend": 6510,
      "osing": 6511,
      "Ġclasts": 6512,
      "Ġoutflow": 6513,
      "Ġvertically": 6514,
      "Ġassessments": 6515,
      "Holocene": 6516,
      "Ġstabil": 6517,
      "Ġapply": 6518,
      "Ġparticip": 6519,
      "Ġclimates": 6520,
      "lear": 6521,
      "Ġproducing": 6522,
      "Ġ72": 6523,
      "ava": 6524,
      "Ġdownward": 6525,
      "Ġapplications": 6526,
      "Ġeutrophication": 6527,
      "Ġinflux": 6528,
      "ĠHydro": 6529,
      "Ġdune": 6530,
      "ĠSyn": 6531,
      "ĠMult": 6532,
      "ĠGy": 6533,
      "rical": 6534,
      "ustatic": 6535,
      "Ġconsequently": 6536,
      "Ġstake": 6537,
      "Ġmudstone": 6538,
      "AA": 6539,
      "Ġpublication": 6540,
      "Ġtransitional": 6541,
      "Ġaccepted": 6542,
      "iro": 6543,
      "Ġfer": 6544,
      "Ġ97": 6545,
      "Ġdemand": 6546,
      "ĠIr": 6547,
      "Ġunus": 6548,
      "reserv": 6549,
      "Ġhomogen": 6550,
      "posed": 6551,
      "ĠPass": 6552,
      "urban": 6553,
      "Ġdissipation": 6554,
      "Ġsummarized": 6555,
      "42": 6556,
      "Ġresidence": 6557,
      "size": 6558,
      "Ġarran": 6559,
      "ĠArgent": 6560,
      "Ġia": 6561,
      "Ġremineral": 6562,
      "Ġbathymetric": 6563,
      "Ġpreval": 6564,
      "Ġmeltwater": 6565,
      "Ġhiatus": 6566,
      "Ġexperience": 6567,
      "Ġ59": 6568,
      "ipelag": 6569,
      "Ġdifferential": 6570,
      "Ġdouble": 6571,
      "Ġdivergence": 6572,
      "ĠSample": 6573,
      "ĠSupplementary": 6574,
      "Ġster": 6575,
      "ĠLarge": 6576,
      "Ġ000": 6577,
      "Ġspin": 6578,
      "Ġscaling": 6579,
      "Ġlook": 6580,
      "board": 6581,
      "asure": 6582,
      "ĠNeog": 6583,
      "ĠForaminif": 6584,
      "Ġbioturbation": 6585,
      "Ġprocessed": 6586,
      "Ġtephra": 6587,
      "ĠBC": 6588,
      "Ġcultures": 6589,
      "Ġproximity": 6590,
      "Ġspreading": 6591,
      "Ġvessel": 6592,
      "Ġpaleosols": 6593,
      "Ġtable": 6594,
      "ĠLast": 6595,
      "ellular": 6596,
      "Ġcaptured": 6597,
      "Ġago": 6598,
      "Ġgreenhouse": 6599,
      "athe": 6600,
      "Ġabyssal": 6601,
      "Ġgrounds": 6602,
      "OVA": 6603,
      "Ġweeks": 6604,
      "41": 6605,
      "Ġcovers": 6606,
      "Ġcreate": 6607,
      "ĠGF": 6608,
      "Ġmesoc": 6609,
      "Ġ61": 6610,
      "Ġenerg": 6611,
      "Ġtendency": 6612,
      "Ġelemental": 6613,
      "Ġdrill": 6614,
      "Ġstandards": 6615,
      "Ġinterf": 6616,
      "USC": 6617,
      "Ġscar": 6618,
      "liminary": 6619,
      "Ġcrucial": 6620,
      "Ġactually": 6621,
      "Ġinverse": 6622,
      "Ġbring": 6623,
      "TED": 6624,
      "bi": 6625,
      "Ġdisplacement": 6626,
      "ĠSound": 6627,
      "Ġfoot": 6628,
      "Ġcontinue": 6629,
      "rect": 6630,
      "ĠEuras": 6631,
      "aro": 6632,
      "atorial": 6633,
      "Ġinu": 6634,
      "ĠGeological": 6635,
      "Ġsun": 6636,
      "Ġsimilarities": 6637,
      "ĠAmazon": 6638,
      "AC": 6639,
      "ho": 6640,
      "ĠSum": 6641,
      "Ġexclusively": 6642,
      "ĠStudies": 6643,
      "Ġblocks": 6644,
      "For": 6645,
      "Ġnd": 6646,
      "Ġdeb": 6647,
      "Ġincre": 6648,
      "Ġvalidation": 6649,
      "VI": 6650,
      "ky": 6651,
      "Ġexponential": 6652,
      "Ġpict": 6653,
      "omple": 6654,
      "Ġprotected": 6655,
      "89": 6656,
      "Si": 6657,
      "Ġdegrad": 6658,
      "ĠAB": 6659,
      "ĠFm": 6660,
      "Ġ106": 6661,
      "Ġdeployment": 6662,
      "Ġconnectivity": 6663,
      "ĠAz": 6664,
      "ĠNi": 6665,
      "Ġoffset": 6666,
      "piration": 6667,
      "Ġsupporting": 6668,
      "Ġideal": 6669,
      "ĠCop": 6670,
      "iller": 6671,
      "ĠGr": 6672,
      "Ġdeglaciation": 6673,
      "Ġbiomark": 6674,
      "Ġtracks": 6675,
      "Ġcentr": 6676,
      "culation": 6677,
      "Ġmatch": 6678,
      "Ġvolumes": 6679,
      "Ġexplore": 6680,
      "Ġpersistent": 6681,
      "ĠOrgan": 6682,
      "nian": 6683,
      "RIPT": 6684,
      "Ġcontributing": 6685,
      "ographs": 6686,
      "ĠValley": 6687,
      "Ġrhy": 6688,
      "Ġbasement": 6689,
      "Ġaquaculture": 6690,
      "Ġflowing": 6691,
      "attered": 6692,
      "Ġadults": 6693,
      "ĠFO": 6694,
      "itatively": 6695,
      "ĠGond": 6696,
      "Ġmarls": 6697,
      "Ġtheoretical": 6698,
      "agnet": 6699,
      "Ġsound": 6700,
      "arid": 6701,
      "Ġmember": 6702,
      "Ġevid": 6703,
      "ductivity": 6704,
      "Ġux": 6705,
      "DNA": 6706,
      "ĠCarp": 6707,
      "Ġcovari": 6708,
      "Ġmetabolism": 6709,
      "ĠGL": 6710,
      "Ġdiscontin": 6711,
      "CEPTED": 6712,
      "ĠMANUSC": 6713,
      "ĠMANUSCRIPT": 6714,
      "mean": 6715,
      "Ġboreal": 6716,
      "05": 6717,
      "Ġea": 6718,
      "Ġner": 6719,
      "vey": 6720,
      "Ġgrouped": 6721,
      "ĠACCEPTED": 6722,
      "Ġquantity": 6723,
      "iscus": 6724,
      "Ġtransferred": 6725,
      "ĠMesozoic": 6726,
      "77": 6727,
      "Ġquantities": 6728,
      "Ġlowermost": 6729,
      "Ġcollapse": 6730,
      "Ġ$": 6731,
      "Ġconvent": 6732,
      "Ġont": 6733,
      "Ġppm": 6734,
      "Ġproven": 6735,
      "Ġmethodology": 6736,
      "bsf": 6737,
      "Ġcave": 6738,
      "Ġepif": 6739,
      "ĠLA": 6740,
      "Ġinclus": 6741,
      "Ġpropagation": 6742,
      "Ġtaphonomic": 6743,
      "Marine": 6744,
      "part": 6745,
      "Ġinhabit": 6746,
      "ble": 6747,
      "ĠOC": 6748,
      "Ġtraits": 6749,
      "Ġinvent": 6750,
      "Ġdeviations": 6751,
      "ĠDen": 6752,
      "ĠHu": 6753,
      "Ġorganism": 6754,
      "Ġaragonite": 6755,
      "Ġextrap": 6756,
      "Ġpointed": 6757,
      "ba": 6758,
      "ato": 6759,
      "92": 6760,
      "Ġlago": 6761,
      "Ġtimescales": 6762,
      "fortunately": 6763,
      "Ġpy": 6764,
      "Ġensemble": 6765,
      "faunal": 6766,
      "ĠCr": 6767,
      "Ġsedimentological": 6768,
      "lla": 6769,
      "Ġobserve": 6770,
      "Ġforce": 6771,
      "ĠMy": 6772,
      "Ġbarocl": 6773,
      "Ġoverlain": 6774,
      "Ġlaminae": 6775,
      "rees": 6776,
      "Ġpix": 6777,
      "adian": 6778,
      "Ġgeostrophic": 6779,
      "Ġerosional": 6780,
      "Ġgastropods": 6781,
      "An": 6782,
      "Ġaccord": 6783,
      "ĠPortug": 6784,
      "ĠEr": 6785,
      "Ġfus": 6786,
      "pling": 6787,
      "ĠWhat": 6788,
      "Ġnannofossils": 6789,
      "Ġtube": 6790,
      "Ġurban": 6791,
      "ĠRise": 6792,
      "Ġcomprised": 6793,
      "ĠTrough": 6794,
      "Ġharm": 6795,
      "eck": 6796,
      "Ġtrunc": 6797,
      "Ġproximal": 6798,
      "Ġsubtidal": 6799,
      "ĠCenter": 6800,
      "Ġpachyderma": 6801,
      "Ġtrain": 6802,
      "Ġechin": 6803,
      "To": 6804,
      "ĠTethys": 6805,
      "Ġcarry": 6806,
      "ĠCenomanian": 6807,
      "Ġexpanded": 6808,
      "MP": 6809,
      "Ġfinding": 6810,
      "Ġ800": 6811,
      "Ġpartition": 6812,
      "Ġproportional": 6813,
      "Ġ700": 6814,
      "Ġtubes": 6815,
      "Ġdiffered": 6816,
      "Ġattenu": 6817,
      "Ġbranch": 6818,
      "Ġterrace": 6819,
      "Ġbiocl": 6820,
      "Ġjet": 6821,
      "EP": 6822,
      "asm": 6823,
      "Ġcher": 6824,
      "ĠNB": 6825,
      "emporal": 6826,
      "Ġturtles": 6827,
      "ĠThen": 6828,
      "Ġalluvial": 6829,
      "ontological": 6830,
      "Ġtransgressive": 6831,
      "ĠCambrian": 6832,
      "Ġmmol": 6833,
      "Ġadopted": 6834,
      "Ġbaseline": 6835,
      "Ġquantified": 6836,
      "ostic": 6837,
      "Ġaverages": 6838,
      "Ġaffects": 6839,
      "Ġnine": 6840,
      "Ġyellow": 6841,
      "Ġrelief": 6842,
      "Ġworldwide": 6843,
      "Ġfamilies": 6844,
      "Ġnemat": 6845,
      "SI": 6846,
      "ĠDO": 6847,
      "Ġmineralog": 6848,
      "Ġfeeders": 6849,
      "Ġmeet": 6850,
      "Ġ62": 6851,
      "Ġdeepest": 6852,
      "Ġmapping": 6853,
      "Ġmeasuring": 6854,
      "Ġburied": 6855,
      "Ġsquare": 6856,
      "Ġles": 6857,
      "ryozo": 6858,
      "Ġram": 6859,
      "ilis": 6860,
      "Ġfloods": 6861,
      "Ġprojections": 6862,
      "Ġ76": 6863,
      "oni": 6864,
      "Ġintra": 6865,
      "Ġapprox": 6866,
      "Ġaveraging": 6867,
      "Ġaccounts": 6868,
      "Ġ78": 6869,
      "Ġconsisted": 6870,
      "ipped": 6871,
      "Ġhemisphere": 6872,
      "Ġtoxic": 6873,
      "Ġserve": 6874,
      "Ġindu": 6875,
      "sup": 6876,
      "Ġinland": 6877,
      "Ġovert": 6878,
      "Ġsimulate": 6879,
      "ycnal": 6880,
      "orotalia": 6881,
      "Ġdecomposition": 6882,
      "uz": 6883,
      "rence": 6884,
      "Ġspong": 6885,
      "Ġaccurately": 6886,
      "ĠAnn": 6887,
      "otropic": 6888,
      "ĠTertiary": 6889,
      "ĠSB": 6890,
      "ĠPCR": 6891,
      "ĠGo": 6892,
      "ĠState": 6893,
      "Ġsuccessions": 6894,
      "Ġprocedures": 6895,
      "Ġidea": 6896,
      "Ġplus": 6897,
      "Ġautom": 6898,
      "ochron": 6899,
      "oecological": 6900,
      "ĠEkman": 6901,
      "bach": 6902,
      "wa": 6903,
      "Ġren": 6904,
      "Ġexisted": 6905,
      "ĠMessinian": 6906,
      "Ġsurprising": 6907,
      "ĠAO": 6908,
      "Ġintercal": 6909,
      "Ġpalynological": 6910,
      "Ġsense": 6911,
      "Ġconstitu": 6912,
      "cript": 6913,
      "iral": 6914,
      "exist": 6915,
      "Ġirrig": 6916,
      "ĠPlanetary": 6917,
      "orb": 6918,
      "ĠLaboratory": 6919,
      "Ġresembl": 6920,
      "Ġ1500": 6921,
      "Ġcircum": 6922,
      "Ġreceived": 6923,
      "ilian": 6924,
      "Ġkept": 6925,
      "RS": 6926,
      "arbo": 6927,
      "Ġprogressive": 6928,
      "Ġdistinctive": 6929,
      "trans": 6930,
      "Ġmove": 6931,
      "emn": 6932,
      "Ġsuccessfully": 6933,
      "illi": 6934,
      "ĠLabrador": 6935,
      "Ġtwice": 6936,
      "point": 6937,
      "ishing": 6938,
      "ĠDin": 6939,
      "Ġpurpos": 6940,
      "Ġliqu": 6941,
      "Ġimag": 6942,
      "Ġmomentum": 6943,
      "55": 6944,
      "arg": 6945,
      "ĠRadi": 6946,
      "Ġvirt": 6947,
      "Ġtissues": 6948,
      "Ġcolony": 6949,
      "glish": 6950,
      "Ġbenefits": 6951,
      "Ġ88": 6952,
      "Ġsponge": 6953,
      "Ġrecognised": 6954,
      "ĠGerman": 6955,
      "Ġom": 6956,
      "auge": 6957,
      "PC": 6958,
      "vily": 6959,
      "Ġmeaning": 6960,
      "tenance": 6961,
      "Ġ234": 6962,
      "ompass": 6963,
      "Ġdisplays": 6964,
      "Ġ).": 6965,
      "heres": 6966,
      "Ġbars": 6967,
      "rack": 6968,
      "Ġnamely": 6969,
      "Ġgear": 6970,
      "Ġfed": 6971,
      "Ġposter": 6972,
      "Ġrh": 6973,
      "ipelago": 6974,
      "Ġresearchers": 6975,
      "ĠtheM": 6976,
      "Ġsole": 6977,
      "Ġextremes": 6978,
      "Ġhydrodynamic": 6979,
      "ĠWhe": 6980,
      "ĠThat": 6981,
      "Ġintrus": 6982,
      "Ġyoung": 6983,
      "esides": 6984,
      "umin": 6985,
      "Ġunst": 6986,
      "Ġsilty": 6987,
      "ĠOTU": 6988,
      "asonal": 6989,
      "Ġvirus": 6990,
      "Ġdeclined": 6991,
      "itrification": 6992,
      "eri": 6993,
      "itch": 6994,
      "Ġresolved": 6995,
      "ĠEnglish": 6996,
      "Ġmetam": 6997,
      "Ġcounting": 6998,
      "analysis": 6999,
      "Ġhyper": 7000,
      "oxygen": 7001,
      "idinium": 7002,
      "ĠSL": 7003,
      "ogenesis": 7004,
      "Ġbaroclinic": 7005,
      "Ġwatershed": 7006,
      "Ġcapable": 7007,
      "Ġestablishment": 7008,
      "Ġglobally": 7009,
      "Ġdrier": 7010,
      "forms": 7011,
      "Ġinsights": 7012,
      "Ġng": 7013,
      "Ġgap": 7014,
      "Ġphosphorus": 7015,
      "nch": 7016,
      "aded": 7017,
      "Ġvisc": 7018,
      "Ġheavily": 7019,
      "Ġsud": 7020,
      "rics": 7021,
      "ylind": 7022,
      "ĠNPP": 7023,
      "DE": 7024,
      "Ġwrit": 7025,
      "Ġfric": 7026,
      "may": 7027,
      "iddle": 7028,
      "dated": 7029,
      "Ġstratigraph": 7030,
      "Ġfavour": 7031,
      "Ġimplemented": 7032,
      "Ġneigh": 7033,
      "Ġmantle": 7034,
      "Ġzo": 7035,
      "Ġagree": 7036,
      "Ġnonlinear": 7037,
      "fully": 7038,
      "stein": 7039,
      "Ġsimultaneously": 7040,
      "FS": 7041,
      "Ġmuddy": 7042,
      "ilization": 7043,
      "Ġnormally": 7044,
      "Ġpreference": 7045,
      "ĠComparison": 7046,
      "),": 7047,
      "know": 7048,
      "itution": 7049,
      "ĠSSS": 7050,
      "Ġpurposes": 7051,
      "Ġaspect": 7052,
      "iable": 7053,
      "ĠTA": 7054,
      "Ġdiam": 7055,
      "Ġapplying": 7056,
      "Ġcomprise": 7057,
      "mo": 7058,
      "Ġencompass": 7059,
      "Ġpreparation": 7060,
      "TIC": 7061,
      "orsal": 7062,
      "Ġinstability": 7063,
      "Ġbleaching": 7064,
      "ĠUV": 7065,
      "Ġpreferences": 7066,
      "action": 7067,
      "bles": 7068,
      "iformis": 7069,
      "Ġconcerning": 7070,
      "Ġfr": 7071,
      "Ġpathway": 7072,
      "Ġmarker": 7073,
      "Ġscarce": 7074,
      "Ġvolcano": 7075,
      "ontinental": 7076,
      "Ġpressures": 7077,
      "Ġruber": 7078,
      "Ġobliqu": 7079,
      "ek": 7080,
      "Ġdemonstrates": 7081,
      "Ġproteins": 7082,
      "ĠSmall": 7083,
      "Ġaustral": 7084,
      "rote": 7085,
      "Ġflora": 7086,
      "Ġdelay": 7087,
      "Ġartificial": 7088,
      "ifera": 7089,
      "Ġ09": 7090,
      "ĠFigs": 7091,
      "83": 7092,
      "mes": 7093,
      "Ġriverine": 7094,
      "Ġspectrometer": 7095,
      "ĠTa": 7096,
      "Ġotherwise": 7097,
      "Ġredox": 7098,
      "Ġprevailing": 7099,
      "ĠCI": 7100,
      "Ġclastic": 7101,
      "Ġstomach": 7102,
      "atite": 7103,
      "Ġstrongest": 7104,
      "Ġinterpolation": 7105,
      "Ġfishers": 7106,
      "Ġpigments": 7107,
      "ixed": 7108,
      "ĠProject": 7109,
      "Ġdeliver": 7110,
      "Ġstrengthen": 7111,
      "Ġobjectives": 7112,
      "Ġinvas": 7113,
      "Ġheterogeneity": 7114,
      "SE": 7115,
      "ĠGP": 7116,
      "Ġexcell": 7117,
      "Ġmead": 7118,
      "Ġqualitative": 7119,
      "oqu": 7120,
      "ĠPO": 7121,
      "Ġflank": 7122,
      "Ġ73": 7123,
      "Ġaddressed": 7124,
      "Ġbig": 7125,
      "Ġgaps": 7126,
      "ĠPB": 7127,
      "periment": 7128,
      "ads": 7129,
      "Ġsectors": 7130,
      "Ġcategory": 7131,
      "Ġnodules": 7132,
      "adial": 7133,
      "Ġundertaken": 7134,
      "roch": 7135,
      "Ġpaleoenvironmental": 7136,
      "ĠVert": 7137,
      "Ġsiliceous": 7138,
      "Ġnewly": 7139,
      "Ġpalynomorph": 7140,
      "agement": 7141,
      "Ġsimilarly": 7142,
      "Ġclimatology": 7143,
      "Ġfitted": 7144,
      "ĠTime": 7145,
      "Ġ86": 7146,
      "Ġsparse": 7147,
      "Ġcomplement": 7148,
      "enge": 7149,
      "ceived": 7150,
      "Ġdimin": 7151,
      "ading": 7152,
      "Ġacknow": 7153,
      "interglacial": 7154,
      "ensus": 7155,
      "Ġwebs": 7156,
      "olid": 7157,
      "ĠFram": 7158,
      "Ġ77": 7159,
      "ĠAnaly": 7160,
      "ĠChar": 7161,
      "Ġ3000": 7162,
      "ologists": 7163,
      "Ġsegment": 7164,
      "Ġoutcrops": 7165,
      "Ġdiffers": 7166,
      "Ġweek": 7167,
      "Ġrings": 7168,
      "Ġsuccessive": 7169,
      "Ġexamination": 7170,
      "Ġtsun": 7171,
      "Ġammonium": 7172,
      "Ġproduces": 7173,
      "Ġextant": 7174,
      "Ġcaught": 7175,
      "Ġmeand": 7176,
      "Ġconvergence": 7177,
      "ĠYang": 7178,
      "orne": 7179,
      "Ġsides": 7180,
      "aveng": 7181,
      "Ġtraces": 7182,
      "cos": 7183,
      "ĠChile": 7184,
      "Ġencrust": 7185,
      "ĠTechn": 7186,
      "ĠMag": 7187,
      "ĠDepth": 7188,
      "Ġtransports": 7189,
      "Ġaltimet": 7190,
      "Ġpyrite": 7191,
      "Ġdunes": 7192,
      "erately": 7193,
      "Ġscattered": 7194,
      "Ġincorporation": 7195,
      "uls": 7196,
      "Ġforward": 7197,
      "ĠVan": 7198,
      "ĠOMZ": 7199,
      "inella": 7200,
      "istant": 7201,
      "Ġtransformed": 7202,
      "ounder": 7203,
      "Ġschemes": 7204,
      "Ġcf": 7205,
      "ĠPOM": 7206,
      "ĠLit": 7207,
      "ĠParat": 7208,
      "Ġnursery": 7209,
      "Ġtent": 7210,
      "ĠPlate": 7211,
      "Ġtends": 7212,
      "Ġdispersion": 7213,
      "Ġfan": 7214,
      "leys": 7215,
      "Ġseaward": 7216,
      "Ġachieve": 7217,
      "aice": 7218,
      "Ġing": 7219,
      "Ġsubduction": 7220,
      "Ġtag": 7221,
      "oma": 7222,
      "Ġunclear": 7223,
      "Ġsynthesis": 7224,
      "Ġarray": 7225,
      "Ġretained": 7226,
      "Ġprograms": 7227,
      "Ġdolph": 7228,
      "Ġindustrial": 7229,
      "Ġcili": 7230,
      "Ġconsumed": 7231,
      "utral": 7232,
      "ideo": 7233,
      "which": 7234,
      "Ġgave": 7235,
      "ĠPark": 7236,
      "Ġarc": 7237,
      "works": 7238,
      "Ġwild": 7239,
      "Ġbathyal": 7240,
      "inates": 7241,
      "ociated": 7242,
      "Ġmolluscs": 7243,
      "Ġderive": 7244,
      "Ġingestion": 7245,
      "ĠND": 7246,
      "Ġbiostratigraphy": 7247,
      "Ġ230": 7248,
      "Ġpal": 7249,
      "ilob": 7250,
      "Ġpossess": 7251,
      "Ġoptim": 7252,
      "ĠMAT": 7253,
      "Ġneritic": 7254,
      "Ġsudden": 7255,
      "selves": 7256,
      "Ġchallenges": 7257,
      "ĠDMS": 7258,
      "com": 7259,
      "Ġbehind": 7260,
      "ĠAA": 7261,
      "ife": 7262,
      "ymn": 7263,
      "Ġdeclines": 7264,
      "Ġaerosol": 7265,
      "Ġfatty": 7266,
      "ĠET": 7267,
      "Ġrelate": 7268,
      "Ġmaintenance": 7269,
      "ĠAlt": 7270,
      "Ġprovince": 7271,
      "EC": 7272,
      "ĠCycl": 7273,
      "Ġbedrock": 7274,
      "Ġcanyons": 7275,
      "Ġpackage": 7276,
      "Ġslides": 7277,
      "thick": 7278,
      "oderm": 7279,
      "Ġrift": 7280,
      "Ġwashed": 7281,
      "Ġconfined": 7282,
      "Ġlitter": 7283,
      "Ġfalls": 7284,
      "Ġsulfide": 7285,
      "imeter": 7286,
      "Ġpreferred": 7287,
      "Ġtrajectories": 7288,
      "Ġradiolarians": 7289,
      "Ġalgorithms": 7290,
      "Ġfacilitate": 7291,
      "Ġ02": 7292,
      "Ġimplementation": 7293,
      "inger": 7294,
      "Ġclays": 7295,
      "ĠConsid": 7296,
      "Ġface": 7297,
      "Ġcorrespondence": 7298,
      "ĠAmph": 7299,
      "ĠNorway": 7300,
      "ney": 7301,
      "Ġcoincide": 7302,
      "Ġoldest": 7303,
      "Ġace": 7304,
      "Ġga": 7305,
      "gy": 7306,
      "ĠAL": 7307,
      "Ġsegments": 7308,
      "ĠOscill": 7309,
      "Ġdrawn": 7310,
      "Ġunp": 7311,
      "Ġcellular": 7312,
      "Ġmacroalgae": 7313,
      "Ġfemale": 7314,
      "ifies": 7315,
      "uming": 7316,
      "Ġnegatively": 7317,
      "Ġpicture": 7318,
      "olia": 7319,
      "ossible": 7320,
      "Ġbenefit": 7321,
      "Ġharb": 7322,
      "ĠSites": 7323,
      "Ġtransl": 7324,
      "Ġphotic": 7325,
      "igation": 7326,
      "Ġmodelled": 7327,
      "Ġpellets": 7328,
      "RNA": 7329,
      "Ġselect": 7330,
      "ĠCorresponding": 7331,
      "NO": 7332,
      "Ġsustainable": 7333,
      "wood": 7334,
      "87": 7335,
      "ishes": 7336,
      "61": 7337,
      "ĠDetail": 7338,
      "Ġfib": 7339,
      "Ġopportunity": 7340,
      "Ġoccasionally": 7341,
      "FD": 7342,
      "las": 7343,
      "Ġbryozo": 7344,
      "ulus": 7345,
      "Ġtransform": 7346,
      "Ġgeometry": 7347,
      "Ġargued": 7348,
      "ĠInterest": 7349,
      "Ġzonation": 7350,
      "ĠDan": 7351,
      "Ġgoal": 7352,
      "dec": 7353,
      "Ġrip": 7354,
      "ogeographic": 7355,
      "Ġphoto": 7356,
      "uge": 7357,
      "Ġlaw": 7358,
      "ĠIRD": 7359,
      "Ġpenetration": 7360,
      "Ġcentre": 7361,
      "Ġmembrane": 7362,
      "iate": 7363,
      "Ġll": 7364,
      "ĠAng": 7365,
      "Ġassessing": 7366,
      "vis": 7367,
      "ĠGeology": 7368,
      "Ġterraces": 7369,
      "ĠProt": 7370,
      "Ġmesopelagic": 7371,
      "ĠLeg": 7372,
      "Ġwhilst": 7373,
      "Ġformal": 7374,
      "ĠTel": 7375,
      "Ġestimating": 7376,
      "ĠWil": 7377,
      "Ġbuilt": 7378,
      "Ġcomprising": 7379,
      "Ġultimately": 7380,
      "Ġprogressively": 7381,
      "ĠTs": 7382,
      "Ġdegrees": 7383,
      "ĠSmith": 7384,
      "Ġperspective": 7385,
      "Ġrud": 7386,
      "ĠStage": 7387,
      "Ġclosure": 7388,
      "ducers": 7389,
      "Ġanticyclonic": 7390,
      "Ġmarl": 7391,
      "Ġrandomly": 7392,
      "Ġtolerance": 7393,
      "Ġcrabs": 7394,
      "Ġcomes": 7395,
      "Ġplays": 7396,
      "oria": 7397,
      "Ġthous": 7398,
      "Ġcanopy": 7399,
      "ĠOx": 7400,
      "Ġplates": 7401,
      "Ġ69": 7402,
      "Ġslide": 7403,
      "olithus": 7404,
      "Ġweighted": 7405,
      "Ġcyt": 7406,
      "Ġquickly": 7407,
      "Ġaccordance": 7408,
      "anted": 7409,
      "ĠGal": 7410,
      "Ġentrain": 7411,
      "Ġmbsf": 7412,
      "asi": 7413,
      "Ġarb": 7414,
      "Ġtio": 7415,
      "herly": 7416,
      "Ġvorticity": 7417,
      "ĠHal": 7418,
      "Ġphylogenetic": 7419,
      "Ġfract": 7420,
      "ĠPubl": 7421,
      "Ġeffectively": 7422,
      "Ġconstitute": 7423,
      "Ġwalls": 7424,
      "Ġdramatic": 7425,
      "Ġexcellent": 7426,
      "ault": 7427,
      "Ġsurge": 7428,
      "inese": 7429,
      "ĠOl": 7430,
      "Ġplaice": 7431,
      "ĠCDOM": 7432,
      "Ġresil": 7433,
      "ĠCoral": 7434,
      "ivated": 7435,
      "Ġesc": 7436,
      "Ġlithological": 7437,
      "ped": 7438,
      "aser": 7439,
      "Ġeth": 7440,
      "osol": 7441,
      "Ġmanner": 7442,
      "Ġcoal": 7443,
      "Ġbelieved": 7444,
      "Ġillustrate": 7445,
      "Ġapproximate": 7446,
      "Ġreadily": 7447,
      "ĠScotia": 7448,
      "MA": 7449,
      "ĠItaly": 7450,
      "Ġanch": 7451,
      "Ġmoderately": 7452,
      "Ġperiodic": 7453,
      "Ġpassive": 7454,
      "Ġsubpolar": 7455,
      "Ġdolom": 7456,
      "SR": 7457,
      "Ġdise": 7458,
      "ĠUnfortunately": 7459,
      "Ġincubations": 7460,
      "Ġremarkable": 7461,
      "ĠAe": 7462,
      "Ġthemselves": 7463,
      "ĠPETM": 7464,
      "bar": 7465,
      "Ġdro": 7466,
      "ĠNord": 7467,
      "wh": 7468,
      "Ġstromat": 7469,
      "antarctic": 7470,
      "Ġitems": 7471,
      "ĠUl": 7472,
      "habitat": 7473,
      "km": 7474,
      "ulates": 7475,
      "ĠCap": 7476,
      "Ġoriginally": 7477,
      "Ġsponges": 7478,
      "ending": 7479,
      "ude": 7480,
      "Ġtesting": 7481,
      "Ġfilt": 7482,
      "ĠAdditional": 7483,
      "ĠMaterial": 7484,
      "ĠPan": 7485,
      "Ġloading": 7486,
      "GC": 7487,
      "Ġdeath": 7488,
      "Ġgrasses": 7489,
      "ĠIV": 7490,
      "Ġoverestim": 7491,
      "igenic": 7492,
      "Ġtribut": 7493,
      "Ġmales": 7494,
      "ĠMart": 7495,
      "Ġanalyze": 7496,
      "Ġoxic": 7497,
      "Ġkeep": 7498,
      "Ġasymmet": 7499,
      "ipher": 7500,
      "ĠCorg": 7501,
      "Ġoysters": 7502,
      "Ġbiof": 7503,
      "Ġheating": 7504,
      "Ġoptimum": 7505,
      "Ġdenitrification": 7506,
      "otrophs": 7507,
      "Ġflex": 7508,
      "Ġprobable": 7509,
      "Ġdrilling": 7510,
      "opter": 7511,
      "Ġ180": 7512,
      "vance": 7513,
      "zooplankton": 7514,
      "ographically": 7515,
      "Ġadjusted": 7516,
      "Ġvast": 7517,
      "ĠHel": 7518,
      "Ġ130": 7519,
      "lies": 7520,
      "oured": 7521,
      "ĠPor": 7522,
      "ĠHar": 7523,
      "Ġprojects": 7524,
      "ĠSPM": 7525,
      "rod": 7526,
      "oses": 7527,
      "ĠWorld": 7528,
      "TA": 7529,
      "Ġuctu": 7530,
      "omon": 7531,
      "Ġrecyc": 7532,
      "Ġalternating": 7533,
      "Ġ1989": 7534,
      "Ġresting": 7535,
      "ospec": 7536,
      "Ġreplicate": 7537,
      "Ġacquired": 7538,
      "Ġtooth": 7539,
      "ĠTethyan": 7540,
      "iphy": 7541,
      "Ġfunctioning": 7542,
      "Ġepisode": 7543,
      "ĠAltern": 7544,
      "Ġshifted": 7545,
      "ĠSEM": 7546,
      "Ġbirds": 7547,
      "Ġnone": 7548,
      "oding": 7549,
      "ynamics": 7550,
      "athered": 7551,
      "ĠMur": 7552,
      "Ġidentifying": 7553,
      "ĠBetween": 7554,
      "94": 7555,
      "atist": 7556,
      "Ġretention": 7557,
      "Ġbroader": 7558,
      "bal": 7559,
      "Ġcoccolithophore": 7560,
      "edge": 7561,
      "omal": 7562,
      "Ġprecess": 7563,
      "Ġ71": 7564,
      "ĠChuk": 7565,
      "ĠExperiment": 7566,
      "ĠPRESS": 7567,
      "aris": 7568,
      "ĠNC": 7569,
      "angular": 7570,
      "Ġkinetic": 7571,
      "Ġsupplied": 7572,
      "TICLE": 7573,
      "Ġmature": 7574,
      "ĠConsidering": 7575,
      "Ġnea": 7576,
      "Ġsufficiently": 7577,
      "Ġperturb": 7578,
      "Ġgraz": 7579,
      "Ġshrub": 7580,
      "Ġgauge": 7581,
      "ĠARTICLE": 7582,
      "Ġbiofacies": 7583,
      "Ġech": 7584,
      "ĠAuth": 7585,
      "ĠOut": 7586,
      "Ġscler": 7587,
      "Ġscaveng": 7588,
      "GO": 7589,
      "ĠSI": 7590,
      "ĠCreek": 7591,
      "Ġspanning": 7592,
      "ĠGC": 7593,
      "ĠACC": 7594,
      "Ġlacking": 7595,
      "Ġconfiguration": 7596,
      "/$": 7597,
      "ĠChinese": 7598,
      "Ġreduct": 7599,
      "Ġseed": 7600,
      "Ġdominates": 7601,
      "Ġmoved": 7602,
      "Ġarticles": 7603,
      "Ġ140": 7604,
      "mospheric": 7605,
      "Ġhypotheses": 7606,
      "Ġexcav": 7607,
      "Ġhighlighted": 7608,
      "occur": 7609,
      "inids": 7610,
      "icle": 7611,
      "asman": 7612,
      "Ġthor": 7613,
      "ĠHist": 7614,
      "Ġ03": 7615,
      "ĠCanadian": 7616,
      "phy": 7617,
      "atal": 7618,
      "Ġresuspension": 7619,
      "Ġposterior": 7620,
      "rot": 7621,
      "Ġsearch": 7622,
      "ĠIndex": 7623,
      "Ġbreaking": 7624,
      "Ġbrachiopod": 7625,
      "Ġpoleward": 7626,
      "ĠOscillation": 7627,
      "Ġfold": 7628,
      "Ġvapor": 7629,
      "Ġresistance": 7630,
      "igerina": 7631,
      "Tri": 7632,
      "Ġaccretion": 7633,
      "standing": 7634,
      "ĠFrag": 7635,
      "ĠYellow": 7636,
      "ĠWhere": 7637,
      "waters": 7638,
      "ĠBritish": 7639,
      "Ġmusc": 7640,
      "unct": 7641,
      "Ġorders": 7642,
      "Ġlithology": 7643,
      "Ġcertainly": 7644,
      "Ġfragmentation": 7645,
      "imilar": 7646,
      "ĠSah": 7647,
      "ĠChen": 7648,
      "Ġ08": 7649,
      "ham": 7650,
      "Ġpetro": 7651,
      "ĠSy": 7652,
      "inces": 7653,
      "Ġbin": 7654,
      "Ġhours": 7655,
      "herical": 7656,
      "Ġindepend": 7657,
      "luding": 7658,
      "Ġoriented": 7659,
      "Ġeustatic": 7660,
      "Ġeroded": 7661,
      "Ġreduces": 7662,
      "RM": 7663,
      "Ġrim": 7664,
      "irn": 7665,
      "Ġadvances": 7666,
      "raf": 7667,
      "oly": 7668,
      "unda": 7669,
      "Ġpaleoceanographic": 7670,
      "Ġabiotic": 7671,
      "ĠDryas": 7672,
      "normal": 7673,
      "ĠPinus": 7674,
      "ĠJohn": 7675,
      "ĠEngland": 7676,
      "Ġmeter": 7677,
      "Ġscattering": 7678,
      "Ġliquid": 7679,
      "Ġba": 7680,
      "ĠFax": 7681,
      "ips": 7682,
      "Ġpreliminary": 7683,
      "Ġequally": 7684,
      "Ġindustry": 7685,
      "Ġcomplicated": 7686,
      "Ġworking": 7687,
      "Ġmacrofauna": 7688,
      "Ġintroduction": 7689,
      "Ġast": 7690,
      "Ġsatisf": 7691,
      "Ġ_": 7692,
      "ĠMel": 7693,
      "unity": 7694,
      "Ġtransient": 7695,
      "Ġswimming": 7696,
      "Ġfill": 7697,
      "lled": 7698,
      ",.": 7699,
      "Ġvector": 7700,
      "St": 7701,
      "Ġadequate": 7702,
      "bound": 7703,
      "ĠWood": 7704,
      "inding": 7705,
      "si": 7706,
      "Ġscope": 7707,
      "ĠProvince": 7708,
      "Ġpropose": 7709,
      "Ġheights": 7710,
      "Ġexceeded": 7711,
      "Ġos": 7712,
      "ĠLith": 7713,
      "active": 7714,
      "Ġhot": 7715,
      "Ġbroadly": 7716,
      "ĠLimestone": 7717,
      "ĠInterestingly": 7718,
      "ĠTasman": 7719,
      "Ġportions": 7720,
      "oquadr": 7721,
      "ĠmL": 7722,
      "ĠRem": 7723,
      "Ġimpacted": 7724,
      "Ġeventually": 7725,
      "Ġpalaeoenvironmental": 7726,
      "Ġple": 7727,
      "Ġlengths": 7728,
      "Ġcrustal": 7729,
      "Ġowing": 7730,
      "Ġcamera": 7731,
      "Ġcarniv": 7732,
      "Ġconductivity": 7733,
      "Ġcoincident": 7734,
      "plain": 7735,
      "Ġcontrary": 7736,
      "Ġchallenge": 7737,
      "Ġongoing": 7738,
      "Ġcontour": 7739,
      "Ġsubmer": 7740,
      "150": 7741,
      "Ġtens": 7742,
      "Ġcc": 7743,
      "Ġetc": 7744,
      "Ġresolve": 7745,
      "ukary": 7746,
      "ĠPhae": 7747,
      "ĠHow": 7748,
      "Ġenable": 7749,
      "Ġequipped": 7750,
      "ĠChukchi": 7751,
      "Ġnn": 7752,
      "Ġanoxia": 7753,
      "Ġbarotropic": 7754,
      "Ġdimensions": 7755,
      "preserv": 7756,
      "Ġsuff": 7757,
      "Ġ79": 7758,
      "Ġnan": 7759,
      "Ġenabl": 7760,
      "Ġbreeding": 7761,
      "Ġcrypt": 7762,
      "Ġsulfur": 7763,
      "Ġshrimp": 7764,
      "Pl": 7765,
      "Ġhatch": 7766,
      "ĠAMS": 7767,
      "ĠOkh": 7768,
      "Ts": 7769,
      "cell": 7770,
      "ĠTibetan": 7771,
      "energy": 7772,
      "egrated": 7773,
      "Ġ83": 7774,
      "Ġsac": 7775,
      "Ġdepic": 7776,
      "Ġbiases": 7777,
      "Ġinfluencing": 7778,
      "Ġopportunistic": 7779,
      "Ġevol": 7780,
      "Ġsmallest": 7781,
      "rows": 7782,
      "Ġplanning": 7783,
      "TS": 7784,
      "Ġgeomorph": 7785,
      "Ġmounted": 7786,
      "Ġevolved": 7787,
      "Ġpolyn": 7788,
      "Ġaxes": 7789,
      "ĠVi": 7790,
      "Ġplayed": 7791,
      "Ġorth": 7792,
      "ĠUnivers": 7793,
      "Ġinsu": 7794,
      "mg": 7795,
      "win": 7796,
      "ĠRock": 7797,
      "ĠAmmon": 7798,
      "Ġfloat": 7799,
      "itial": 7800,
      "Ġlie": 7801,
      "ĠYounger": 7802,
      "Ġnotice": 7803,
      "ipitation": 7804,
      "ĠDiatom": 7805,
      "atial": 7806,
      "ĠTi": 7807,
      "etrit": 7808,
      "ĠAqu": 7809,
      "limatic": 7810,
      "otsk": 7811,
      "mitt": 7812,
      "ĠAver": 7813,
      "ĠMad": 7814,
      "ĠBenthic": 7815,
      "Ġsubjected": 7816,
      "Ġ2019": 7817,
      "Ġslowly": 7818,
      "ĠCentre": 7819,
      "Ple": 7820,
      "plicate": 7821,
      "Ġget": 7822,
      "umental": 7823,
      "ĠOceanography": 7824,
      "06": 7825,
      "aim": 7826,
      "Ġmarkers": 7827,
      "ĠPy": 7828,
      "Ġmicros": 7829,
      "Ġ1988": 7830,
      "Ġsynchronous": 7831,
      "hop": 7832,
      "ample": 7833,
      "ĠPhil": 7834,
      "RF": 7835,
      "Ġloads": 7836,
      "ĠEstim": 7837,
      "ĠCoun": 7838,
      "ocystis": 7839,
      "Ġtravel": 7840,
      "ozooplankton": 7841,
      "ommod": 7842,
      "Ġmicroscopy": 7843,
      "Ġreworking": 7844,
      "ĠTax": 7845,
      "ĠRange": 7846,
      "actor": 7847,
      "Ġlipids": 7848,
      "Ġ74": 7849,
      "Ġskeletons": 7850,
      "idel": 7851,
      "acean": 7852,
      "Ġunstable": 7853,
      "ĠGloborotalia": 7854,
      "ĠEquatorial": 7855,
      "ee": 7856,
      "ospheric": 7857,
      "Ġimagery": 7858,
      "88": 7859,
      "Ġcylind": 7860,
      "Ġln": 7861,
      "olina": 7862,
      "ĠBro": 7863,
      "apot": 7864,
      "Ġstrains": 7865,
      "Ġcoarser": 7866,
      "rupted": 7867,
      "wind": 7868,
      "alt": 7869,
      "Ġarctic": 7870,
      "ĠRegional": 7871,
      "Ġpick": 7872,
      "ĠPAR": 7873,
      "Ġminima": 7874,
      "hai": 7875,
      "Ġss": 7876,
      "Ġextra": 7877,
      "Ġcontinues": 7878,
      "holders": 7879,
      "men": 7880,
      "Ġstated": 7881,
      "acu": 7882,
      "ĠOceans": 7883,
      "ĠPeru": 7884,
      "ĠOkhotsk": 7885,
      "after": 7886,
      "pic": 7887,
      "uries": 7888,
      "Ġie": 7889,
      "Ġcrystals": 7890,
      "itt": 7891,
      "Ġborder": 7892,
      "Ġell": 7893,
      "Ġ93": 7894,
      "Ġapart": 7895,
      "ĠPacic": 7896,
      "ocon": 7897,
      "ager": 7898,
      "algal": 7899,
      "Ġclimatological": 7900,
      "test": 7901,
      "arst": 7902,
      "Ġhind": 7903,
      "ĠConversely": 7904,
      "ĠCampanian": 7905,
      "Ġcoherent": 7906,
      "Ġdatum": 7907,
      "ĠDSDP": 7908,
      "ĠEle": 7909,
      "Ġoccupy": 7910,
      "Ġ@": 7911,
      "orption": 7912,
      "ĠHimal": 7913,
      "Ġbedding": 7914,
      "iosira": 7915,
      "Ġgyp": 7916,
      "Ġidentied": 7917,
      "fect": 7918,
      "ĠMC": 7919,
      "rices": 7920,
      "Ġventilation": 7921,
      "Ġtriggered": 7922,
      "carb": 7923,
      "ĠAND": 7924,
      "mol": 7925,
      "iveness": 7926,
      "Ġfewer": 7927,
      "Ġapproximation": 7928,
      "ĠWhite": 7929,
      "Ġmarkedly": 7930,
      "vin": 7931,
      "Ġphotographs": 7932,
      "Ġproducers": 7933,
      "Ġunconformity": 7934,
      "oli": 7935,
      "ĠChlor": 7936,
      "Ġnetworks": 7937,
      "Ġoocy": 7938,
      "Ġreverse": 7939,
      "Ġna": 7940,
      "ĠCam": 7941,
      "Ġinterst": 7942,
      "Ġ4000": 7943,
      "zo": 7944,
      "rey": 7945,
      "Ġcompound": 7946,
      "ĠPlease": 7947,
      "ema": 7948,
      "ĠDelta": 7949,
      "Ġnotably": 7950,
      "Ġtransp": 7951,
      "Ġneither": 7952,
      "Ġsiliciclastic": 7953,
      "Ġ94": 7954,
      "yle": 7955,
      "Ġmy": 7956,
      "Ġaggregation": 7957,
      "Ġdisturbances": 7958,
      "Ġwesterly": 7959,
      "Ġgain": 7960,
      "Ġframe": 7961,
      "Ġphenomena": 7962,
      "ĠHer": 7963,
      "Ġextensively": 7964,
      "Ġfigure": 7965,
      "Ġlesser": 7966,
      "bedo": 7967,
      "Ġsy": 7968,
      "Ġvideo": 7969,
      "ĠGB": 7970,
      "ppe": 7971,
      "Ġregulation": 7972,
      "ordill": 7973,
      "Ġmars": 7974,
      "Ġlikelihood": 7975,
      "Ġutilized": 7976,
      "Ġinherent": 7977,
      "ĠLap": 7978,
      "Ġquar": 7979,
      "Ġparent": 7980,
      "racted": 7981,
      "alc": 7982,
      "umines": 7983,
      "ocated": 7984,
      "Ġaccommod": 7985,
      "Ġ84": 7986,
      "Ġlongitudinal": 7987,
      "Ġvulnerable": 7988,
      "asurements": 7989,
      "Ġsharks": 7990,
      "Ġmultivariate": 7991,
      "month": 7992,
      "ĠReview": 7993,
      "ĠDEB": 7994,
      "ĠHCl": 7995,
      "Ġinvolving": 7996,
      "MW": 7997,
      "ville": 7998,
      "Ġpi": 7999,
      "Ġasc": 8000,
      "ĠFlu": 8001,
      "ryst": 8002,
      "uy": 8003,
      "ĠGPS": 8004,
      "Ġrelating": 8005,
      "Ġsubarctic": 8006,
      "Ġconvective": 8007,
      "lin": 8008,
      "ĠTe": 8009,
      "amel": 8010,
      "Ġdepression": 8011,
      "Ġreflectance": 8012,
      "Ġepisod": 8013,
      "Ġns": 8014,
      "Ġmudstones": 8015,
      "Ġamplitudes": 8016,
      "Ġexceeds": 8017,
      "ĠInstead": 8018,
      "ror": 8019,
      "oco": 8020,
      "ĠEOF": 8021,
      "Ġimplying": 8022,
      "Ġiceberg": 8023,
      "ĠPol": 8024,
      "ĠPress": 8025,
      "Ġgrassland": 8026,
      "ĠAndes": 8027,
      "Ġdiscrepancy": 8028,
      "2000": 8029,
      "olite": 8030,
      "ĠOp": 8031,
      "Ġcountry": 8032,
      "OH": 8033,
      "ĠSoci": 8034,
      "Ġincomple": 8035,
      "ĠThalassiosira": 8036,
      "Ġfriction": 8037,
      "09": 8038,
      "feed": 8039,
      "ĠForm": 8040,
      "Ġcompiled": 8041,
      "Ġoriginated": 8042,
      "aerobic": 8043,
      "tically": 8044,
      "icles": 8045,
      "Ġpow": 8046,
      "Ġhour": 8047,
      "Ġrecover": 8048,
      "Ġcoeval": 8049,
      "Ġdestruct": 8050,
      "Ġremineralization": 8051,
      "ordillera": 8052,
      "mers": 8053,
      "ĠTL": 8054,
      "ĠIC": 8055,
      "Ġprolong": 8056,
      "istent": 8057,
      "iot": 8058,
      "ĠZo": 8059,
      "Ġdischarges": 8060,
      "Ġtraining": 8061,
      "Ġcall": 8062,
      "Ġunf": 8063,
      "Ġcris": 8064,
      "Ġlaterally": 8065,
      "Ġillustrates": 8066,
      "Ġexploitation": 8067,
      "Ġbrought": 8068,
      "Ġdrive": 8069,
      "Ġoriginating": 8070,
      "ammina": 8071,
      "Ġentrainment": 8072,
      "ker": 8073,
      "oric": 8074,
      "Ġmut": 8075,
      "Ġcontributes": 8076,
      "utrient": 8077,
      "Ġinfl": 8078,
      "anned": 8079,
      "Ġenter": 8080,
      "ĠGenerally": 8081,
      "ĠCarpath": 8082,
      "iplinary": 8083,
      "Ġearthqu": 8084,
      "Ġsorted": 8085,
      "ĠCle": 8086,
      "Ġdiagnostic": 8087,
      "Ġnotable": 8088,
      "81": 8089,
      "ĠnM": 8090,
      "Ġexplored": 8091,
      "Ġmats": 8092,
      "Ġinsufficient": 8093,
      "ĠMOD": 8094,
      "Ġshared": 8095,
      "ĠNatural": 8096,
      "Ġdescribes": 8097,
      "basin": 8098,
      "cation": 8099,
      "Ġaper": 8100,
      "Ġcarbo": 8101,
      "ĠOxygen": 8102,
      "ĠPoint": 8103,
      "preserved": 8104,
      "76": 8105,
      "utch": 8106,
      "ĠSU": 8107,
      "ĠIndones": 8108,
      "there": 8109,
      "Ġsuite": 8110,
      "iston": 8111,
      "Ġhypoxia": 8112,
      "Ġintensive": 8113,
      "idate": 8114,
      "Ġflounder": 8115,
      "Ġcolour": 8116,
      "green": 8117,
      "Ġseals": 8118,
      "Ġconventional": 8119,
      "Pa": 8120,
      "Ġfres": 8121,
      "ette": 8122,
      "Ġstakeholders": 8123,
      "lived": 8124,
      "ĠArc": 8125,
      "isition": 8126,
      "Ġquadr": 8127,
      "Ġdiscard": 8128,
      "Ġfinally": 8129,
      "ĠĠĠĠĠĠĠĠ": 8130,
      "Ġattenuation": 8131,
      "Ġbiology": 8132,
      "Ġadvanced": 8133,
      "jiang": 8134,
      "abs": 8135,
      "Ġinitiated": 8136,
      "ster": 8137,
      "Ġthreat": 8138,
      "Ġincons": 8139,
      "Ġsequencing": 8140,
      "Ġinclusion": 8141,
      "Ġlens": 8142,
      "Ġraw": 8143,
      "Ġpractic": 8144,
      "ĠFisheries": 8145,
      "winter": 8146,
      "Ġpolicies": 8147,
      "ĠLC": 8148,
      "Ġheld": 8149,
      "ĠZn": 8150,
      "Ġhydrogen": 8151,
      "organisms": 8152,
      "Ġions": 8153,
      "ĠGeo": 8154,
      "Ġlithofacies": 8155,
      "wana": 8156,
      "Ġtropics": 8157,
      "Ġenergetic": 8158,
      "Ġvalleys": 8159,
      "84": 8160,
      "gean": 8161,
      "Ġgon": 8162,
      "Ġcaps": 8163,
      "Ġmountains": 8164,
      "All": 8165,
      "ighed": 8166,
      "etics": 8167,
      "apsa": 8168,
      "Ġinert": 8169,
      "Ġdeepening": 8170,
      "iness": 8171,
      "ania": 8172,
      "Ġcapt": 8173,
      "Ġaffinity": 8174,
      "Ġnearest": 8175,
      "Ġonshore": 8176,
      "ĠFrench": 8177,
      "ĠNino": 8178,
      "Ġself": 8179,
      "Ġamphip": 8180,
      "cil": 8181,
      "Ġtill": 8182,
      "Ġneutral": 8183,
      "DS": 8184,
      "Ġexceeding": 8185,
      "Ġbranches": 8186,
      "ĠEvidence": 8187,
      "Ġligands": 8188,
      "Corg": 8189,
      "Ġumb": 8190,
      "ĠTherm": 8191,
      "Ġselective": 8192,
      "umpolar": 8193,
      "ĠPear": 8194,
      "ĠChron": 8195,
      "Ġkil": 8196,
      "Ġinterpolated": 8197,
      "Ġdisappearance": 8198,
      "Ġplumes": 8199,
      "Ġstrict": 8200,
      "ampa": 8201,
      "Ġablation": 8202,
      "ool": 8203,
      "arity": 8204,
      "ĠTyp": 8205,
      "loboquadr": 8206,
      "Ġcrisis": 8207,
      "ĠOnce": 8208,
      "Ġexplains": 8209,
      "ao": 8210,
      "Ġmapped": 8211,
      "eled": 8212,
      "othem": 8213,
      "Ġforces": 8214,
      "ipelagic": 8215,
      "Ġpaleoclimate": 8216,
      "Ġweakly": 8217,
      "ĠNether": 8218,
      "eries": 8219,
      "ĠPCA": 8220,
      "Ġreplicates": 8221,
      "ĠGlobigerinoides": 8222,
      "Ġpairs": 8223,
      "ĠBisc": 8224,
      "Ġ350": 8225,
      "Ġpercept": 8226,
      "Ġdrying": 8227,
      "Ġrocky": 8228,
      "Ġsav": 8229,
      "ewise": 8230,
      "ĠPaleogene": 8231,
      "ĠMis": 8232,
      "ĠPb": 8233,
      "CD": 8234,
      "US": 8235,
      "pass": 8236,
      "Ġdiurnal": 8237,
      "Ġlittoral": 8238,
      "Ġrotation": 8239,
      "Ġevidenced": 8240,
      "apotrans": 8241,
      "66": 8242,
      "Ġstret": 8243,
      "aments": 8244,
      "ĠLang": 8245,
      "race": 8246,
      "ĠMicro": 8247,
      "Ġbub": 8248,
      "Ġshare": 8249,
      "Ġrunning": 8250,
      "uela": 8251,
      "Ġhaz": 8252,
      "ĠServ": 8253,
      "ĠFish": 8254,
      "Ġcalculating": 8255,
      "ocor": 8256,
      "Ġsatur": 8257,
      "Ġbroken": 8258,
      "ĠRussian": 8259,
      "ĠSol": 8260,
      "Ġconsistency": 8261,
      "Ġbiogeographic": 8262,
      "run": 8263,
      "itect": 8264,
      "ĠSel": 8265,
      "abor": 8266,
      "ĠWA": 8267,
      "Ġplane": 8268,
      "Ġinstruments": 8269,
      "Ġdive": 8270,
      "ĠDo": 8271,
      "robial": 8272,
      "ĠHP": 8273,
      "ĠLat": 8274,
      "Ġ92": 8275,
      "ova": 8276,
      "Ġcentered": 8277,
      "Ġmounds": 8278,
      "Ġaccounting": 8279,
      "Ġrounded": 8280,
      "averaged": 8281,
      "ĠKe": 8282,
      "Ġcrest": 8283,
      "etically": 8284,
      "ĠNear": 8285,
      "Ġoutputs": 8286,
      "urt": 8287,
      "Ġsapropels": 8288,
      "Ġtsunami": 8289,
      "Ġgut": 8290,
      "istered": 8291,
      "li": 8292,
      "ml": 8293,
      "Ġtet": 8294,
      "Ġrig": 8295,
      "Ġunivers": 8296,
      "Ġreproduce": 8297,
      "Ġintr": 8298,
      "idea": 8299,
      "ĠStream": 8300,
      "aturated": 8301,
      "apotranspiration": 8302,
      "tze": 8303,
      "ĠTai": 8304,
      "iguous": 8305,
      "ĠFam": 8306,
      "Ġ103": 8307,
      "Ġsolub": 8308,
      "ĠAssembl": 8309,
      "ĠSwed": 8310,
      "ĠArgentina": 8311,
      "Ġpycn": 8312,
      "oceros": 8313,
      "ighter": 8314,
      "Ġcorrelates": 8315,
      "ĠShale": 8316,
      "Ġlinks": 8317,
      "ĠAegean": 8318,
      "Ġreect": 8319,
      "ĠFras": 8320,
      "ĠOff": 8321,
      "illa": 8322,
      "Ġconceptual": 8323,
      "WP": 8324,
      "def": 8325,
      "Ġ06": 8326,
      "Ġmicroalgae": 8327,
      "Ġdigital": 8328,
      "Ġbank": 8329,
      "Ġbeam": 8330,
      "rastruct": 8331,
      "rist": 8332,
      "ĠPet": 8333,
      "Ġparas": 8334,
      "Ġsurvive": 8335,
      "Ġinduce": 8336,
      "Ġpic": 8337,
      "Ġname": 8338,
      "inea": 8339,
      "akers": 8340,
      "Ġcenturies": 8341,
      "Ġmangroves": 8342,
      "Ġdescriptions": 8343,
      "hou": 8344,
      "ila": 8345,
      "perm": 8346,
      "aker": 8347,
      "Ġmaxim": 8348,
      "ĠNetherlands": 8349,
      "Ġgiving": 8350,
      "Ġdiap": 8351,
      "Ġbuffer": 8352,
      "osus": 8353,
      "Ġ160": 8354,
      "DA": 8355,
      "lic": 8356,
      "Ġmarshes": 8357,
      "grad": 8358,
      "Ġdifferentiation": 8359,
      "Ġwindow": 8360,
      "Ġlaser": 8361,
      "ibic": 8362,
      "Ġ89": 8363,
      "exp": 8364,
      "Ġdescribing": 8365,
      "ĠAssuming": 8366,
      "Ġlign": 8367,
      "ames": 8368,
      "Ġbelieve": 8369,
      "Ġviral": 8370,
      "ĠArt": 8371,
      "isciplinary": 8372,
      "Ġalbedo": 8373,
      "ĠLP": 8374,
      "acea": 8375,
      "ensen": 8376,
      "Ġprinciple": 8377,
      "Ġacquisition": 8378,
      "Ġvulnerability": 8379,
      "has": 8380,
      "ĠNS": 8381,
      "Ġskeleton": 8382,
      "ĠANOVA": 8383,
      "Ġtoxicity": 8384,
      "ĠYangtze": 8385,
      "CT": 8386,
      "ĠDW": 8387,
      "Ġreflection": 8388,
      "inoids": 8389,
      "ione": 8390,
      "mosphere": 8391,
      "Ġinvertebrate": 8392,
      "Ġretrieved": 8393,
      "Ġod": 8394,
      "Ġsporad": 8395,
      "Ġepib": 8396,
      "ĠAccordingly": 8397,
      "Ġexcursions": 8398,
      "enian": 8399,
      "Ġcav": 8400,
      "una": 8401,
      "Ġcontrasting": 8402,
      "aven": 8403,
      "Ġradius": 8404,
      "Ġinn": 8405,
      "roy": 8406,
      "ington": 8407,
      "ĠEll": 8408,
      "Ġnovel": 8409,
      "Ġcoccolithophores": 8410,
      "Pleistocene": 8411,
      "oidal": 8412,
      "ĠSH": 8413,
      "ĠHad": 8414,
      "Ġaerial": 8415,
      "ĠPassage": 8416,
      "ephy": 8417,
      "Ġmag": 8418,
      "Ġmeio": 8419,
      "Ġprovinces": 8420,
      "Ġglaci": 8421,
      "erson": 8422,
      "Ġraised": 8423,
      "1000": 8424,
      "Ġconservative": 8425,
      "ĠImp": 8426,
      "ĠSiberian": 8427,
      "ĠBacter": 8428,
      "ups": 8429,
      "Ġoffer": 8430,
      "Ġprefer": 8431,
      "OR": 8432,
      "ĠES": 8433,
      "Ġamino": 8434,
      "ĠCB": 8435,
      "ĠMB": 8436,
      "endix": 8437,
      "cules": 8438,
      "ĠPTB": 8439,
      "300": 8440,
      "hort": 8441,
      "sediment": 8442,
      "Ġfart": 8443,
      "idi": 8444,
      "ĠOst": 8445,
      "Ġgyres": 8446,
      "Ġfavorable": 8447,
      "ns": 8448,
      "inqu": 8449,
      "acchar": 8450,
      "Ġspines": 8451,
      "ĠFound": 8452,
      "Ġsupplement": 8453,
      "Ġisolation": 8454,
      "ĠPatag": 8455,
      "ĠDanian": 8456,
      "ĠThrough": 8457,
      "limited": 8458,
      "Ġfuel": 8459,
      "Ġholes": 8460,
      "Ġpassage": 8461,
      "Ġutilization": 8462,
      "ĠSynech": 8463,
      "Ġdissimilar": 8464,
      "erestimate": 8465,
      "aff": 8466,
      "Ġtour": 8467,
      "opol": 8468,
      "ĠAtmospheric": 8469,
      "Ġtract": 8470,
      "Ġoverturning": 8471,
      "agus": 8472,
      "ĠKo": 8473,
      "ichi": 8474,
      "Ġantarctic": 8475,
      "Ġbook": 8476,
      "Ġbuilding": 8477,
      "uck": 8478,
      "Ġgi": 8479,
      "Ġstack": 8480,
      "Ġregen": 8481,
      "Ġendemic": 8482,
      "Ġreviewed": 8483,
      "Ġinstrumental": 8484,
      "ĠGib": 8485,
      "Ġresilience": 8486,
      "Ġhapp": 8487,
      "ĠGS": 8488,
      "luc": 8489,
      "Ġadjustment": 8490,
      "catch": 8491,
      "head": 8492,
      "ĠPollen": 8493,
      "ĠWind": 8494,
      "ĠDenmark": 8495,
      "called": 8496,
      "Ġnt": 8497,
      "ĠBesides": 8498,
      "arium": 8499,
      "ffl": 8500,
      "ĠYet": 8501,
      "Ġdirected": 8502,
      "Ġthermohaline": 8503,
      "ĠPaleozoic": 8504,
      "Ġcentrif": 8505,
      "Ġpip": 8506,
      "ils": 8507,
      "ĠrRNA": 8508,
      "ĠHol": 8509,
      "Ġcorrob": 8510,
      "Ġchert": 8511,
      "Ġfre": 8512,
      "values": 8513,
      "Ġrecognition": 8514,
      "Ġfiner": 8515,
      "ĠREE": 8516,
      "enz": 8517,
      "Ġirrigation": 8518,
      "Ġindependently": 8519,
      "Ġminut": 8520,
      "Ġengine": 8521,
      "Ġmodification": 8522,
      "Ġagriculture": 8523,
      "Ġvill": 8524,
      "obi": 8525,
      "Ġadaptive": 8526,
      "Ġreanalysis": 8527,
      "ĠRef": 8528,
      "tev": 8529,
      "ipping": 8530,
      "Ġseeps": 8531,
      "ĠOxford": 8532,
      "MIC": 8533,
      "Ġlib": 8534,
      "Ġrub": 8535,
      "ĠUN": 8536,
      "Ġoverview": 8537,
      "Ġhighstand": 8538,
      "ĠQue": 8539,
      "do": 8540,
      "Ġgrab": 8541,
      "Ġparameterization": 8542,
      "Ġswamp": 8543,
      "Ġevapotranspiration": 8544,
      "Ġserious": 8545,
      "Ġintensified": 8546,
      "bachian": 8547,
      "ensive": 8548,
      "Ġ145": 8549,
      "Ġnutr": 8550,
      "Ġellip": 8551,
      "ĠPrim": 8552,
      "Ġ81": 8553,
      "Ġ900": 8554,
      "Ġrevised": 8555,
      "AL": 8556,
      "Ġinlet": 8557,
      "ashed": 8558,
      "ĠAlbian": 8559,
      "Ġspecified": 8560,
      "Ġdisag": 8561,
      "ĠParatethys": 8562,
      "hum": 8563,
      "Ġaggregate": 8564,
      "Ġworth": 8565,
      "anz": 8566,
      "Ġtaxonomy": 8567,
      "ĠEnvironment": 8568,
      "ĠPred": 8569,
      "Ġwetter": 8570,
      "Ġargue": 8571,
      "Ġstreams": 8572,
      "Ġgypsum": 8573,
      "pe": 8574,
      "imposed": 8575,
      "ĠHg": 8576,
      "Ġpaleosol": 8577,
      "GE": 8578,
      "Ġpredominant": 8579,
      "Ġtimescale": 8580,
      "Ġinshore": 8581,
      "ĠEB": 8582,
      "Ġmaturity": 8583,
      "Ġrestoration": 8584,
      "asterly": 8585,
      "ĠMeteor": 8586,
      "Ġfiltration": 8587,
      "KE": 8588,
      "kes": 8589,
      "Ġtel": 8590,
      "Ġvents": 8591,
      "Ġexped": 8592,
      "Ġentering": 8593,
      "ĠNADW": 8594,
      "ĠRegion": 8595,
      "Ġfeedbacks": 8596,
      "bard": 8597,
      "Ġdred": 8598,
      "uli": 8599,
      "ĠSymb": 8600,
      "Ġ1982": 8601,
      "Ġmoraine": 8602,
      "Ġpractice": 8603,
      "Atlantic": 8604,
      "gu": 8605,
      "gar": 8606,
      "ony": 8607,
      "Ġaridity": 8608,
      "arcian": 8609,
      "ĠTN": 8610,
      "ĠTR": 8611,
      "ĠTS": 8612,
      "pled": 8613,
      "Ġquantification": 8614,
      "ĠClay": 8615,
      "ĠEcosystem": 8616,
      "Ġniche": 8617,
      "ĠBoliv": 8618,
      "Ġaltimetry": 8619,
      "anthin": 8620,
      "ĠCong": 8621,
      "Ġtranscript": 8622,
      "pha": 8623,
      "ĠChang": 8624,
      "Ġfourth": 8625,
      "Ġgraph": 8626,
      "ĠDifferences": 8627,
      "terior": 8628,
      "ĠDav": 8629,
      "ĠWarm": 8630,
      "Ġ1987": 8631,
      "Ġbioturb": 8632,
      "Ġoutlined": 8633,
      "Ġepifaunal": 8634,
      "ĠPhaeocystis": 8635,
      "kary": 8636,
      "ilities": 8637,
      "Ġstarts": 8638,
      "-,": 8639,
      "Ġfab": 8640,
      "ĠMH": 8641,
      "Ġintrac": 8642,
      "Ġmorphotype": 8643,
      "Ġstresses": 8644,
      "Ġfigures": 8645,
      "enia": 8646,
      "uda": 8647,
      "Ġlabile": 8648,
      "Ġacceleration": 8649,
      "Ġminimize": 8650,
      "Ġextinctions": 8651,
      "ese": 8652,
      "ĠPV": 8653,
      "Ġbecoming": 8654,
      "Ġstriking": 8655,
      "ĠGondwana": 8656,
      "orf": 8657,
      "aran": 8658,
      "optic": 8659,
      "ĠLaw": 8660,
      "Ġmonitored": 8661,
      "salinity": 8662,
      "ĠOTUs": 8663,
      "isotope": 8664,
      "Ġgeologic": 8665,
      "Ġcolonization": 8666,
      "Ġsustained": 8667,
      "Ġreservoirs": 8668,
      "ĠLaptev": 8669,
      "Ġcorrobor": 8670,
      "Ġcite": 8671,
      "ister": 8672,
      "ĠChaet": 8673,
      "Ġherein": 8674,
      "Ġfloating": 8675,
      "Ġvertebrate": 8676,
      "Ġunusual": 8677,
      "casts": 8678,
      "ĠMil": 8679,
      "forming": 8680,
      "Ġoperating": 8681,
      "ĠAlternatively": 8682,
      "rangian": 8683,
      "Ġdioxide": 8684,
      "Ġmining": 8685,
      "Ġdiscovered": 8686,
      "ĠMLD": 8687,
      "Ġrefers": 8688,
      "kyr": 8689,
      "Ġbottle": 8690,
      "Ġactions": 8691,
      "Ġtechnology": 8692,
      "Ġdramatically": 8693,
      "Ġseamounts": 8694,
      "Ġstained": 8695,
      "strat": 8696,
      "encl": 8697,
      "Ġautotrophic": 8698,
      "Ġpersistence": 8699,
      "Ġfailure": 8700,
      "ĠSociety": 8701,
      "sub": 8702,
      "ĠBea": 8703,
      "Ġwetland": 8704,
      "Ġdiffusivity": 8705,
      "aturation": 8706,
      "ĠHS": 8707,
      "Ġconj": 8708,
      "Ġune": 8709,
      "Ġdrilled": 8710,
      "Ġborehole": 8711,
      "weight": 8712,
      "Ġvolcanism": 8713,
      "Ġinvolves": 8714,
      "Ġprol": 8715,
      "Ġorn": 8716,
      "ustomer": 8717,
      "Ġswell": 8718,
      "usa": 8719,
      "Ġ1986": 8720,
      "Ġtracking": 8721,
      "ephyroc": 8722,
      "vest": 8723,
      "Ġty": 8724,
      "Ġresistant": 8725,
      "ĠAlong": 8726,
      "bu": 8727,
      "esc": 8728,
      "ĠCibic": 8729,
      "ĠDirect": 8730,
      "Ġspeciation": 8731,
      "Ġfle": 8732,
      "Ġbenthos": 8733,
      "ĠBre": 8734,
      "ĠRNA": 8735,
      "achment": 8736,
      "Ġpractices": 8737,
      "imina": 8738,
      "ĠTM": 8739,
      "Ġcomparatively": 8740,
      "Ġcriterion": 8741,
      "enta": 8742,
      "Ġlear": 8743,
      "Ġstudying": 8744,
      "Ġoperational": 8745,
      "Ġcollections": 8746,
      "Ġgases": 8747,
      "Ġexert": 8748,
      "annon": 8749,
      "Ġimprovement": 8750,
      "olinite": 8751,
      "Am": 8752,
      "Ġperipher": 8753,
      "ĠReport": 8754,
      "riers": 8755,
      "Ġ91": 8756,
      "51": 8757,
      "Ġrt": 8758,
      "Ġdie": 8759,
      "Ġpools": 8760,
      "ourn": 8761,
      "ĠSeasonal": 8762,
      "ĠNortheast": 8763,
      "Ġdeclining": 8764,
      "ĠSynechococcus": 8765,
      "eces": 8766,
      "ersal": 8767,
      "ĠRhiz": 8768,
      "Ġprolonged": 8769,
      "rog": 8770,
      "ĠCd": 8771,
      "Ġdeter": 8772,
      "ailable": 8773,
      "Ġlowering": 8774,
      "picuous": 8775,
      "BT": 8776,
      "Ġformula": 8777,
      "Ġdomains": 8778,
      "Ġrecommend": 8779,
      "no": 8780,
      "ĠVer": 8781,
      "ĠADCP": 8782,
      "aturally": 8783,
      "associated": 8784,
      "Ġpromote": 8785,
      "ĠMARMIC": 8786,
      "Ġinventory": 8787,
      "Ġrenew": 8788,
      "Ġgrown": 8789,
      "Ġcrustaceans": 8790,
      "Ġpreceding": 8791,
      "Ġmesozooplankton": 8792,
      "ĠEA": 8793,
      "Ġadding": 8794,
      "Ġpedogenic": 8795,
      "ĠSanta": 8796,
      "Ġsubmerged": 8797,
      "ĠAv": 8798,
      "ĠEs": 8799,
      "Ġbioz": 8800,
      "ĠSSH": 8801,
      "Ġpolychaetes": 8802,
      "Ġmaximal": 8803,
      "Ġexplaining": 8804,
      "Ġsolely": 8805,
      "Triassic": 8806,
      "ĠAverage": 8807,
      "ĠFoundation": 8808,
      "ilated": 8809,
      "odynamic": 8810,
      "odetrit": 8811,
      "Ġspacing": 8812,
      "ĠDiss": 8813,
      "vironments": 8814,
      "Ġcondens": 8815,
      "Ġcreating": 8816,
      "Ġfreezing": 8817,
      "Ġcosm": 8818,
      "ptian": 8819,
      "ĠEcology": 8820,
      "Ġperturbations": 8821,
      "matic": 8822,
      "ĠCN": 8823,
      "ĠNDVI": 8824,
      "Ġub": 8825,
      "aint": 8826,
      "Ġcharacterization": 8827,
      "Ġoxygenated": 8828,
      "Ġsubdiv": 8829,
      "ĠNeogloboquadr": 8830,
      "ioned": 8831,
      "Ġsuc": 8832,
      "Ġtransitions": 8833,
      "Ġbalanced": 8834,
      "Ġvisit": 8835,
      "ontinent": 8836,
      "ĠMODIS": 8837,
      "Ġbare": 8838,
      "ĠPrior": 8839,
      "Ġris": 8840,
      "Ġincl": 8841,
      "Ġenamel": 8842,
      "ewater": 8843,
      "Ġtrilob": 8844,
      "ĠHigher": 8845,
      "Ġfax": 8846,
      "Ġmis": 8847,
      "Ġalign": 8848,
      "Ġspherical": 8849,
      "Ġrhyth": 8850,
      "Pac": 8851,
      "ĠWash": 8852,
      "eleothem": 8853,
      "Ġtong": 8854,
      "Ġflats": 8855,
      "Ġ1985": 8856,
      "ancies": 8857,
      "Ġinsp": 8858,
      "Ġintensification": 8859,
      "Ma": 8860,
      "iens": 8861,
      "ĠTex": 8862,
      "iduous": 8863,
      "ĠStand": 8864,
      "went": 8865,
      "rak": 8866,
      "ecut": 8867,
      "ĠOs": 8868,
      "weed": 8869,
      "ĠPeriod": 8870,
      "ĠSalinity": 8871,
      "acts": 8872,
      "bert": 8873,
      "Ġfluids": 8874,
      "Ġdefic": 8875,
      "Ġnamed": 8876,
      "EX": 8877,
      "odus": 8878,
      "ĠBight": 8879,
      "Ġcompleted": 8880,
      "ĠLaure": 8881,
      "cers": 8882,
      "Ġclade": 8883,
      "Ġpermit": 8884,
      "carbonate": 8885,
      "Ġneighb": 8886,
      "Ġmeadows": 8887,
      "Ġeld": 8888,
      "etheless": 8889,
      "Ġbegins": 8890,
      "ĠGRA": 8891,
      "acters": 8892,
      "Ġ82": 8893,
      "Ġ137": 8894,
      "ophyte": 8895,
      "Ġdisappeared": 8896,
      "Ġexplicitly": 8897,
      "Ġnannoplankton": 8898,
      "Ġroughness": 8899,
      "Ġmobile": 8900,
      "Ġencoun": 8901,
      "Ġincubated": 8902,
      "ĠVertical": 8903,
      "TR": 8904,
      "isia": 8905,
      "ranch": 8906,
      "ĠMonte": 8907,
      "Ġprotocol": 8908,
      "Ġreductions": 8909,
      "62": 8910,
      "Ġ07": 8911,
      "Ġaims": 8912,
      "Ġpycnocline": 8913,
      "ĠMi": 8914,
      "Ġupwards": 8915,
      "Ġoverc": 8916,
      "Ġquasi": 8917,
      "ĠPlain": 8918,
      "Ġvirtually": 8919,
      "Ġepisodic": 8920,
      "ĠTu": 8921,
      "Ġechinoderm": 8922,
      "Ġpresently": 8923,
      "Ġencl": 8924,
      "burg": 8925,
      "Ġcontemporary": 8926,
      "eous": 8927,
      "Ġdorsal": 8928,
      "ĠBF": 8929,
      "Ġchromat": 8930,
      "ĠGlobigerina": 8931,
      "orms": 8932,
      "ĠDifferent": 8933,
      "oper": 8934,
      "MR": 8935,
      "ĠPL": 8936,
      "Ġimpossible": 8937,
      "Ġstands": 8938,
      "graphic": 8939,
      "Ġreactions": 8940,
      "Ġconstituents": 8941,
      "Ġincomplete": 8942,
      "situ": 8943,
      "Ġterrain": 8944,
      "Ġstandardized": 8945,
      "Ġconglomer": 8946,
      "Ġeo": 8947,
      "igan": 8948,
      "Ġisother": 8949,
      "Ġthresholds": 8950,
      "ells": 8951,
      "Ġregistered": 8952,
      "east": 8953,
      "Ġcharacters": 8954,
      "Ġcontaminants": 8955,
      "ĠAnnual": 8956,
      "Ġcohort": 8957,
      "vention": 8958,
      "Ġmotions": 8959,
      "ga": 8960,
      "Ġwinters": 8961,
      "Ġgeneric": 8962,
      "ĠSequ": 8963,
      "Ġordination": 8964,
      "Ġpractical": 8965,
      "91": 8966,
      "aines": 8967,
      "Ġmodifications": 8968,
      "ĠKar": 8969,
      "ĠBelow": 8970,
      "Ġeruption": 8971,
      "iaceae": 8972,
      "environment": 8973,
      "Ġtrapped": 8974,
      "ometers": 8975,
      "ĠPhot": 8976,
      "ĠNOAA": 8977,
      "Ġlatent": 8978,
      "Ġarchitect": 8979,
      "ĠOrganic": 8980,
      "rei": 8981,
      "ĠTay": 8982,
      "ĠDB": 8983,
      "ĠDay": 8984,
      "valbard": 8985,
      "ĠStatist": 8986,
      "ĠCirc": 8987,
      "52": 8988,
      "Ġgross": 8989,
      "roughts": 8990,
      "ĠSilurian": 8991,
      "dent": 8992,
      "osms": 8993,
      "ĠNet": 8994,
      "Ġcombinations": 8995,
      "south": 8996,
      "ĠSpatial": 8997,
      "Ġhypothesized": 8998,
      "oda": 8999,
      "ĠNit": 9000,
      "veloped": 9001,
      "Ġheterogeneous": 9002,
      "ĠRegard": 9003,
      "Ġdegraded": 9004,
      "Ġintermitt": 9005,
      "Ġroles": 9006,
      "Ġsituations": 9007,
      "Ġreliability": 9008,
      "anol": 9009,
      "elp": 9010,
      "agellates": 9011,
      "Ġconsumers": 9012,
      "Ġpulse": 9013,
      "ĠBathy": 9014,
      "Ġdent": 9015,
      "ĠMat": 9016,
      "Ġfunded": 9017,
      "ogether": 9018,
      "ephal": 9019,
      "Ġmonitor": 9020,
      "useum": 9021,
      "Ġconodonts": 9022,
      "ners": 9023,
      "Ġinterbedded": 9024,
      "rance": 9025,
      "Ġnets": 9026,
      "Ġreasonably": 9027,
      "azo": 9028,
      "ĠTuronian": 9029,
      "asse": 9030,
      "umps": 9031,
      "Ġmanif": 9032,
      "ĠNorthwest": 9033,
      "Ġphytodetrit": 9034,
      "56": 9035,
      "gi": 9036,
      "Ġpiston": 9037,
      "Ġgig": 9038,
      "ĠField": 9039,
      "Ġ1979": 9040,
      "Ġreserves": 9041,
      "inata": 9042,
      "Ġdives": 9043,
      "ĠTerm": 9044,
      "ociation": 9045,
      "auss": 9046,
      "Ġlandings": 9047,
      "Ġgeochemistry": 9048,
      "growth": 9049,
      "ĠĠĠ": 9050,
      "Ġintensities": 9051,
      "400": 9052,
      "ĠVict": 9053,
      "Ġsalmon": 9054,
      "ĠAbund": 9055,
      "Ġsubdivided": 9056,
      "GS": 9057,
      "ja": 9058,
      "itary": 9059,
      "Ġgovernment": 9060,
      "Ġlongitude": 9061,
      "Ġtemporary": 9062,
      "Ġdelivery": 9063,
      "Ġsill": 9064,
      "Ġcame": 9065,
      "isely": 9066,
      "ĠNN": 9067,
      "Ġperp": 9068,
      "Ġslower": 9069,
      "Ġenhancement": 9070,
      "etric": 9071,
      "Ġstressors": 9072,
      "Ġcoordinates": 9073,
      "Ġinund": 9074,
      "Ġrely": 9075,
      "odium": 9076,
      "ĠStable": 9077,
      "Ġsymbionts": 9078,
      "fflffl": 9079,
      "Ġrein": 9080,
      "opulation": 9081,
      "Ġdiel": 9082,
      "Ġconcerns": 9083,
      "ĠSurvey": 9084,
      "iac": 9085,
      "unit": 9086,
      "Ġtrawling": 9087,
      "hing": 9088,
      "Ġvital": 9089,
      "Ġmultid": 9090,
      "break": 9091,
      "Ġlighter": 9092,
      "Ġig": 9093,
      "olume": 9094,
      "Ġrib": 9095,
      "Ġmetrics": 9096,
      "Ġtechnical": 9097,
      "OL": 9098,
      "Ġnative": 9099,
      "Ġaccumulate": 9100,
      "ĠRecently": 9101,
      "poor": 9102,
      "ifting": 9103,
      "Ġoutlet": 9104,
      "ĠYork": 9105,
      "Ġtexture": 9106,
      "Ġinuence": 9107,
      "Ġaware": 9108,
      "ĠSvalbard": 9109,
      "Ġspeleothem": 9110,
      "Ġmicrozooplankton": 9111,
      "ĠBengal": 9112,
      "ĠLittle": 9113,
      "ĠNeogloboquadrina": 9114,
      "ief": 9115,
[...]
